1E8B
98FE
2270
235F
A7AF
A59E
09BC
A906
25DA
9B19
1F15
A8E2
268F
A555
245C
A865
A8C1
A80F
A95D
A372
A69F
249B
23CF
1EB2
A59F
A4C5
A35D
A4BC
29A0
A5D2
23C4
A198
1F09
21B1
2419
A536
275D
A666
A8CC
A756
2297
A21E
A393
A5B7
9D59
A820
A2D1
0FAF
271F
A632
1974
A990
2435
9B72
A883
265E
8A42
2340
A8D7
203B
2241
1FF5
2301
A927
9E1D
224F
A8B7
2552
A8E5
A3B8
935B
241D
A7CF
214A
1FA1
A3C5
26F8
1A0C
A030
A86A
A867
A54F
26B0
A450
A44B
A91E
A01E
A21C
A6DD
2340
A6DA
2078
A03B
0DAF
2727
9F11
A73E
163A
1DD7
245B
23B9
A819
A047
A042
21DC
9991
2682
A7EC
AA52
9D2B
A8CC
212E
20AF
AB33
A8E2
2532
9181
A348
9AF0
A988
21C6
A6BC
99FE
2003
A6DD
9A82
A7AA
A898
A8C1
1E35
A6DB
25E4
274E
9888
1FE5
1D42
1678
9AFC
2511
A0F4
1CF2
A37A
1A7B
A8E6
9FA6
A59C
A848
A685
A89B
A8E4
185A
A78A
1FF0
9C7E
A116
1E91
25B0
A805
9C04
205F
A6F7
256B
1AE6
15E3
9934
A0E5
9CDA
A5A4
23C9
2587
1F9E
236D
24D6
95E4
A7AA
238A
A54C
2571
2072
2620
26F9
24FE
A8E7
A1B8
23A0
A924
A558
1488
A0DC
190D
2471
A885
A982
153D
209A
A784
A4C6
A901
A808
A372
2693
A19D
A079
A44A
A6D0
A766
A773
267B
9FFF
9E1A
26C8
A74F
A749
A549
9C2B
A418
950F
21B2
20C7
A5CB
2414
A802
23E0
278C
27EE
262B
A626
1A24
A82C
A240
0FE6
AA9E
1BB2
267F
25B0
A9C3
A8BB
9D7B
2856
2257
9D8A
1DAF
879A
A8B1
A965
2278
A936
A563
AABA
AA80
272A
1C88
2535
A0E8
A5D3
26F2
A91C
A716
9C5F
A862
A86C
9D32
A7AC
A8BE
A479
1877
1948
A591
A252
9F9B
2701
2435
A001
A869
1C4C
A86E
A90F
A243
A137
23AA
A262
A1FC
A188
95E1
2696
2205
A83B
2508
2334
9C52
A0F4
25A8
2550
1BAE
A18D
A3AB
26BF
A84B
1D4E
251A
A56A
2410
A080
9DB2
A4C9
A849
A43B
A99F
A81A
280E
1773
9C9B
251E
A2B0
A7D1
A325
A101
A4DE
A685
A6C8
A8BE
2680
A826
A3D5
266E
A5B0
A420
AA14
A534
A880
A8F3
245E
8D14
A008
263A
A93A
A30F
A855
223D
24E0
18AF
9A80
2492
A29A
A14A
A2D4
A63C
A7C3
245D
A331
A876
A737
1FA4
A712
163F
1577
1B80
A474
A8F2
A1D7
A938
16A7
2357
2207
2419
9C51
1AE0
246F
A14F
1FE9
A5D4
A545
9A74
A4DA
A721
A20F
A408
A582
A3B7
2203
A4E9
208B
9BC1
9D0E
A4BC
A6BE
1B3F
243C
1E65
A5E3
A3D2
82C1
2410
9C19
A4FF
A550
289E
A839
215C
20A3
A426
A36A
2961
8E5B
A66A
9553
A635
9D95
283B
9DDE
9E62
A776
9DD4
A17B
9587
9BB5
A1E8
A315
A030
A541
A886
A723
2319
244F
14E0
24B3
9A83
A5FA
9ACD
A4A2
A916
A823
921A
2276
2556
2086
245C
1D73
A4C8
A906
1EA9
2664
2547
2134
A34B
A6FE
0F79
A4A0
2448
A4A6
A804
AA2F
A2C3
A331
20A5
A6F0
25EA
16D6
230C
2332
A2CF
21F3
A43E
A6E9
A3A9
2488
A6A7
A524
1E64
A572
A511
1D19
9F45
233D
A34A
A6D7
A308
229D
A1CD
A34C
A051
2495
A958
A6CF
9E89
A869
2698
24A7
2112
A2DF
A61B
A815
A011
A19B
1F68
1F0C
1C6F
A91B
1EDC
A78E
20F0
26E4
A878
2405
2875
20F9
2732
273C
A6F4
971C
A5C5
A510
99D7
A3B3
A6B1
22A3
A780
2479
9ACE
A1CD
A80F
A45D
A871
A823
2864
2647
A1E7
1225
A157
A676
2429
2788
2677
1E33
A821
25F8
A7C7
A6D9
246E
2483
201A
2219
A8CC
A4EC
10F5
24DF
A82C
A45B
A517
A815
A99B
26D2
A887
1B95
9DCF
A807
A487
A919
1C4F
A327
21E9
A8A3
A9AB
1A88
A6C4
A9CD
207E
A90E
A706
A8A3
1D32
A655
A981
2516
9873
A6D0
A77E
249E
18AA
95C9
1C23
1EC9
A768
24CC
AA1B
A8D3
977C
A0DE
10FF
A8C8
A81E
1D0B
A336
1F4A
A782
9EE1
A8FB
2470
A403
A7AD
A735
8F03
2219
A068
2795
A904
A2FB
A56D
A90D
2802
A28E
A294
2435
1E75
211F
A7D0
9D59
A9DD
22BC
9A0F
A80E
2168
1FEE
25D0
1851
23A7
A32A
A607
A430
1E54
2071
A86C
9855
A71E
2126
A7D0
26ED
0FAF
A30A
A2F8
A6E9
A95C
9849
9DCC
A074
1E24
A782
1CA7
20CE
2570
A1C1
A790
241E
25AC
91DE
A8D7
A61B
1B64
A8D1
A588
A541
209A
A6A9
A419
A382
A520
A6A1
9E26
A83D
9D19
A8F4
A915
A277
A8B6
1FDF
9F17
A773
24B1
26A5
9653
1B10
9CB1
23DF
A588
A78B
21BE
A216
163C
1F44
2640
1F87
9A97
A489
20FC
A57A
145D
A8AB
A89C
A386
A35C
2559
222D
A6DE
9A82
2855
A671
8875
9AAD
9BD6
A8C7
23BB
A0FF
A5A4
A0DB
271D
20B5
27BF
8BDD
A85C
2235
A3ED
2514
1DB5
A978
A5D6
A71D
2451
15B8
230D
2239
A498
A629
A9AC
A176
23F5
2479
9D9A
23E9
9B54
1DCE
2091
2142
A59F
2088
9EDE
9D69
9C46
A2FE
9D81
A974
2749
2144
1B80
2880
2898
286C
1F5F
A328
9A23
9D90
A821
259A
A5B5
24D9
2585
1CC1
2847
2152
990C
A1C7
A859
A381
A27A
A7FF
A83F
9EE1
252D
A9FB
A869
A757
2288
9A24
257D
A9D3
A665
A16B
2142
257F
A046
A529
1A97
A8AB
9A25
A936
A0C0
A80C
A6EE
26EC
211C
2047
A8DE
A8AA
248C
A6E2
064B
248F
A6D6
9C4E
A8EF
A57E
A30E
A487
2643
23C0
A710
AC16
A70D
1D3C
A825
AC6D
AA0B
2177
A5FA
A7A6
AA55
A908
97E6
A924
9CBD
9844
1E50
A851
A4DE
A737
2723
9A7A
2441
A656
A652
A719
2521
A53C
2418
A0CC
A1F4
2417
9BC5
25BC
A6BA
9A2A
2714
A623
A4C6
A471
21ED
A5D2
A8BB
2809
A884
A78D
A3A2
9F2C
A773
A40E
19E8
1329
A710
9812
976D
A478
A85A
8DE2
1EE9
9BC3
9D3A
A646
1C80
1EDE
9F8B
1A44
9999
2439
A759
249F
9AF5
220A
1D77
A5E1
9FF6
A545
A8E7
25A4
22E1
A594
A0DF
A8A3
A5F9
A068
A331
9DAA
2432
A0D7
A897
079A
9435
26B6
A4E0
A1DB
AA5E
A3CB
A82C
AAAB
96F0
AACE
A6F1
A3BA
A22D
A9B9
AAC3
A803
A5E2
211C
AA08
ABF5
9C84
AA0F
A44C
25BF
A651
A8F5
A269
9FF1
A716
27A6
A5EA
9DCA
2274
A848
26EC
A94C
261C
2310
A014
1583
241C
2621
957E
A493
1DC7
A5D8
A39F
AA24
AC7C
A369
A681
A1F3
A55B
AB09
2582
2143
AC2C
9F7F
A367
9A4A
250A
ABF1
AA29
27EC
26FE
A51B
A63C
AA62
99E8
A07E
1B93
A007
24E2
A834
A6AC
25A3
9BCA
9A21
9E9D
8E46
A25B
A530
1C54
9179
A1CE
A85E
270B
2802
00B9
A1BB
94B5
9668
A13B
A6C1
24B1
A56F
A48B
216F
A8AD
A96E
AB40
A5B3
1C4A
A706
A827
A303
24D3
A888
1920
A7D5
9CA5
26B9
1F44
A1B8
2764
A9C9
2456
A88E
A049
A810
AC07
AB4A
23E3
A177
2551
A368
2323
A663
A4F6
A5E9
2417
A751
AA53
AA03
1C34
A4FD
A667
AC0F
A943
943F
A84D
944E
A6C6
A897
A937
AA18
A49F
A873
9FBF
1A6B
A6DC
A8AF
A1A5
AC2F
A8CF
A733
9487
A6BA
9A21
9CD8
A8E9
253C
22A2
1A17
A428
A5EA
A964
A881
A7D0
A82E
A6C0
A11B
A5B9
A69D
24A8
A85D
9CEC
15F3
9F0F
A89D
A21F
A872
A8D4
A825
A913
ABBD
AA47
A0FD
A2B2
A03E
A787
AAD6
A0E4
A835
9F9F
A861
099A
A472
9E55
A744
A8F4
A6EA
A929
A828
9FB9
ABEE
A798
24D4
1F35
A935
A016
1A96
9C3A
A43C
ABF9
A4BB
1E97
A591
9EED
A28D
AC4B
A4AD
A8FB
AB35
A932
2510
A804
A9AA
A625
9881
A131
A4AB
A863
A568
16CC
A455
AC49
AA1E
A5DB
A187
A3DA
A91D
A831
AB16
930E
1F2D
A552
A93D
A7F3
A8AB
9D91
A095
AC0A
94DD
A8DA
A838
A4CC
A7A2
A78B
A9A8
A779
A735
2020
A704
AB2F
A705
A4C7
A04F
A6FC
972A
AC25
A303
A7B2
AA27
1F1F
A458
2574
A9D4
A8C2
A40F
A491
21FB
9B21
1975
2730
A922
9959
A478
A727
A86A
A3B6
1FC5
1A5A
21D5
A3DF
9CF1
24CD
A248
A630
1AF2
1D38
A1C0
A4C3
23E8
A144
9EA7
0B79
A13C
254B
26E2
A3A4
1CF2
1BE2
9E62
A810
A1B2
2469
A759
988B
26B0
A873
21A9
2533
A473
AA6B
AB50
AC75
9480
9DFE
242D
ABAD
1DF4
A5A0
AADB
26E9
A844
2762
A3F1
25B4
A655
279B
A8CD
9C30
A495
A135
A590
A8D6
A8AC
AB67
A803
9B64
A5E3
A767
8E5B
A110
A208
A7E7
A7D4
9D24
AC96
A164
25A4
9047
A2E8
A990
96AA
1ECF
A789
9CD3
A3C4
9A8F
A97E
A98B
AAE5
A3BD
9D17
A6ED
A891
A988
AC5B
A033
0D92
A37A
A9CB
AB09
A47D
AC47
A761
AB2C
A61B
1D54
9E69
A265
A648
A827
A823
21D0
179F
A863
A29E
254A
2722
26CB
19B2
24FE
1E98
2419
2786
A0DA
26AD
2223
262D
26B3
A384
2418
2875
26BD
2609
A288
A616
9E3A
9DD4
A685
9FAD
26C0
9E5F
9CBB
ABF7
A0E3
AC4B
A0A5
A813
A552
A4FF
223D
2447
A8F7
1D8C
9F3F
A574
24C8
A8F2
9FEE
A043
A7D8
995E
AC71
A2A9
ABE1
A572
AB97
A06B
A425
25EB
A83C
A1FC
9D4A
958C
24E8
204E
A70B
26AF
24B8
A60D
A441
252E
AA63
AC71
A8A2
A3A8
A410
A68A
26CD
1884
A4A7
A933
257B
1C2B
A603
A8C7
1EB0
2447
209F
A7F5
A887
A2E9
AB73
A556
A510
1B72
AC19
A40F
A37C
ABAB
A76E
A6F4
A13D
A6DE
A914
1C11
25B1
A815
A116
A81F
A99A
A17E
A404
A023
AA13
A2C2
24E2
A6A4
A958
A84E
A7EC
A4E1
A942
A569
AA36
A93F
A838
A54A
A599
2663
2463
A59D
AA79
AA4E
1CD3
AC27
A807
A7C5
A895
ABEF
A8D9
A461
1434
2165
25EE
9B28
A2E3
273C
A5BF
1E2B
2451
25F7
20F9
A89D
A333
276D
258B
18F3
1AE3
2112
A8AF
A425
2440
AB7D
A300
A868
2599
1E3C
A72D
24F0
A2B5
A83C
A58C
A87A
2068
2310
A4E6
A5B0
A608
25BB
21A6
A87D
2738
1F89
A85B
A3FD
A4C8
A6DE
271C
21E2
A056
A8F9
0B3E
A06D
A47F
A8C8
A438
24D1
A492
A27D
9422
A45D
9E30
2654
AAEB
9ADE
A863
AA20
2821
9AB0
A666
25D5
A8E6
1A69
9B5D
A822
2509
1EC3
1E1F
A12D
24B7
A7CD
266E
9BE6
A426
A39A
A465
A6B3
A928
A638
2027
A19B
2168
A791
2618
241F
9F0A
1B60
1EB7
A8F5
AA59
A7CF
91B4
A815
AC36
A281
A0DC
A271
AAC0
A508
AB0A
AB90
A819
A349
1D23
2580
A544
A68B
A6B6
A6F7
9422
207E
1472
26B9
A1EE
2431
1F01
A61C
26D7
1FB5
A40A
9D39
A787
A8C1
A926
A533
135D
A27B
226E
A899
24ED
A8FF
A42F
A8A3
2074
A1ED
A375
1E1D
1E88
9818
2040
A527
9EC6
ABEB
AAEA
A5A5
0B9A
A15B
A192
1F39
A846
A408
A453
26FE
1DD8
26A1
A0D0
A705
A87D
A7A1
A5AA
2228
1C2F
A84D
A80B
A126
A12E
A7DC
A63D
A22E
A7B3
989F
A04E
1DEA
2467
A0AA
A82E
9DD7
A334
1C63
1888
A267
A617
A2F9
A765
24B2
A401
A6BD
1AFC
284A
2064
A2B1
2843
A85E
9F38
1929
91C4
A4B3
2226
2194
A270
A62B
A0BF
A41F
A694
276D
A824
2706
23D2
A598
216F
A7A6
25F8
A101
2484
A8D2
2277
A91D
A610
220D
A81D
9277
25E8
1DF9
A6D7
277F
1C8B
2757
1FCC
A543
25C3
A273
210E
273A
1FBB
223D
A411
A429
9EE8
A6CA
23E1
1C13
A0EF
26A6
1D74
A6B3
A8A4
1827
248A
A0AF
A8D0
A0CB
A64B
A6DD
24E5
25F3
2783
A8A7
A5C9
2734
1880
A0C9
A8AA
A661
234A
A86C
245F
A0F6
27D1
A632
0CF7
245F
A45A
A0BB
A7D6
1694
A406
A1B3
A8B3
A53D
223D
2624
A609
2741
9D01
2693
A23D
A19B
26FF
1C21
A7F1
A217
A8CB
2031
119D
2834
24E9
13FF
2433
A5A9
191D
1FE4
A3B4
94CF
2140
A847
A88C
A4FF
A904
A8FF
18E3
A658
25E1
1BDE
906C
2365
A8C0
26FE
A730
23E2
25A6
A4ED
259A
A808
99C6
A631
A92D
9FBD
A3F0
9962
A452
2739
A88B
2503
2644
2158
185F
9A8F
A03A
A7A0
A868
A84C
A81C
2321
1C31
24A9
A204
A72E
A89D
243C
239F
208B
A68C
A6F5
2285
27D3
1F4C
1E1F
A5AE
969B
A750
A681
25E5
9CA6
2583
A4EF
A194
A221
27EF
A52A
273C
A6C5
2022
27D2
285E
285E
9AE1
2711
25A2
2715
A8A3
2792
A86C
A924
A454
A8DD
206F
23FF
A4A0
2539
2445
A095
1BB4
A3DE
A1BD
9BE3
1639
2544
A7D5
2200
9B43
A2C7
26C2
24CE
A4ED
A91F
2392
2620
A162
2298
A6BC
0464
A5EE
A0B8
A759
276E
A806
A729
24D0
A6B7
2528
A6B1
264A
A877
A0FC
257C
A854
A3A7
8F29
9B09
A435
25CA
2404
A55D
A401
A8B3
A0BF
A1D7
A18A
A27D
1844
20BC
21FD
23D5
A859
A85C
A82C
A3F6
2490
25CF
A8E7
A82F
A84F
A666
A824
A47B
26AE
A61C
243F
A7B0
2784
274A
9FAB
A532
A389
102B
26FC
2621
A2F4
257F
2272
9C8A
A5DC
2129
24F9
1D87
A28A
A886
A478
A8DE
A37C
259D
A72E
222C
A72B
A4EA
A7E9
9D65
2709
A7FB
A041
A824
1142
9C24
A334
A406
A6B9
1D85
A2FD
2118
A80B
86C0
283D
A440
A4F5
95E8
A352
2460
A596
A892
217E
A713
A58A
A500
A8B4
A098
1BFA
23B7
A842
2546
A6D0
230E
9CA3
2362
A7A9
142F
A26A
24BB
2428
1CB0
A4C8
1FF3
A5FB
26F2
A92D
A310
9F42
135B
A56B
1F17
A47D
A893
A621
A53F
A44E
2227
9C37
A844
A856
9D07
A714
A298
1F5E
A079
9D0E
A545
A925
26F0
9A04
A865
2173
A641
9C8D
2617
278E
2508
A805
A2C8
25BA
25AA
1C18
A18E
A830
A77E
1DCA
19DD
A848
24BC
A875
A124
A8E3
A5AA
9E8C
26D0
A718
1A99
A72A
2303
2666
A431
25C2
24E8
2709
A76F
A105
2160
24D9
1BA0
A59A
1C56
A6B9
A485
A2DB
A4D0
9DE4
1D65
1DF2
23A9
A829
A13B
24CD
A29B
A281
253D
A883
99D4
9F7B
24A5
A806
A517
A072
A423
9C94
A8AE
2745
A28E
A8D2
21C4
9E65
9D73
A464
A92B
A32F
20C8
1843
A924
A5F2
A287
A83C
271F
94BE
1E21
2792
A8D6
A727
A55E
2497
A547
A518
237A
1823
26B4
2695
260B
9B7E
A09A
2621
96FD
244F
1F55
1CFB
A01D
A271
A6A5
9CE2
8F85
9A34
25D2
245A
9622
27F1
A7DB
A77E
1D20
2880
A427
26C7
A1B2
A59D
A805
23D9
2545
269D
A768
A8AC
A84E
A416
9B14
0CD5
A576
2350
2641
23D0
A92C
1A3D
A591
A7E7
26C0
24A5
24A5
150F
A57E
1455
25D0
A51D
A7B0
A238
A532
A5F8
18B0
1463
A0B5
A817
A842
A5A5
A223
A709
A737
A477
A5C8
A612
A1C7
A398
27A4
A500
2666
A72A
A8F2
1D0B
A6E7
244F
A76C
1468
252C
A931
A655
A525
225F
A596
25A5
A52B
1BDA
2558
2439
A837
21B0
1F8A
14D4
2676
1D2C
1FFB
A5E2
A530
A12F
268D
9B0D
165C
A5AB
260E
1C18
A6B3
25F4
1ED6
2730
A628
24F6
25A8
A81C
A8AA
A360
21B0
9CE7
9F3F
18B6
A4A4
1A39
255A
12D9
207E
A812
25DE
2594
9EA5
A1EB
A60D
23A7
1ECA
2631
A3BA
2596
2646
1E3E
A853
262E
20E9
2170
A8B4
A450
2621
A84E
A60C
A2D2
26FE
A5B3
9F5B
2085
2513
A890
16EF
A525
263D
A4E4
0D60
A2AD
A369
A07D
2620
948D
2327
A7E5
A715
9590
A912
A21C
A4FD
A72C
A533
1935
A848
9CAA
2741
2713
2639
A873
9FD0
A119
26B2
246B
2265
2030
24F4
99B3
A784
2658
9FE8
A574
9275
275F
26E8
2660
A711
A547
9CCD
A540
961A
A29A
281E
2007
A1C6
248A
2713
A698
A38B
2370
A3CD
A1C0
9DD5
9FDB
22B1
2048
21A3
1E62
A301
9309
A717
2165
A2D8
A65A
A89E
1FE7
25F3
1FE9
26EB
A868
25DD
271C
A44E
9CF3
9EF5
2008
A8D5
21B8
91E0
A2E5
A8A7
25D7
A3C8
1711
A42A
2094
24EE
A6CE
2110
1A7F
1D9A
9AE6
A7FA
2723
25A2
1F0A
A23A
A717
23F0
A410
A920
A26F
A44A
A710
A56F
A842
26DE
A60A
1875
1EC5
A7BC
A56A
242A
2011
1B44
A757
1A86
24C0
218B
2330
A25E
2525
9EBF
272F
1BAE
1E5B
14A0
259F
1D18
A7F1
277D
A5CC
25B7
A671
249B
9E44
A1C4
2655
258D
A801
A456
A90D
A38A
AC42
A50F
2882
A377
1B00
AC58
A4AB
2AE9
271F
9D18
0FFB
9EAC
9B16
A56A
A084
A810
A4D9
8FF2
A697
A8C2
A37F
9CB2
97ED
A4B3
2862
A66D
A6E4
A700
A5E1
A6A4
A54D
2697
A4E1
9D4B
A6BC
A4B8
A610
9C9B
A78D
A804
A794
A830
2010
A785
259D
AB71
A191
1CBE
2067
26CF
A45E
9934
A903
A4E4
A798
A875
25DF
2791
8DCD
AA95
9DDB
9DCE
A96D
AA9D
AB4E
95B4
AAEE
A7AF
A72A
A8E7
267C
A55D
9BD8
A74D
21DA
A576
A6ED
27C2
A49C
9A43
A689
215C
2456
1F54
24D8
A4DD
2381
A836
18B1
1F5A
A8F4
23A7
A3C6
A85C
A8AD
A0D8
8FE1
2428
A8CB
1EFA
2345
225B
A049
1892
AB01
A948
9C5F
A53A
A989
A6FF
250B
A05A
252B
1F8F
202E
AA10
18D9
2791
296E
A598
A3AB
A13B
A361
A58C
284B
AA76
A875
2591
A32E
962B
AAA2
9A17
A3CE
A5A6
A3E0
A10E
AC40
266C
270A
A73E
AC89
AC54
A5CC
1E0C
A2C7
27A5
1A21
A81B
2047
A66A
A830
2536
1A08
1BC8
20CB
A404
A4E4
A5BC
A27D
2101
A88D
9B0C
A57B
A5BF
AA19
AC16
A862
9C54
AA2D
2295
A2E3
A8CE
A5C4
20F9
A9EC
AA21
967C
A7CB
A724
ABB8
2862
2B37
2953
2493
26F5
A6DA
A26C
9CEA
2147
AA99
A159
AA9F
A1C1
A0BF
A8B3
2801
9FD1
9CA2
9B42
A99A
2354
A6BE
1D54
A542
A4CB
9BEB
AA25
2451
9DE5
2459
280E
A88D
1A1E
A844
1AB4
115E
A9C3
1E79
9CCB
A716
A73A
A0AF
1E5E
A597
A912
A871
235F
9FEC
1F88
AA85
A1AD
AA9A
21FC
24AB
A4A4
2488
22CA
2637
A4D7
1ADA
AA0A
AC07
A4EB
2226
26F4
A85F
A9E5
A50F
9FC4
2406
AAC4
A5A6
AA42
AB7B
9DE1
A64C
A147
A19D
A47D
25D1
06F2
25B6
A679
A091
A9AC
A79F
A39E
2960
2861
A8FE
2CC0
1BD0
A391
A259
1B83
A23E
9A9B
2113
26BE
9F9A
A8EF
A0F2
25DA
97F9
9C9C
A517
2563
9EA0
29BB
29E5
2918
A65B
296A
2C5B
A0B4
A192
A46D
A466
21AF
22B5
A24C
AC27
A1B2
A2E3
23B0
A034
A5A1
AA69
2816
174F
117D
A4C2
254B
A811
A2C9
204C
AA6D
A1D1
A902
AD41
1D42
A0D7
26D9
A880
27A8
A620
A83D
2AA1
A48D
A35E
A9AB
A5E7
2474
A9C0
194B
2463
2D4B
2C92
95DD
2470
9C60
2465
2998
285C
26A2
AD0D
AB4B
AA67
8F46
A96A
2679
27FE
A048
2402
A810
A41E
A98A
287E
1E2B
9F35
AA31
94DF
0FD5
A73E
A5D2
AA42
A7A8
9BB6
A868
9F13
A97C
2008
AB77
AA1F
A9E9
A4E9
A9FD
ACC1
AB3D
A811
A911
A9EB
A982
A766
9F50
AD0A
AA3B
AD90
A840
A77E
AC85
A818
A036
A2C1
A998
2711
9C8F
A82B
2068
267C
22EA
2710
A2BF
23EC
A706
A909
A8D2
2660
A3A6
A70E
A56C
1F45
A514
A875
A114
A756
9935
A827
A529
27B7
AA09
AD3A
A9A1
1943
9C0D
A5A8
A008
ABC3
AA67
96E9
A8A5
217C
2709
2483
ACB1
A609
A14C
A3AB
2210
A2FA
A9B1
AC33
143E
A1D2
ACEA
A309
A4C7
A2C7
AADC
1DDF
A9C6
23AE
AB27
98B3
A43A
23EE
241B
A577
9B41
A03D
A620
AB31
23DE
A5F0
A9C8
2525
A508
AAB2
A9B9
A8E5
ABEB
AB2E
ABBA
9A70
2956
241E
21AE
A947
AC1D
2564
258D
28C3
2016
A824
2364
A781
99EA
A811
25E7
A404
2905
A714
27AB
24B3
23F4
A6B6
A663
A155
9A0A
A396
280C
24B7
A090
A856
A51E
A6B0
2035
267C
2866
1E2E
2821
A248
21F4
20CA
24B0
A85E
20CC
A43D
278D
9FDC
A117
1D45
2606
A2C0
9E61
A3EF
2474
2542
245C
97A0
262B
235B
A632
A470
AB25
A0EB
A83D
A977
A861
9CC3
A9F3
ADF7
AAEE
AE81
AD96
29C0
A6BB
AADE
A8AC
0336
A820
A24F
21BE
1C58
A6E5
231C
A2D2
172A
9E16
A4F6
AA0A
AC4E
A8F0
A30A
235B
20E7
A45D
9478
A78A
A4B5
A8BC
AC58
16C2
2074
1774
9A3D
2401
A883
AB08
A121
A6A0
2899
A932
A500
A007
A6E6
A0F1
1890
197C
183C
2163
14B8
A40F
A928
A8F5
1F9B
2123
1F6B
2780
29E4
A83E
A87C
9F05
1DFA
9FF7
AB5A
1AB5
24E2
A6B1
281B
281D
29C1
11EE
A335
AA5C
AC26
AB1C
AB06
AA5F
A9CC
ACD6
AA97
A880
2554
28C6
A93B
A922
2227
AA87
A905
AA07
21AE
AB8F
A717
AA80
A93B
A5DA
A824
A9CE
A548
A8D2
A4E6
9F83
A094
AC8C
A8FB
A632
A7A9
A910
AA14
A610
AA94
2493
A67D
AA34
A907
A012
18CA
9E5A
A26A
A4A8
AAC4
0FDD
A268
A865
A90B
A828
A214
A9C2
A808
A5FF
A7DA
21E9
A1B7
26E8
0A18
24F8
A55A
27F5
223B
A28F
A57A
279B
2140
281F
21D0
1E8A
2222
2592
A328
9D58
27BF
1E87
259C
9C8C
AC74
AA4D
A7A9
97D9
A8A1
A5EF
A102
11D3
2A04
26F2
AB87
9926
A7D5
1D37
A41B
96A4
1EBD
A0E3
9ED0
249B
A3B9
A8CC
AC29
2203
1BC2
ACCA
AAD7
AC33
A317
AAC4
AC32
A8E4
22F9
A4D1
24E1
97EA
A86E
A889
A8C1
2312
A454
A8CE
A8A7
185B
A6A2
AB68
A406
A890
ACB4
A9F5
A3AD
A169
2781
26FF
22B7
2146
24CB
9DBB
A606
A56E
A68C
A7F8
1A68
2869
999A
19FC
A2C7
2460
A1D0
2410
27FB
26B4
9DFE
A884
161C
2023
2883
AA7A
A93B
1AF1
A33D
A84D
1AED
A798
9A5F
A40B
262C
A865
A672
23D2
9EAE
279E
1F65
2B00
293B
A4C9
A761
29C7
A06E
A849
2C3F
1D4F
2A23
2C64
AAC5
A0AF
2E4D
2EB9
2E15
269C
B01D
AD64
AC3F
2820
306C
ACF4
AC4A
B2B9
B0DA
30D1
B1EA
B3C3
AF6F
ADD3
A35F
2173
28EF
92B8
A267
A5CD
20F7
2753
A43F
22CC
A806
9F01
2527
1DDC
A5FD
9C78
2879
A55F
9B86
27FD
16F8
21DE
A702
A5BA
A5E4
A438
2DAC
2AF3
2EB3
29A2
2982
A49F
AFB3
AD1E
A6D6
288C
2926
B06E
AF4A
A157
2E71
ABC5
A7C4
AAEC
ADDD
AC9D
AB5F
A8C6
B064
AEFE
A8CA
2B74
2865
A431
95E6
1E97
19BA
A19B
254C
A75A
1E9C
26D1
2691
2419
A34D
A75E
A479
1FA6
A037
A909
267B
9B9C
AB42
25CD
9F6C
2582
A0D1
ADF1
B17B
AD7D
21E5
A62C
ACFD
B0A8
B07F
AD73
93B5
232C
2D40
2EFB
A857
1B07
A951
AC2B
27BE
B0F7
AE82
AD62
AF8E
ADB5
B01F
289B
B187
AA32
1E24
996C
2412
AB72
A8D3
A2E3
AACC
B132
277D
3022
239A
A894
B27B
B0EE
2D13
1E49
AA41
B069
B02D
ACAE
ABB0
25ED
2C55
1EE3
9F0F
2D60
2DAB
2D18
2A42
A555
A969
9162
3020
2D06
2C18
A7E5
2AA3
2B1C
2BA5
2F75
2850
2E5A
A605
2C70
2114
2535
2D82
2CA4
A0BA
1BB0
2C17
A215
2F6F
2BDE
2A3C
A60C
A67F
2DA8
1915
AE2C
ACB0
B020
B175
AE30
3227
3047
AD4C
ABA7
AE37
289A
2C4C
3026
2ADE
A969
AF59
2D8D
2ECB
2E1E
AC9B
AE7E
24CC
A6AA
2C6E
A1EF
ADD1
2C78
A4F9
2E6A
9E06
2923
2F91
2469
288F
2BFF
281D
27A9
2697
B074
AAF0
AA99
237A
27EC
B292
AE53
28BD
B062
A81C
254D
2855
29E8
A9B6
2D48
A224
A81C
A8B1
ACD3
2D22
A89E
B009
ADDB
ADA5
AAA1
B012
B078
AA45
AAF3
B268
ADA1
A558
A32C
A406
B200
AA68
AFA5
AD23
AD5C
B069
AE56
A905
2D3A
2D6E
ACD6
AD66
97FE
9D20
2897
AF2B
2D88
3021
26B9
255D
ACFE
2CBB
2E53
2595
ADEF
B136
28AF
1AD7
AEF1
B206
B267
2725
B1B6
AFB7
ADBC
AE93
B06D
B089
2C63
1C1D
ACC5
2AD7
2BBF
3226
32D5
314F
33DA
28B2
1D8B
A8EC
B033
3410
26E0
B02B
A912
ABA3
2EE3
AB3C
B07B
AA4F
9AF2
2BE7
A801
2216
ACD8
3035
2DD9
3077
2FDA
32F7
30B1
AB52
A6B3
A0FC
2397
AC3C
2E39
AC70
A274
28C5
A8D5
9E7B
B26C
B0D8
A7A5
2DFE
B2A1
B2B4
A6A6
A2C8
AD12
ACBA
B43C
B105
A558
24D0
2563
B4B5
AF15
2338
9AC5
AF2F
B3B9
A6ED
A97D
2275
A7E3
ACA9
AC51
255A
23CE
AB5F
AC1F
2D1B
2F00
AD04
A6BD
AC8A
B0AC
ADBB
AD6D
288A
AD4C
B064
AE1E
AE26
2C27
2632
A757
A4BA
2E1D
2C62
2A47
2B0F
25BA
2D99
2E88
2F91
2E52
303B
3204
A5F2
935D
20E2
A476
2A19
25B0
9F48
A35A
A529
A388
A780
A921
A911
2331
A00A
A9EB
A85E
A59A
2AD5
2426
A96A
A87F
9CF2
96D9
2057
3013
2F55
3189
2452
A996
2E36
AAFF
240C
A3F5
1C9C
AA22
AEFE
AD0F
293B
A87E
ABA4
AEA2
AEB1
B356
AAF5
1F1B
B04D
2008
9E18
A714
3027
2D4E
2B6D
2796
2638
2DAB
2A7E
A5AB
9928
223D
2EF5
2CB8
2491
25E5
2DB3
2E35
A1E3
A434
A9DD
219C
26BB
ACBB
AB9F
9C2F
302C
1CD3
A8C9
AE3E
AF38
9B41
AF5E
AEE2
2438
2D63
3098
ACD4
298E
2925
2B82
A03D
A90A
2D35
248B
2D2B
299E
AE69
1D6D
AC83
29B5
AA3E
9ECD
A432
2672
8960
241D
A237
A047
A48B
9EE5
A543
A3EC
205B
00A8
22E4
28B4
200D
A403
269F
1532
8BBC
1C86
2195
A2A5
A61F
2618
28DE
2B0B
1832
267F
2283
AF29
2662
2D1C
2F1E
AC3C
B18B
127D
2D74
3010
A9C0
B375
ABB8
2B50
A576
A555
A876
ACE7
A7D0
AC7B
B0EF
2186
AE34
A4DD
2E11
AC83
A8E4
1FAF
2C65
2E5F
A1E7
AE6F
AA5D
A9C4
2AA8
AD1A
A872
275B
246C
AB65
2852
2787
243C
25AB
AE6B
2D73
AC17
A04D
AF51
B073
2852
A4AF
28C6
2A2A
2CD4
2EED
AA73
2458
AA33
A02E
AAB1
2804
1C66
27A1
2E24
9B89
AE5C
AE8F
ADC2
28EE
2CEC
3043
1F81
AA6B
ABA2
2DAF
20CD
27CB
ABC1
AE87
2A05
A088
A7CC
A7EC
2C87
3281
AF77
B20D
A871
ADF4
A21E
A454
AD60
AEDD
B241
B2B4
A1B3
ADE1
AD9E
1AD2
AE4D
A586
284A
A522
29D6
AACA
AF55
A5B0
30CB
3004
AC2E
288E
A953
2D5D
2A73
2D8D
A687
A621
B0EF
A434
B0B4
2CC7
28BF
2801
2B42
3044
2FE5
2DFE
2D9C
A282
2C1B
2DEA
17DD
A845
AC72
A675
2CE2
2C9D
9AE7
A029
A484
28BC
A562
A8DB
A1D9
9CA5
25B3
2973
2243
2A88
A602
229E
2634
A35C
A0AE
A9F1
21A2
258E
AC16
2050
AADB
2069
2C52
A1BE
0F6C
206B
289C
276A
9F5C
2F06
1C5B
B089
AD9C
A67D
A6ED
B091
284A
201B
AE7F
AEA3
B0FE
2BD9
AF94
B303
B16E
AC9F
31D1
2A8C
2A94
941D
29FF
28D1
30FA
31AB
30DC
2D83
3104
AE75
B047
2E87
2CB4
30E1
A291
AFC9
246E
2C4F
2D89
AEB6
B16B
A19B
A935
2C68
A7B8
B0CF
9BEB
2C0D
9FD4
AEED
AF5B
2E3A
2B59
2973
98EE
A0C9
9FF9
252D
23EB
AA6B
AA0D
A628
A847
9DF4
2187
299F
2792
24C3
A425
A92D
AA5D
A1D0
23E5
8DE2
1C61
A799
2015
21D9
B035
3253
3408
2E97
302D
AEA3
9CE1
3311
2BB3
3092
AC2F
A9DE
A7D2
A0C7
A95A
A9EC
A433
2AAA
2E37
2B1C
1DE1
AC0D
30B8
23A8
9611
24AB
26D0
1C9D
1DC4
A6E3
1F8A
A71F
9949
1B92
A826
A473
A718
A63C
226A
9C03
9C8F
A972
A00B
A554
26F5
24EA
9FBB
237E
A80C
A7F8
A8CA
233A
A665
26B1
1CBB
A509
A8B6
A687
A1A8
9ED4
A1E7
A86C
9F0A
1FBB
1B5D
A811
26B1
A116
A70C
20A4
268B
1547
A7E9
A866
A597
266D
232A
A0C5
A7E0
A80D
A04E
99F5
A7F4
A859
A055
A598
225E
1AD2
261F
A432
1999
2098
A580
A4B6
9ED7
A7E1
2236
253E
2485
1A29
A877
1E42
A218
A97E
2718
1F90
221A
A4A2
A8A2
9DC8
A52A
90CB
21FE
1A93
A5F8
A7C0
A6B4
92E2
9D02
23CA
A829
A8A0
A08F
A41B
A651
A65A
2446
A5D6
2443
A4EE
9C83
2225
A423
2325
275A
9DBE
1DFE
A385
A687
A650
234D
A659
A541
A1A3
261F
A17F
A2A6
A5B9
263E
A7A0
2105
2685
1F92
23EE
A7E9
1C59
A2B4
2613
A914
A8BF
A6CC
2368
A986
242F
24AB
282A
212B
A8C0
2767
1043
2190
9D10
A882
A514
1A79
1ACF
2490
A76B
A90D
A57B
A829
A6F2
A20F
22B9
A67A
A761
A49B
26BD
A469
2075
9D02
A427
A341
A8CB
A6FF
24D2
1C1F
1DC6
A52C
22AE
A665
A807
A79E
2235
A0A9
A43B
A472
094F
A5D3
A341
1BAA
A218
23B7
A6F9
A0D2
A8A8
A851
188B
A478
91D1
24DD
A075
23E7
A248
A130
1CFC
A946
1E47
1E27
2216
A176
A915
1EAA
A51B
A370
1CD0
9A77
A6B8
A600
A1A5
A859
A8E4
25D7
24DC
26E0
22B5
2572
A3E5
9F1F
25C8
A43D
22A0
A45E
9EE0
1A33
26D5
A915
2475
A5E1
A56F
22FB
2697
9982
A196
A888
A67A
2383
240B
A8C9
9C2B
985B
A48E
25D9
A710
242A
A92D
05A3
A43D
A8D4
A775
21B8
258A
A92B
22E0
A648
9EA7
A869
2064
22B6
9637
A970
A8A6
A571
2675
A2D1
A8AE
21E8
A85D
9F68
A8DE
A17C
A3F2
A5D0
2579
2462
258F
A80F
9C9A
1C49
A42C
A960
9F48
A781
A8A5
26F8
2417
A669
A41E
A5D7
1DF3
A645
1853
90A5
A7D5
245E
1DA1
A944
A4F2
9DD9
A92F
A8B7
26F9
263E
2035
A1B2
A8AB
A69B
2536
A72D
A793
9CE3
2872
96EA
2470
A647
9D2E
A4B2
A774
A588
219A
9E96
A5F6
A959
A7DF
A7FA
2296
A432
A734
2534
A6BD
A02F
1CD7
1394
A6D3
A209
A2C6
A589
1DAA
24F6
A003
A524
23E4
A46F
26D7
A0ED
1C41
28A3
9F82
A92C
24EB
0DEE
979A
A21A
2714
97C4
A5A2
A8AD
208D
24AA
205E
A2C5
264B
8853
21AB
A09D
215B
A569
2681
9D5C
21A0
0EEE
A52A
9F50
A42E
2538
A0B0
25F4
2416
A85F
9A47
A6B1
A3CE
A0DF
A378
A2A9
A65B
A426
2639
1512
A72A
A3A6
2605
A8D2
9D63
A36F
A6FD
A732
9B4E
A65C
2742
1B69
9383
1A2F
A82E
2420
9C68
A563
A1A5
9D3A
2062
25AD
A898
A8D9
2619
1F6B
A323
A91B
26FF
2287
20BD
A623
2056
23FC
236C
A84E
2128
1F9F
23D3
A978
A7B5
17B8
A834
A903
A582
A754
1BF1
2599
2315
242C
A974
A44B
20A1
23A0
2541
25E3
244C
A78D
1B46
A8C7
2111
A5D1
2532
A467
A58F
1D42
251E
25F6
A6C8
21F0
2606
23F9
1522
20D2
1B98
2622
A882
A92D
98BF
14F4
263F
A925
1BD4
262F
2639
A91C
246E
A8D8
23FC
A7DE
1EB1
A825
2478
A553
24E5
237E
A17B
216B
A4F9
192A
A6E0
2623
A90C
984E
A4B9
254E
A882
2621
1C30
20F6
265D
1F0C
A6BE
A7F9
2459
A867
9F4F
A891
95FA
2429
20A0
A274
A6F3
2814
0022
22FA
2549
A425
A51A
A4D6
2501
2453
2496
98BB
A941
A4F7
0ECD
A6E2
A1A3
A6C8
A840
A196
A21B
A81F
A345
A968
9A9B
242E
A859
A848
98B7
90BC
A345
9F45
A150
A973
272C
1F0E
256E
A919
1E79
A638
A565
A76A
A86E
1C92
A7AE
21B3
1C36
A2D0
1E0C
A8A8
A73C
9CDD
2671
A91A
9E24
2530
A925
A8C4
A90E
2646
9CF5
258D
A6F8
2554
A627
24C7
A847
255D
A43A
A87E
0F81
A945
275F
A82A
2596
A759
9F3F
A74C
A889
23C2
A958
23AD
245F
A304
23EE
215C
A4DA
93AB
A543
233D
A70C
270F
230C
26D3
A61B
A2A8
20FC
251D
264C
A87F
A70F
211B
A2B4
A050
2432
A93D
1808
A19A
1CA3
1BDC
2340
A93C
A63A
A84D
A00E
A659
A4BB
A92D
1EDC
20FB
A5B3
9DD0
A500
2668
9BD8
2022
9E59
2526
20E7
A53C
1EB0
A1D2
2574
A5B2
254F
A928
A432
211C
A512
2618
1CF1
A4BB
A060
2671
26D7
2074
95BE
20C2
2721
A1B8
202A
2455
A820
10FB
23C9
A72F
2676
A937
0571
98A6
A4F9
2607
2699
25C0
1CD6
A81F
2543
A80F
A227
A520
1E09
A7EC
9DCE
A8EB
A6D9
251A
2572
A25A
A62C
244D
1CF3
25CB
2453
A7CA
A8AD
9866
260E
9F29
A783
A64B
2170
A469
1E6C
2074
248C
98D6
24E2
A522
2463
A90E
1BD2
A25A
A159
A6EF
21DC
22B6
A3AA
2744
2467
883A
9379
A695
A8C2
A5BA
26E0
A511
227A
9BAF
9C65
A8B5
A603
A467
A52A
1B08
21A2
23E3
26C9
A8EF
A692
A4AC
0410
947E
A971
A44E
205E
995D
2027
A35F
23C3
9E53
9FC5
99CD
2008
9CB8
A6EE
26A0
2466
20FC
9E0D
2683
2608
A365
240B
1F06
26E9
A33C
9B14
9DAF
9EC9
2242
A0B8
24E8
9E48
250C
A674
25D9
A81A
1E8F
A8AA
9D54
A167
A854
23CF
230A
A883
A61B
A8A1
2148
A7F6
21CA
982E
A012
2445
A8B8
1E66
A655
22E8
A8CA
A534
A6D6
21FF
A197
9AB2
A2B5
A931
9B1F
A8BC
95B2
1EA5
190E
A670
AA0D
A83E
A700
8979
9C4D
20C1
8EB3
AABF
19FE
21E5
A470
2361
1929
1997
A41F
9CF2
2233
221F
26E2
A221
83CD
A749
A50F
9A88
9BA7
1EC0
23FD
2475
A0B1
A08A
24DA
2700
227A
A961
AB34
A9C7
1F51
2154
A99E
A0A2
8C47
AAE8
A97A
9924
A81A
A27A
224E
2494
A89C
26A2
2301
2550
A6AD
26DB
A7F4
A68A
25B2
2730
2167
9FCF
26D2
2627
21D6
20A9
A47B
219C
A033
A79E
A28E
25B1
A502
A4C7
A5A5
A4B3
A124
A7EC
24DE
23A6
A5DE
25C0
A93C
200C
22E0
9C76
96C5
20E2
2474
238A
A187
A170
A962
A817
26DC
A72C
9CA2
243C
A0C0
A647
2192
A80C
262C
2763
A4A3
1F91
A28A
2298
24F3
A7CF
9D99
A6B4
A605
A6AC
A841
1D71
A149
A013
A82C
1A95
9A95
A226
2555
A96F
9E4B
A35A
A903
9D43
2000
213E
A6CE
A6F9
2580
A769
A47E
9E96
A6A6
A72B
A10F
A8C3
15BE
A3FF
226B
A6EF
9D8A
279C
A3A2
9C86
A8D6
98A4
A38D
263F
A316
2589
A902
921C
900A
A7B9
A684
1F2A
282E
A550
2612
A690
A813
A001
A709
22AF
A712
26C3
A804
1C37
A626
9FDC
A6A6
A13E
A455
A889
2307
A7A6
A852
9C14
A60B
22D6
A462
A418
2216
A856
26DE
9D52
9D39
2476
AB36
A785
AB59
21DD
A91F
A681
1140
AA64
0150
A9ED
1D8E
A82B
AB78
1CA8
150E
A9CB
065B
A965
A5D8
1D3E
1301
A7BF
2404
A342
8D53
A20B
A572
1A8E
A93B
A6E5
1A4E
AB3C
A04C
290C
204F
14B8
282B
11B8
A31A
AACE
AC05
A9A7
AA6C
A743
23EE
24E3
20FA
2458
25B0
A82D
2421
A3B8
1EE6
A36D
A547
A45E
2499
1829
9F18
A4E5
189F
9ED3
A33D
1027
A886
218B
2651
A58F
A547
A81E
A697
A581
8E57
246D
A3F6
A78D
A3C2
A476
A29C
1E8B
1101
AB00
9B38
2479
AA6B
A77A
285A
A3D1
2050
A885
A887
A0D4
A26F
1F06
A942
2232
A94F
A978
A219
A8A0
A0FC
A277
1A12
A58C
A291
A6AD
A85C
15A4
A97E
AAAE
A404
A849
1C81
955C
A07D
A9F3
AA39
1E8D
A5D8
25FF
A406
A337
2357
A7BD
A7E1
A6F2
24BB
A4EE
A438
25A5
A8C4
200E
1B04
9495
1C99
A1A5
24F3
A479
9E57
2386
A873
A148
A623
9EA9
2356
1D1D
A5EC
A43F
A560
A190
A89C
A17B
9E96
A5BD
A8B5
2187
25F7
A5D0
1865
256D
A4F3
2036
A0DE
9EA8
9E5E
1DB8
24F6
A497
23A2
2415
A4D3
A655
1FE8
A812
264F
0F29
A8B4
A4FD
A5EB
1C77
A20B
1FB0
A391
A01F
9AAC
A46D
AB2B
A9C3
2684
25BE
A134
A9A7
A88C
A61B
2801
A32D
9F29
9DF1
2599
A2F5
A507
263D
1FD6
A260
26AD
259C
A877
A731
A704
A94B
A425
A83D
A8CB
A873
A445
A751
2258
A050
A866
20B1
A921
A890
A8FC
A536
A585
A844
A21C
1D6C
A661
A43E
A866
21E4
A210
24EA
A185
26DA
A617
18F2
A66D
2595
A2F6
9D32
A40F
A250
2409
2355
AA5E
A74E
2087
A97D
A8B6
A8AE
A605
1EBA
2451
A2A0
A73E
A12D
A277
A7DB
A8D8
1D51
A80D
AA4C
2156
9DCD
23A6
24B4
217B
A74E
1D42
2781
A80A
9325
A47B
130C
2132
A098
25B7
A57D
A811
A430
A66D
273C
1FA1
A8C2
A517
2017
213C
9C71
A770
A0C7
91E2
A502
25F4
9EAC
2607
254E
27B6
A36F
A82D
A854
9C70
A161
A1AC
1E9D
A3CA
211F
2797
A40F
A2EC
A441
A6F6
A114
A625
2529
213C
A81B
97AA
A33D
A998
9756
A254
A543
250C
19EA
A76F
A480
27C1
1EC3
1E89
A7BB
27A7
A0D7
1FE5
201F
A629
A9DA
A92A
A9BB
1DD5
A19E
A544
27D4
21EC
96E6
A0CB
A79C
A8E8
22E9
A37E
A12C
A575
9E27
A853
13C4
1D02
AA04
89C4
A6DB
A79B
A9A2
A347
21F4
A9AA
A9CE
A27E
9E21
22D0
A41B
1FD1
2633
27D9
A8EE
2167
9D2C
2531
23EC
A90B
A8C9
A60D
2483
A5E2
A3FC
A1AB
1DF0
181C
A8C3
A8FB
A47C
25D2
A921
A166
9C13
1EA5
A974
AB2A
AB0A
21EF
26BB
A7CA
A964
2476
A15D
A41B
21EC
A8C5
A606
2675
1FF0
1DD3
A7D1
2050
2245
1492
A7CD
259C
A9C8
258B
A262
A171
A763
22D9
2838
1EE5
A945
1911
9A9A
A0CD
A892
26DA
A841
274D
A536
22A5
A603
A8D3
A8E4
2590
167B
A666
A8A7
1852
2484
A6B1
2462
1D4D
1DD7
A79C
2550
A7C4
1DC4
24CF
24D9
A1B8
23CE
1C80
A598
A17C
2219
A574
A7B6
A91E
20CC
9F35
A21D
1923
A6FA
248D
212C
A2AD
A84C
2800
0336
A254
293F
1A86
A46D
A2DB
A8A9
9E5B
A733
A84E
25EC
212D
17F5
A40B
1E6D
A041
1D32
2417
278F
1AF3
9E63
A211
1D6A
2149
2372
A6C9
AAD9
1EE6
9C5B
A8C8
1F66
A8BB
95D1
A500
A5E8
A727
2375
AB2A
AA4F
A446
A546
9C1E
25E9
206A
9FFD
A348
202E
A49F
A50C
270B
9E43
23C9
A5DB
A8CB
9E97
254B
14EA
9BA8
2154
8746
1D45
A850
A24B
9D37
A659
2138
A57A
A0AF
A810
2570
A989
2590
A932
A7F3
2423
A860
A61F
A909
A929
25B3
1DA2
2548
A440
2136
9EB5
25C5
A75D
A3F4
A8E7
A1C1
2358
A457
1F56
9B6C
1E16
24BB
A283
09DE
2770
26EE
A4BB
90B6
20E2
A255
A965
25B6
A424
A74F
2047
A974
9DE6
A4FE
A54D
A809
A8BB
229F
21BF
9D2C
A16C
A503
2B72
2959
2942
310E
B360
AC15
A8D8
27D0
B3AB
B6E3
B33F
B486
B075
B20C
AC04
B66A
B209
B0A7
B438
A60A
B249
AAE9
A85F
B11A
B14F
9D16
A517
291D
A2F1
1D97
A5B8
21C4
25D9
20CA
966A
117F
1A0C
14F4
9F0A
A418
257A
235D
233B
28C0
A045
265A
A1FF
229F
A62A
A612
B10D
B104
27D8
2F8B
2BD5
A520
2BAA
AE11
287C
A057
A8CE
A8D5
B13F
26AB
2892
1CE5
A9FE
B06A
2311
A9ED
3007
271F
A953
AB93
2143
AB3E
2AE8
A240
1E6A
1C45
AA4C
2476
A5DE
A944
2418
A9BB
A93C
A8F4
A79A
AA3B
A82D
A0AF
17B5
2997
8D29
21C1
2116
A76D
2518
A92A
2BCE
2B86
2E6A
A73F
248A
2A97
2C4A
9A3F
286E
2E4E
28CE
25C1
2639
A59C
28B5
AA14
2CC1
2F07
3043
2DCA
B344
A344
3004
221A
AA9B
A602
AAA0
999E
2DCF
220D
AC97
AA9F
29C4
2CD0
AFE4
B428
B1F0
2C41
A784
B43E
B006
B32B
B0DD
AFDE
B2A0
261F
AA9A
2D77
2CD5
24C1
2C89
27DA
2A8F
2412
AB21
24F7
2CAF
29B6
AA72
AAD7
3102
30D1
295D
A1EF
AA9B
304B
300B
30A1
ADBB
2B1C
AD65
2ED3
A1EB
AD64
30EF
AA70
AA8F
2E3C
25A1
1DFF
2878
3179
2C22
A227
9FC1
333F
27FF
B3B4
AE43
B1F6
30BC
32E4
2903
AAEA
AAAA
2C72
3051
AC02
AE61
2AE2
A9E9
ADD4
B28E
30E2
2E9D
2D4F
A963
A84D
2C1A
30AD
31C8
A104
AE7F
2E99
2DE3
2FA7
A847
AE12
21B4
28E8
2979
ACA7
B036
3202
290B
3077
2C41
2ED6
2BA2
A836
A7B1
2F31
2B1C
B105
27B2
28C1
2A83
2B7E
ADFC
27E5
B0CC
2F42
26A4
A481
A461
B212
2C7B
AC2E
B2D4
ACDE
ABA4
276F
AAF8
AEBB
2011
AA91
2BA6
B0DE
0F6C
B009
AF6B
AF18
AF36
2642
B4D1
9DA5
A9C4
AED3
A892
B544
248C
309C
1696
AC9D
B340
3196
0C92
2B26
92E6
AFAD
AA36
3148
2DFF
2D6E
A5CC
B08D
9F0C
AF35
AF58
2A0A
960A
B258
B4B3
B568
AE43
2218
B299
B135
B102
2A31
B010
1B0A
2B08
24A4
2383
21E5
AE31
2E87
2F85
2F3E
2FAC
AE67
2D16
3021
25DD
2A1F
A83F
A99D
2C1A
A8E4
27A4
2DFB
AC95
2CD3
2F5A
A957
2A6D
A80B
1C26
2054
A8D7
A5BE
2C9D
A823
A128
AAD7
ADFE
2E68
285B
AD06
AFB3
B515
AA4D
B1D4
B26C
2C29
A435
AA96
1B9E
B045
219C
9D9C
3233
31EB
B041
A95C
A90E
2D91
3282
AD34
2175
AB84
AA70
A0FE
AF36
2B40
9C33
292D
2AB9
ACFC
24A2
2CDB
3156
A24C
B0CB
2095
AF65
AEAF
A6A4
ABD9
1921
B07B
AF30
A9A7
A7D4
2DB6
A459
1DBE
290A
1E77
2E48
28FB
19ED
2D37
1AC3
2E9F
2C09
2E07
2E87
3162
A278
2479
A87A
1D0B
26AE
242A
A672
A866
ABA7
1AB2
AA52
9F1E
AB1D
A958
9FDA
A413
A94C
AA23
261E
2481
A983
A68B
A904
A1AC
24CA
B2DE
A63C
26D8
A9E7
B0A4
B440
B2AD
2D73
ADB9
B274
AEC7
2239
A14B
ADBE
B059
2B51
AF13
AA8A
AB85
AD26
2C09
AE7B
2CE5
1D43
AE69
2F54
2AA3
AD85
241D
32BE
2894
A581
B24A
A9D5
2F98
2C18
2905
2C0D
25B9
A28E
A8A6
A93F
2A36
2D1E
24E3
AA4B
B075
B14D
AEE4
9D05
1E85
2B51
24E2
A320
A06E
265C
2E23
A170
A8E2
A18E
1895
28F9
2D94
2E97
A552
2B75
2476
A6A8
30D6
AF02
AD16
A873
2C36
A514
AFCA
27A0
2B93
2456
21B6
25F5
2731
2500
1FF6
250C
28C0
A764
187F
A7B3
2319
1E5F
A708
23D8
20E1
29A3
A865
26A2
23CF
82F3
260C
A7BC
A531
2A8F
2ECE
2C24
AD2F
B02D
28BC
3108
2D83
B283
B22F
AAC1
2C55
1DF2
AB65
AA22
AA6E
2DB0
3102
2858
287F
A487
A8D6
AE31
AC14
B0B6
B206
AE95
29E0
B1A5
B1DA
B218
B22E
A56D
B1D0
AFB6
B10C
AEEF
2A40
B19B
AA8A
A92B
A768
1CC6
AB6A
ABFD
A99D
9E39
AE1F
AB7A
2E11
2DE7
1CD8
AA8D
2EE4
2F70
1F39
28D0
26E5
2E5C
2C8A
2A11
24A4
2D1A
2988
317A
28FF
28D9
9FAA
AABB
A8B0
AE09
AC41
2688
A51A
2EEF
2263
A759
B274
AD40
AAD0
2C3D
9BAE
AF2E
A59C
B04D
AA1E
A9CD
B0A7
B106
B367
AD68
2789
B256
B36C
A2BF
2D64
2B30
9D26
26A3
ADB7
2AAA
2E64
ACDE
B45E
AD7A
2E81
307C
293A
B31C
B0DD
3068
34F7
255A
A932
292C
2D17
33D0
30A0
3124
AD28
2A02
A8EA
A26A
2129
ACAA
AC44
AF8C
225E
21D8
2CAF
A632
2580
23AE
A1C7
A883
A2F3
1D1C
28FC
A74A
9CF8
2B0C
2884
285C
AA7B
2C68
28BD
2815
A3BC
26A0
288A
1A18
2CF8
21F2
A545
2535
1F43
22EF
2DEB
A191
1DD4
2647
A08A
22F1
A754
A021
2687
2B44
2C6A
2562
2851
9B7D
2825
2CF5
2E89
2C0A
AFF1
A195
A44D
B2A3
A4BC
B32B
B210
1C98
B081
9CF7
AC44
AEFC
B010
ADCD
3180
2D9C
2E14
A517
2DCF
30E0
310B
2FD5
9918
34E4
2D3C
A919
2D64
33FF
2E99
2C41
1DFA
A8D1
2D9E
2DB5
A6B3
B228
AFBC
1603
A44F
AF9B
B10E
B168
A93F
B1C9
B062
AEB6
B00D
B1D8
B359
AAC0
A10B
22B4
243D
2B1A
9CF1
15B3
26B8
A560
9E72
23B7
2443
A0BA
18AD
1AB3
2397
244E
1DA1
A241
1A70
9A29
9EF9
21C1
283B
2568
ACBE
3140
AAB1
B16A
B40E
A4EE
2F18
326E
AFD7
B438
B0FF
A970
ABAE
AE72
B117
B308
B0FD
AD28
B521
B063
B235
AE4E
AE97
AB86
AF7D
2705
A991
AC40
AEB7
2597
2C7E
2DAD
AC25
ABC5
A47A
AA45
A9EB
2D39
21D9
B043
B408
B154
2F5F
2EC8
AF34
AE6F
A4F1
AE6B
A40A
B23E
A580
26A3
A6C3
9928
1B67
A77C
1F43
A0E3
A08F
2544
1FEB
1E95
1FB0
9F9F
1B11
1E76
A50B
27DF
A29E
26D4
25E9
25A9
20AD
A9EE
11EC
2E89
23B3
24DD
272A
2429
A9F2
ADF2
AE79
AE99
2253
A9C6
B156
B255
AF0C
ACA6
AEEC
B03A
B001
214A
2B3E
AD57
AB4E
171E
9F45
3158
234E
A982
AB9A
AA00
1F0A
A6BD
A92A
A27A
A72A
1A8E
29AD
2639
1FFC
22A4
ACE7
A846
14CC
1C29
AA30
AC33
AA09
A524
0EC0
983B
A512
AC1D
26D5
28DA
28DF
2D38
A89C
9E4D
A4D5
ABB8
2B8C
B11B
2B35
1520
2534
1C9A
14C0
29F6
A5C2
292F
2D40
ABF4
22E7
28A6
2C88
2C1C
272B
2EC5
2AE3
25C6
A9B1
31BA
303A
31E3
2AE9
2997
A447
2087
AA47
AD8F
B1CC
A52F
1CEB
B03A
AE3D
B1DF
2425
B223
B10B
A988
AD69
B07F
A5FE
2D33
2CC5
A441
AAEE
2E3E
2CFE
2E57
2C3D
219D
24ED
2092
A097
AE9B
2E04
2516
28F6
21BB
AE3E
2019
2CE1
2C89
2E2E
A5A7
B07D
AB8A
28B9
AE2E
B140
B2AD
A292
2A06
261C
2860
ACC1
AEC3
ADD7
2761
2BCE
2D78
A053
2E8C
2CA7
AB78
290C
B049
A93D
A842
ADB4
3026
AE74
B017
B0AE
B3B1
2A3B
261C
A8F9
A1D0
A8E2
248E
2743
AC2E
253F
9EE9
A795
ACB9
A2D0
A5F3
2194
20A5
A455
ADF4
AE96
A96E
AC02
A1F8
2B75
2C15
ADC5
B265
AB3A
AC94
ACCF
B32E
B3B4
2A3D
ABB3
B089
B15C
B010
2EB8
1E2A
9FE7
B0E0
AF88
A612
2F08
31DE
1D52
2B83
2CDD
3051
A880
B1C2
2BC2
2CB4
97BD
AA37
B040
A91B
2C0C
263E
A8C7
A33E
9F5D
30EB
2B3F
24C1
AEF1
A424
302E
2CB4
30A4
3327
3199
2E53
2E94
A749
9CE1
2E01
264A
2ED2
2B79
ACBD
A23F
822A
2EE0
2FA1
A8C0
AB2B
A671
A63B
2F18
AFD8
A474
ABCF
2851
2F35
2BFF
2DE2
2EB8
2978
A420
17A6
2734
2A27
ADE3
B02A
AE15
A462
A67B
B190
B2A6
AEA4
AB8A
B12D
B294
B4A0
ABD6
2445
A39D
9D3B
ADCD
2949
ADEB
9D6C
AA3B
A911
AEBB
2891
AAD7
2ABD
A899
2C19
2422
2414
2BBD
30D9
3233
28EB
18A1
2DFC
29C9
28D1
2721
3024
2F61
A9B6
248B
A832
ABFA
AB2A
AE74
B207
3192
ACC9
A0DE
AC0B
AD2C
197D
AAB1
B03C
A842
AE7D
2D6F
9B05
A85A
2529
2E01
AC11
A7AD
2E3F
2F87
3748
3060
2C0B
2942
2C5A
2EC7
25CA
2949
30EE
31C9
2ECB
A741
2D71
2BE9
3182
2F2B
29E9
24B3
27A0
0E31
2CF7
B0A6
B081
AD81
AB23
2692
A883
2759
A23E
A564
1E0A
A327
28FF
A883
2A71
2666
28CB
A5B5
27C3
2BBE
2B93
A58F
1F56
1B60
281D
2A38
2890
2AC6
2BBE
286F
9A1E
B0C6
22BD
AD07
B1CC
AF78
B2CC
B0D8
ABA9
ABCE
AD5F
AFB6
AC71
A1FA
AF9D
AEE6
AC7F
22C2
27E5
A53A
B0F2
31E9
2FA7
2E48
3118
2FB3
AC1C
A547
A75A
2446
A079
A9CD
ADAF
B026
A913
AD50
A8AA
AE0F
B0DE
AC83
2D3E
A900
AD2B
ADD5
AC46
2462
A7B7
1F05
AB3C
26AB
A6F8
B1FB
2C78
2432
25F2
AF51
B297
AEB3
AEAD
AE9C
AD1B
AEF4
AE85
AC49
A0E0
AB0D
305F
2EC3
A977
1E87
1D94
356C
3130
2D69
2CE9
9C9D
286B
1C44
225C
A013
A820
2521
28A7
2813
A46C
AA68
26D0
9D5A
2430
2677
2428
A1D8
2AFA
27A3
1027
953B
9D8E
262B
25EA
2684
A03C
3098
2FAA
2B10
AF9A
2467
3072
2CCF
991A
AF11
A799
2DA4
AB9E
B3FD
B138
AEB1
28D6
2E13
ADC8
2031
1D81
2BB0
2D0F
AE70
2A0A
A8E0
AE80
ACBB
1C85
29C8
24DC
2903
2269
215E
AE48
B002
2E99
3012
2D07
AAEE
AC41
2A84
2DA4
29B9
AC8D
A7AE
2990
28F5
23BB
B33E
A46C
A442
ACBB
2BA2
31BE
2FC1
AAFA
B064
A444
A0D2
2D06
2871
AA28
A50C
A5F9
2FBA
2E38
A972
2697
2B69
2C48
3031
23EB
987D
2735
2176
A845
AC19
AD82
A65A
2541
AC4E
A26E
2B93
AC5B
A4C0
AC47
1B0E
2F9F
2D63
A94C
AD95
AD70
2094
9C18
A973
2513
2FD6
2D5E
2C86
A8C4
AE9D
2C9A
26D9
2006
95CA
AFE6
A98F
AF59
B289
B001
24A3
B33A
B315
AF2A
B2A9
A0AB
AA94
A8EF
2DB2
A929
AC74
16A4
26A4
3171
2DCB
2C2C
2BF1
2D35
27A4
3075
2FC3
2BF6
2539
2D21
30B4
2C46
2A5A
2F50
2BE1
2FFE
3039
2FA2
2AA0
2983
2B67
23EA
ADAE
A72F
A94C
AA83
2749
24FB
2A80
2944
A0DF
1E3C
2842
2609
239D
2468
2ADF
23C1
2034
26C9
2469
2B99
2CB3
2C17
29D6
2A62
26FE
29F1
2B6C
2319
2BC3
A9A2
2E6B
2B13
AACE
A21E
2E04
2C60
2213
B02E
B1DC
2C40
1C7B
2480
A47A
B117
AD36
1C3D
AD54
A3E4
B29E
B029
B2E4
AB30
B2D3
B409
2EFE
2119
2421
2831
AD70
30E5
2A82
AC5B
ABF6
AD20
2E49
A980
ABE4
B070
AB83
9C6F
A5C8
A677
A954
A8C0
A62B
AD1E
A786
A918
239C
23BC
2600
2C35
A4B3
240F
AAFC
227F
A370
9A35
A84F
A18C
1F2A
257E
A970
25BE
24B5
AA46
A1C2
13E8
1AD0
A5ED
277D
2797
280E
29BD
A95B
ACB9
A68B
966B
AC9B
2B7E
22BC
A9C7
1E90
310D
2FA5
2EA9
AC79
ADCD
2D3C
AD84
A771
AB92
A986
2CA7
AD99
ACFC
AA0F
2A03
A65A
AB6C
AE7A
A739
9E40
8CF7
B072
2927
2ADC
2DD4
300D
AC3E
29BC
321C
2DCB
A201
A72F
3173
31D6
2DF1
B210
0E14
2180
AE07
A1B3
B422
2803
23C6
1ED6
28DB
2858
A50F
21BA
A435
2959
2591
A621
2145
1643
A08A
A59E
9E61
9724
9DC7
9C08
261E
271B
19B7
28DE
A617
9C8D
A646
3129
2764
AAA7
A8FA
AFE3
AC43
AF6C
A076
0D47
A071
AD60
A611
2F1B
2C8F
2503
A56C
2929
2DA2
30FA
AF12
A4BA
2C07
2C81
31AE
A51E
ABBA
A542
A20D
A9EC
214A
28B6
2AA3
2914
99D1
2A46
2543
211B
2AE4
2033
A452
A9E9
A8D4
A6BF
AD9D
2553
285C
9D4E
A9D5
A769
9B17
A538
257E
2D08
273F
A081
2864
29EB
9F3D
2157
25DF
2AD1
A942
A8CE
A7F9
81D6
24FE
AE11
2059
2DC6
AA5D
1EAB
ADA5
AD90
9DAC
A839
A6AE
200A
9ED1
2753
A69C
2E86
2DEF
2C7E
2A1E
B04F
2980
184B
22F4
ABEA
B33C
A02B
236A
2ACA
AE09
AC27
AA35
ADB4
2910
2E0D
B162
ACD2
228B
AA1C
AF36
B12A
9B40
29C6
A8E1
B0BB
A9EE
3015
2FF1
2FBF
AAC2
A9DB
29B3
25D4
2CB4
2896
ADA1
1CEE
AA4A
2C41
2D7F
A819
A77C
2CAC
ACCD
B2EC
9FAD
AE62
A331
AE7B
B1B2
2EDC
284B
1DB8
27EF
2A17
2BF7
2EF9
2F97
33D1
AB65
2A6D
2F0C
2834
2B67
B17E
2CE2
B28C
B2C2
B60D
B3CA
AE71
B275
B4B1
B54C
AEB9
B0BB
B30C
B499
B2E6
AD48
B280
31BB
306E
AC43
A952
2473
3227
3014
2978
A735
A4F2
2EE8
3029
270A
B051
A0F0
2F34
2EBE
2DD9
ABB1
1AD9
2FF0
2C97
2C26
ABAA
A8D7
3011
29FE
2DF7
285F
A5B6
2BC7
2091
2E6F
986E
2E26
2CCD
2EE6
29DD
B1FC
2E88
2CAF
3132
2F19
A9B7
A871
3156
2F28
3031
2538
2A01
302A
9B2D
2BC2
A4F4
A453
2CEF
267E
A2F4
A56E
AC83
244E
1F1C
B0F5
B0C2
2D3F
3094
300A
2F02
AEBC
2F10
2EC8
30E7
3287
ADB5
A49C
A59A
AAF6
2D39
B102
AE9F
B190
B1B0
A8C6
2F1F
28C5
2CE4
A9A1
222A
3004
9BCA
2572
A80D
1FAB
25FA
A131
A4F7
ACD4
B38F
AF12
A679
9CC3
AC76
AD7A
AB09
AD9C
A625
A8A8
A773
2861
AEEE
ABA7
24C1
A40D
278C
A854
28E8
3109
2E11
2FE3
A204
2DD1
2C5B
3252
2F3A
AFB4
2D43
2991
2D03
294C
B035
2EDF
2E6D
2C0A
2D6B
28CE
ABA6
B0BB
B098
AE81
A98A
AD11
2959
ADF4
AEC8
2013
29DC
ACA1
A5A7
2E91
A4DF
291C
A642
2B6C
31FC
AF38
2D30
2C59
2DFE
334C
3240
A87B
B205
AA6E
303A
2CA5
A128
AF51
A784
30D0
19EA
AC4B
AAB5
A017
2F93
2E59
2D29
30FB
2DAE
32A5
2D52
2A14
2C15
2CEE
3218
1B96
261C
15BD
A4A0
A95C
209F
94D7
1D58
A71B
27AC
2484
9F90
23E7
A279
A5F3
A69B
2443
8875
261A
A09C
A8CB
28F9
28FF
263C
A300
2C66
2EF1
25E3
2321
1CA1
2A79
2BE5
2CDB
2576
2039
2DB1
26CC
3030
A81E
95F0
2D55
2CA5
2B2D
1E01
A406
2231
2EB0
3200
31C5
9D99
A815
A6FB
A49B
ABD7
A458
2DD9
ACD0
A8D7
9938
AC7F
2FA6
9D6F
A073
B140
A023
2C22
AB4F
9803
A02E
A4A1
20F2
285E
1D93
AC7F
AF72
AD32
2527
AE89
A560
ABBD
AEB9
2066
2847
AAFB
ACA8
2FCE
2BC8
2583
206D
93BE
2D57
2F96
2397
9C34
AAAE
3448
3256
303E
2CAD
A80A
A4CC
A20F
A6CA
2896
912D
95FA
9E0F
267E
99AC
A3B8
9B43
9EF7
A312
277C
A78C
94F9
A5AA
1F5D
A921
97AC
957E
A8AA
A20B
A94F
A296
AF0A
AD2B
A90C
B0F3
B078
A8F2
24A7
ACDD
AEA0
2040
2CB0
3114
2B5E
2F2B
ADDF
A9A1
2FB8
1DF1
2DA6
2D01
B25C
AEA7
AFAA
291E
A8FF
B4BB
B2D5
AFB2
A30B
AB80
B0A3
B48B
B0C4
AE86
AE3C
B02B
AF8F
AA68
AE1D
B0F4
AC76
A54E
2888
A981
AF05
2E37
2FBB
2A4B
AC0C
AB3F
9993
A5E6
16F1
2C5B
21A6
2D3F
A339
292F
3014
2CCA
2823
2CEF
2D56
2F2E
305A
29C8
A70B
2EC4
2EE5
2DB4
1D51
A661
2129
227E
25C2
2A3C
31B7
2DA4
30EB
2CB8
2808
2E56
30AB
2F06
2DA4
A5C0
251E
305C
2F90
A5CB
2DC3
2AB1
9E04
2AB4
ACE0
A203
18BE
B073
AE3F
B151
AE01
2B64
2AA3
A858
A352
A832
2C16
AA9D
A9C6
2AB8
29F2
A735
1E17
2DEA
2D1D
2976
31E8
2584
2F7E
2FFF
ABD5
2CF5
22BC
2D09
2DAC
3197
29B0
AEB1
ADD3
2D3B
30F0
AE74
B332
AD09
2DA6
2EA7
9D1B
20DC
AC04
2977
30D9
2C9C
28BA
2BF1
2F82
296B
ACEB
A99E
288B
2F4F
24F1
26ED
2C76
AC82
274D
A8A2
A2CD
25CE
AC00
A800
282F
2B7B
A55F
2535
28F3
2C9E
A89B
28D0
2924
2C1A
1D52
A9CB
95AD
299A
2BCC
2A0B
2BB2
AE11
B0C8
8F3E
2165
1F58
AE5F
B057
A633
282B
ABC8
B311
AFB6
2AD4
2A7D
1EC5
ADD8
29E2
2C59
2DE2
B051
2992
A530
2D4E
3058
2D41
AA45
AF74
AAEB
2F1F
A010
A96D
ADE8
B017
2CD6
1C60
AD27
B0C8
A9C0
2085
A9AE
1149
AF6A
A9DB
A924
ADD2
AD28
AED0
22E1
1962
26A8
2918
2088
9ED9
A88A
2152
A7C4
A5FE
A304
257F
A0FE
A3B4
24F3
A5D0
A279
A8EA
9FC2
A25D
27A6
26C2
A817
A179
A92F
1D17
28F5
ACF3
AA3A
A883
A926
31BE
3335
2961
2906
2BBD
32C8
315A
2DC8
1F54
2C56
2F2F
2BDA
28A8
2F79
2C36
33E5
2363
AE08
2341
2764
AA33
A9B3
95C5
A410
A6A5
A870
9255
A23C
A8F7
2424
A885
9ECB
A92D
9CAE
A88B
243F
1BF5
A5CC
A485
A84D
19A9
A814
1C19
A4CE
A8EA
A88D
A54C
246D
A600
A289
A8C3
24BF
987D
196E
1FFC
9AE1
23F0
A947
A365
212D
1A4A
A549
A652
2430
A8D9
161B
A7C1
A5E8
205F
A1DC
25C1
2428
2806
A374
28A8
A562
A4C4
2809
A68A
A5BB
A549
A295
2806
9FD3
A3B2
9983
A867
25B1
21F5
A9B7
1FA9
28DC
A537
A391
A3A6
260F
2320
1175
A73E
A74B
9110
A4B9
2855
9877
25B7
284F
A5F9
825C
A811
9CF6
17E3
9A4F
10AB
1CE1
282A
20D3
9D1D
A7F1
A8A6
A5AF
2144
A4F6
9D9D
A920
A82E
29E3
2264
2451
2019
A76E
2837
A544
A550
A8E9
A626
AADA
A7BD
9C14
2444
A997
A77F
A5EA
A84E
8BAB
A012
8CC0
A88B
21A4
983B
A6F1
AA4D
A84F
A91D
9D53
A435
AA30
A918
A54E
A513
A3ED
A93A
A40E
A8D0
2088
1F44
A350
186B
AA70
A74B
AAA6
A6B2
23AC
A3FD
2531
A52F
A9BB
1D54
1699
A978
A873
091D
A665
1E3A
1E66
2527
A239
2767
26FB
A74C
2568
A329
A1CE
2464
1C39
8E57
2721
9998
2662
A142
2660
A469
A7B9
A5C1
1D06
A461
A45C
1538
A653
2647
28EC
A896
24F1
1D46
17BE
A491
8A08
A41B
A82E
26B5
204A
A29E
21B4
2684
A762
2486
250E
A6FF
A5FD
A8DA
256E
A896
1C9A
1B2E
AC3A
A604
A1D9
9D31
AA33
1D42
25E3
AA6D
A385
1D4D
14D2
963C
A3AF
A9DD
256F
252B
241F
20EA
21EA
1FC8
A8A5
A00E
AAC2
16AE
A784
A8B3
1CBF
1D56
A77B
A495
AA45
ABA7
A954
16C8
AA63
9A67
AA01
241D
8FFB
A838
A542
2836
27B6
A43C
A86F
A89F
2576
A23F
2496
A74C
A51C
27C6
26F0
A438
A438
A60C
1AD8
A36D
24C4
939E
1C6C
A74B
A375
14E4
A666
A2CE
18EA
A557
265A
2677
27A2
2685
2442
A91A
A5D0
2108
2034
1BBF
28FF
A025
A873
1CB0
9CE0
A13A
9A0D
A994
1D37
26A6
A9D2
A41D
A8D9
A45C
230D
A594
A69E
24F5
89B4
AAE7
A1C2
1978
A6B0
8358
2246
1F38
A808
A722
A59D
1EFD
2250
A7BF
215A
A6A0
24BC
9C45
A865
A39A
9C0F
225E
23D1
A425
A547
A6F7
A02D
9EC2
9EC0
242D
A841
9DB5
A54D
2649
2272
1CB0
A602
A22F
1F2B
A70C
245F
A55C
25E6
AA7A
A5B1
1FE5
212C
A097
A6CA
A410
A289
2589
18F4
A8E1
A8AA
1807
A9A7
27AD
A927
2348
A56C
A5C2
2347
0DEA
21A8
9C40
A0B2
A6E0
1C59
A928
ABCF
AB64
AA5B
99B3
A438
1D67
1A8D
A693
AB43
A14C
AA57
AA90
A634
A81F
9F60
A766
2127
A225
AA19
A134
A9FE
1A63
99A9
2134
A532
2584
25A6
23B1
9929
A82E
9DA9
A396
A4D7
1C0F
A041
17CF
A6A3
A86F
A6BA
2213
A633
A0FA
1C85
2141
2642
A783
A4E5
2205
2525
24A7
A571
A446
938E
9FCB
1F8F
AB10
A877
A470
2004
9F21
1DAE
A47E
A83C
9C9B
A79D
A6DC
A3FA
2791
1E73
216E
A4A8
A4A4
A42A
A453
25D3
1974
2552
24F4
9F5B
1D5F
24D5
A798
1C95
A296
A3CE
283D
A48E
A924
91CF
20D1
28A0
2814
2447
A8CE
2542
1549
9924
9838
A796
A52C
2829
A75D
A526
225B
A0FA
2623
A335
A967
A862
1D44
1993
9FBE
2250
26AB
26A4
0BEE
98A7
A7CF
95BD
2061
2061
A2B7
A0DA
25C7
25F4
23FD
A447
2467
A49D
21AC
A424
A862
21F7
21E2
191B
A1F4
A86A
A8A4
A887
A441
A8E2
A88E
A5BC
A434
A52A
2034
18B6
2272
1E39
A028
A1AE
9BBA
1B5D
2287
256F
A37E
A799
A7E5
9E14
1E11
A8A8
AB1E
A6C2
1596
9D0E
89FF
A9CB
25C9
A923
A405
AA54
26D1
0B89
2170
20A0
A57C
A564
1F42
A7F9
2365
A59D
A56D
986D
AA8A
1FC6
9FAE
A199
1DC1
242E
A8D5
9E3A
A4F8
A701
275C
A26B
A7C2
24CD
A848
265F
A518
1ECF
A357
9657
2133
2167
1BBB
A4F1
A95B
2128
1DB1
A500
1F3E
A000
2630
236B
2715
00DA
A73D
A522
9EB3
A498
2731
A6F0
9FB1
A750
261B
1A11
242D
22C1
A6F3
24D9
1DF0
A071
1F0F
A931
A413
AA11
2496
A3F2
1D18
1E5D
2775
A543
252C
24E7
A81B
A8F5
9CF0
A34A
A4CE
A5BE
A3EE
21CD
2658
A208
A09B
82B0
A7F5
A0B1
A518
2089
9FCF
A925
A982
26B0
9EC1
28EB
28BF
A873
A7A5
A5E4
1F54
A351
A833
A9A6
1FE2
2450
249D
A94A
A9F4
A47C
A499
A6D4
A91F
15A3
A554
1FC8
A60A
1DDF
A828
24B4
99C4
8EAF
222E
A47A
241B
A803
2778
2488
9D27
20D8
226E
1AC7
A8D8
A82C
209D
A7C8
A62F
2717
A270
A606
A860
24A1
A589
239E
A84A
25F8
A220
260D
A1C6
A919
2242
A99F
92D1
212B
A823
1E10
A933
91FF
2A42
A786
929A
A86A
9E49
208E
AA86
A0D9
A8AF
A810
1E92
9CEB
A333
AAAE
A8C7
22E9
A960
285D
224F
9D3A
AACD
A5C3
95AC
1D1B
265D
A6E4
2748
A2F7
A3B0
A677
A3F6
980D
0CC0
2518
A439
9A2D
A4F1
A90D
A64C
A49F
A8A4
A0DB
24E9
A4DB
A573
2240
A328
A214
A69C
8810
A57A
2144
A6EF
95D9
266D
A45B
A84B
9EE5
267E
19F6
A5FD
2682
A5BA
A5E6
2348
A736
1881
2448
A50A
A389
A2AE
2137
1DAA
26CE
A108
A876
A862
A670
2622
A4BA
1C11
A42E
248D
1FC1
98F8
955C
A87D
A222
244A
A2AB
2163
2236
A668
1D93
A81E
212D
2175
9E34
A582
99EE
2445
A80B
20B9
20F0
1D83
26A6
2610
253D
A756
26BE
9BFC
17BF
A65C
A2E6
A56F
A01E
A767
21DE
2175
989E
A4A0
A578
2746
A576
A32C
266E
A39A
224F
A63E
A1DC
A4C1
A4C2
252B
1EA5
A115
2386
A756
A84B
9DBB
224E
24FF
0F3E
A636
2614
A6F2
A5B4
1194
25FE
19EF
A786
2113
A92C
A0CB
A4C3
A80C
2114
A839
A507
25A7
2507
1EE7
1E0B
99D4
A51D
A81E
24F7
A3B0
9C62
2271
A33E
255E
23F6
A899
A941
1CFD
A431
A734
A89E
1970
25F4
9BD4
2458
A813
9D57
A910
9D90
248C
A49C
A5D4
240A
A5F6
A114
2676
2707
162D
24D5
9D79
A612
228C
A6DC
26EE
A064
A837
1F26
2708
A874
A12E
23FB
2644
1EAB
A678
A5DC
A506
A915
A8BA
A6ED
A84A
9C40
97B6
252E
1F0F
A3DE
A8A6
A679
27B5
2543
A60B
A725
A808
03DE
2301
A6B1
A401
A8C1
15CE
95E9
1CDA
9EA7
A52E
24DF
A05E
A1F8
1E34
A656
A54A
25B9
A827
9A46
A943
22C6
A29B
A798
2142
A625
A670
A65F
A8F9
214B
2004
2590
24FD
9325
A852
25B8
A308
167C
A63D
25B7
22C3
1D1F
A898
8E60
22D2
A1A9
1C4B
A88F
17CB
1CF8
A885
A70F
A0F7
A905
246D
25D3
2431
9C24
A4A8
1857
2554
234A
A093
9518
275F
A3A8
231C
273C
A11F
A833
A89B
9CEE
A6B8
A0E0
A753
2761
20FC
A8F9
A816
26C9
A637
A024
1ECD
9E26
22A0
A6C5
2440
A866
A7BC
A5DB
20ED
24CF
286E
9EBB
A2C0
A91B
9F03
9D7B
2523
A59E
1CEE
2422
A2D2
25BC
A88D
2104
A484
A47B
204C
26DA
A812
A572
A85D
2636
9FD9
A24C
25B4
A10D
18DF
2675
A48E
A8BA
9809
A8A2
A0AD
A1FD
A606
A76C
1F43
25CF
25F2
A313
A718
A6D8
9B1A
A508
A532
98F4
9F4A
A51C
99D0
A055
A924
A8A0
A57C
274B
1B8B
A364
1C39
A46E
2232
A163
24AD
262C
26D7
A0EB
A450
26E3
A757
A346
A342
2577
A353
A6D6
A569
A470
A428
A24A
A14C
1F3E
2675
1487
A8FF
A677
12A7
9D67
2720
A8FA
A75A
A813
A5DB
2530
2051
822A
9F7B
A5EB
26D7
A830
A825
1EC9
17F4
252D
1713
24EF
A5A6
24D6
2712
9EE9
2752
A76F
2651
8A31
24E0
A3E0
2138
A898
9D1A
A417
26A8
2033
A583
A7BC
A461
1A39
9FBE
1DAB
26E3
2580
9D33
A056
22CC
A8C3
A415
A1C0
1CB5
18ED
21AB
24FC
9E3E
A5D5
A559
A70A
A72C
A661
A1AA
A787
2824
A3CF
1A9D
A623
A8DF
2258
22AB
217F
1EEC
9DAC
A645
1390
A389
9A9C
A904
2223
2504
A396
A118
2723
A604
2670
2158
1EA3
2218
A447
941F
A85C
A6F4
261C
2133
26FD
2690
2254
90B2
A734
2765
169E
2115
262C
A6EC
A8B2
200C
2591
1D15
2564
9C93
24D2
A8B2
268C
A826
A6A9
1414
1CF1
A7ED
A7E4
26A2
12B3
22C8
236E
1A80
26EA
A948
A786
A533
A4C1
205E
0B2D
A713
A8DF
1FE9
9CF5
1FC1
A71A
188A
A5C1
A641
A7BD
9A18
A898
272B
A7C9
A826
26DB
1C13
A386
A93B
A947
A90F
A6E7
9E01
9EFB
A6E9
A6D1
26C8
A6EC
2325
A836
206B
21E3
21CA
2386
A58A
2546
2066
1D26
24A0
9FC5
1DA6
A321
A845
9F03
A5FE
A6AC
A036
2589
9F33
A4E2
2552
A41A
26A2
A4F6
A529
9BAC
A66E
A6E2
2646
1B11
A43A
27AD
A507
9D6C
20C9
A5EE
2682
2575
A34F
251E
9E9A
8C3A
24C0
254D
A7A5
A5A3
279B
A880
A073
260B
A528
A325
A609
A127
A537
19A8
A369
9D67
A787
215C
A637
A786
24DF
A583
2653
9AD4
A83F
2299
A62F
A8A6
A607
A6D5
273F
25F5
A5D9
A7F9
2548
274F
A8FA
9D25
A851
A6DA
A3EB
252D
21C2
9A8A
A7FC
9C24
A757
A8D3
2617
2558
149C
1B28
A791
2777
A893
A4C2
9CA5
A59D
A71A
23D3
A5D3
A019
24FD
A30D
269B
A910
9EEE
272F
2373
A948
9CBF
A8E0
26AE
A534
267D
2607
1CBA
255C
9947
231F
A81C
2297
264C
257A
249A
1ED3
9A00
A120
A2EE
A509
A4CE
9587
209E
2228
A6DD
9CFD
A8E1
A633
22EC
23BA
1A57
A918
1C32
A419
A4F2
9B6B
1E25
9C71
2071
2555
A03E
246B
9985
24C9
A8C4
A817
9344
A53F
A707
A639
A795
A8E2
215D
9FF7
1B19
A49C
A934
928C
A8AA
A91D
A7EC
2656
A1A5
9CC1
18E8
A835
9755
A643
26D9
2543
1212
A795
A479
21AB
1C16
A93D
16C8
22C0
24C7
2328
A8E7
A384
24AF
A083
A445
A809
A861
A56A
21AD
1805
9E68
A41F
20AB
226F
A896
A597
A86D
2883
22A8
A6DB
A17B
2228
A55E
21D4
2552
A8DF
2198
258A
A714
A25C
9DB3
A62D
A4E8
A643
9EFF
25A3
9D5F
A3DF
26E2
9E11
2681
9C19
9839
A118
A905
1A37
20BD
A17D
24EE
A623
A482
A820
2439
A2B1
2601
A149
A88B
A369
234A
1EF4
21BA
A941
25CE
275C
A388
9D42
1FDB
A89B
A917
A2F8
26EE
A455
2733
A8ED
A48F
A534
A6BE
22D0
A6D5
A57D
A6CF
2441
A6CB
25B1
A75C
2761
2676
23B1
A508
9D21
A659
A78C
1DC3
2411
A570
A301
2618
A1AE
A16F
A8E0
A8B5
104D
A11F
A6A5
A820
2461
A927
A7F1
9DDB
2374
216F
A860
A28B
A690
1EF4
9E32
A481
A835
A91B
A4EF
A7B2
A6B4
18DF
A924
A438
A769
A593
2705
22CF
A546
A70F
A57A
898A
A5BA
A625
A668
273F
A8C8
AF34
A19C
AAA6
A6AC
A960
B095
2B25
AB89
ACCB
2466
B248
AEE4
26F7
A1BD
232A
B450
AE8E
A849
9E15
2D2D
B1ED
2C8A
262F
2EFB
2D41
2741
2357
1E02
A830
1D38
99FE
A65F
28BF
A6B8
20ED
95E3
19ED
28CC
A5DA
2066
2303
9C7F
1F3C
25F2
9B55
9C79
9E4F
A271
2763
2530
303E
2CC1
2ED7
2973
30A8
ADF7
A760
21E5
2D7B
28C1
ADCD
ADAB
A82F
B0A1
ADB8
B048
B3E5
ADC1
B04B
A9E0
B02C
B0AA
ABCA
26BE
2414
9E2B
A0E3
A838
A687
A1F4
284A
9C44
179F
AA1A
AC46
26AC
27E2
1E7B
2AE3
23C4
9F60
23E9
286E
A5CC
A2C0
A111
283E
A87F
203B
AA6A
2CF9
24BC
A465
AE18
AD82
B30A
AFA9
3034
AAEC
A896
B088
AE16
B044
B186
AD66
2D03
AC41
B06B
AD0D
298C
32A3
345B
3304
30FC
2D2E
A72F
A422
9BEC
2D0F
2DE1
A92D
A512
3107
2D8B
3175
AAFD
A52D
2EA7
3017
2E19
9869
2E21
30D3
3077
2EA4
AC67
AB56
29C9
277C
9D28
2D6A
A6BF
1FF4
2A23
2F9F
3013
2D65
2C0A
29E5
A158
30C4
222C
2A35
2CFE
AE7A
2195
90CD
A6D2
A4D7
AD21
2E45
9921
2A94
AA7F
B38A
AD93
2973
25D3
AF6B
B109
A5F7
20B9
224C
A3F9
AD40
2C0A
A8B1
2CC8
1D3F
AFBB
2FF7
31D1
A832
2CB4
32D6
3135
2D20
2CEF
2F29
3171
28F7
30E5
131A
2BD1
1CE1
2FD6
2BF7
29F8
ACC9
2716
275C
A6E2
2633
A535
304D
B142
AABB
2290
A8E1
2ECB
B0DA
B0D2
B34D
2A46
2C46
270B
B007
ACA7
1B96
2B9E
2E08
AAC1
A998
2C4B
1E68
A537
A5D6
29A2
2D09
AF24
AB8E
249C
1D9D
1D0A
B127
B043
303D
31E2
2FD6
24A9
2DAC
2423
2C40
AEA8
A428
A926
ADBB
2E26
B017
B28F
B020
1D9E
AD70
B233
B527
A1D5
B082
AEA5
B2FF
B33D
3262
2E9F
2B7A
1406
2A8D
2502
292C
2A05
A7FD
2E45
22F2
2989
A8BC
A1D0
2682
2C50
2B1D
B038
2693
29A9
94B6
A375
2AF2
246A
1DC0
AE79
A52A
2A97
3070
32E8
3069
3077
2D01
30D8
304E
2D4A
3055
3029
2E6D
30F6
A9F8
3103
3005
32FE
3190
ACFB
2FB4
2E34
3060
3048
B436
B378
A8A6
207E
1CDA
1F39
ABB7
2851
2E6E
2A58
2BCC
A51A
2758
ACC7
ACD7
20DE
AB21
1774
A1DF
A920
2F6D
B0B0
AE47
B126
AEB3
347A
3252
2FB3
28C4
AB52
A874
2C8B
A604
ACC0
2C51
B06E
2BED
AE82
AE4A
2E52
AD98
A3FE
AED4
19C6
2E2F
9F3E
A916
2F0F
A102
2F59
AF14
A797
2BA0
28BE
366E
AC45
A425
A444
AE45
B07F
AF5E
2DC0
21DD
1966
9CC9
B298
2C65
2B08
20AD
AA1C
B133
213C
28D4
2914
A4F1
B407
B22C
AD1B
AB48
B374
A624
A645
26A7
A155
A542
A416
240C
9A5B
2423
A3F1
19CF
0B4F
1D72
A44C
A03F
2497
A4C3
A607
A981
AB31
A16D
A522
9839
9840
A7D6
281D
2E08
2941
265D
318D
2373
A8EF
2F39
2CDD
ABB6
2F8F
2991
2C5E
2A24
AEEC
291D
29BC
A499
2D5A
AEE8
3149
2D1B
298C
AB54
A5ED
300A
2AC5
3277
2C6A
2D6F
AA8A
21FA
2D11
2BBE
2AD9
1F98
2257
2C38
8BF6
AD2B
B006
AE4E
AFB3
A871
AEAF
AB84
B0A7
B1E7
A8F6
B430
29F0
B044
A6F9
2740
2837
AF54
AADD
AC87
AEE8
AF1B
29D6
A9E8
AFA8
B2DA
B0A9
2F79
26B3
AC9C
AD47
AD1B
3164
2B15
A297
A818
A65A
23CE
A24A
96A1
1ED8
A5CA
A41D
1B26
2714
A360
2330
A91F
1D85
A975
9E89
A8DF
23D0
20BF
A5C2
A997
2773
A294
A8DA
A022
A72C
A959
14E7
B05D
2657
ADFA
AC16
2DA6
A628
A8F7
A9AD
2933
31C5
A898
B1E8
AC0F
2238
2859
AC6C
AF9A
A432
22FE
B193
B091
AE47
B01A
B082
23C9
A707
A5AE
252F
2743
AAD9
B27A
A8A0
2996
A966
287F
A89A
1A7B
180B
2997
A4FC
282B
2252
2CF4
309B
AFB1
ACE7
AB01
A249
309C
2F89
2CCB
29C4
298E
2AF0
2EB1
2D84
ADB9
A720
AEA4
A43D
AED7
AD3E
B228
AE9B
A746
B080
B0A7
AEED
AE61
3413
AB7E
B175
AEF5
ACFB
182C
2A04
2DE7
2E16
A5DF
A94C
1877
2E17
2CD1
29A7
AD0F
27F9
97C3
28A3
A99E
29BF
2C6C
2364
A0B1
26DD
299B
312A
2F1C
245D
AF66
B036
AC66
2D72
AC88
AD66
A8B6
A6CB
256E
ACCE
A006
316F
AF66
B29A
B1C1
ABFB
A7E0
AEC2
B313
B02E
2E6A
2E90
AC18
1AFD
A5DB
2C92
2DEB
2680
2895
A8D9
2511
2B94
2C07
976E
A794
2E46
2857
A1E1
18A0
27C0
2CEA
29AD
ADAC
A530
2C9E
2CDC
214F
AE53
AA25
29EC
280A
2B5C
A9CC
9803
28D0
2187
A814
AC9F
2AE1
2B78
A8BD
28A0
A47A
2B77
274F
AB49
2493
AA2F
22F4
2C88
27D9
253C
193F
2918
A8B5
1891
2963
ADFD
2C85
A71A
2E42
A864
9C1A
2EEA
30B3
2E91
2CA2
290E
9FBD
2C0A
AC3E
2E43
A2E1
AB1C
29E3
29C7
A562
B16A
AC93
AEFB
A85E
287C
227D
2DF6
25F4
312A
22C0
1D6A
2D7C
2C0E
2CC3
B1F8
A04C
2754
29C6
31C4
B45B
A82D
AA02
22D5
2FFE
B2F1
ADC6
2836
2A95
3473
24C0
923C
2432
1F13
9E88
2135
282E
A41A
28DC
1C30
1DBE
1FF9
21E2
A61D
A7FB
A08A
24D1
19D9
A36C
27EC
A9BC
29A6
27D6
2653
2A3A
AD4A
AE40
AD99
ACD4
A1AC
2ACB
3113
AD41
AFE7
A742
3057
2E50
2D76
AC71
2DF9
2E45
2D38
2E40
2DAD
A9B2
2EB9
30F4
2BB5
2D78
2FC8
A5A0
A03E
A352
25B9
1C5F
228F
A1D7
A46E
A8B9
A0E3
9B24
1D30
9CDB
9ED7
A3BB
A862
110C
14A7
26E5
A06D
A465
9B38
A792
A0A6
213E
99A2
9627
271B
A936
9F5E
9651
1D0F
A5C4
A486
A92A
2500
A844
A6A2
1DB3
A036
A725
2424
A163
2521
25A1
1D5E
1D26
20A2
9BFC
A8D3
A8EF
276C
A58E
9933
A47E
A002
A4AA
A904
A5E4
A855
236B
A55D
A836
A39E
9C7D
2622
A7AB
208C
A6F1
A791
984D
26DA
1C3D
A2C7
A822
26E0
2278
A93E
A34A
A640
A54A
1D5C
2434
A8BF
A46E
2759
A217
A58C
A3C3
9D75
1D88
A72A
946C
A4F4
240E
1A52
A249
A63A
A8AA
225E
9EB3
A110
9BD5
9FC0
264C
A7C3
A0DF
2154
91BE
220A
A1DE
27D9
20CE
A7C1
2518
A933
A71F
A46C
2666
1C30
A89D
1890
A8B8
A17B
A71B
A6FC
2546
2081
A692
213E
1CE6
19B5
1C3B
2227
26C6
A75B
A1D4
242F
20D0
A865
A00E
A1F2
9FC4
9B84
A8B9
A83A
1D94
854F
26ED
A8D3
A835
1921
2700
A59B
205B
A5EE
24BB
A681
2468
A845
9B13
9B59
25F1
A4F8
A866
A698
2498
254E
A422
A8C6
2450
A48B
20BB
A632
A506
A6C3
241F
A897
9E79
A661
A8D9
18CE
A8A8
9DD7
A36F
A355
2543
262C
967E
A59F
9B98
9F45
9C75
8D32
2534
A859
1B40
A477
26E1
A0F9
A818
A737
9CB9
2312
1F8D
A066
1BD3
01D6
2571
8936
9D59
24B6
23F7
24C7
A7CB
A76F
A8BE
2470
24ED
24E5
9DC1
9EBB
24D9
1D9D
A6AD
A200
2402
232C
24B3
28C9
A873
25FE
A787
A825
A290
2503
A95F
1D1C
A7FC
9316
262A
25CD
2405
2744
A787
A5E8
A44A
20E1
A544
A424
A834
251C
A020
8EFF
A727
20FB
1F32
A54C
A5F4
24A6
A6E9
A5D6
2411
1D4B
9C7C
2425
1D01
2469
1F29
A831
2680
265D
25FC
A528
2753
2494
240E
2125
9CD9
A874
2495
A373
24F7
A10D
24AA
2745
A36B
1CAF
A2DF
1497
25BE
158C
A600
9C6C
A7D9
2327
1FF5
A0E6
A76F
A4D6
18B9
A693
9865
265C
9CC7
A417
1A16
A63C
254C
A22B
A13B
9FDB
A59D
26AF
24FB
9DDA
A7D4
A1F7
24D7
A87C
A467
A7EF
2213
A6BA
A8EA
1E72
265C
A44B
25EF
A6E6
A21D
9568
A76A
2594
98A1
A937
2098
18BC
96EA
A689
9E14
18E0
275F
2511
A7D4
23DF
269F
24DF
A1D8
A958
9C31
9DB5
2454
1AB4
2486
A91A
238D
20CF
1859
A806
1CED
A5E7
2700
271E
2159
23DA
A700
A39B
A858
A420
A69E
1016
2191
22F8
A031
A55A
2585
229B
A16E
A944
24FF
A2B9
9A34
A322
9110
A87B
2489
258C
969B
1E73
23F8
2203
9BBB
20D2
A7FB
2241
A5D8
1FCF
214B
A5E8
A3CD
A3CB
A495
A94F
9FFF
237E
A0FB
20E2
244B
A3F4
A85A
255C
2530
9B66
A3C6
A792
1C8C
2586
95D1
1D82
A2A5
A68C
A65F
A295
A749
235C
A426
A751
A660
1FE9
2603
A83F
2335
2674
2648
A892
215E
23A0
A83F
9ECE
1C64
A8D7
A11D
A704
1D51
2602
A712
952E
A6AD
A7E6
243B
24D3
2622
261F
25BD
2628
9FDC
A837
20D6
2450
A54A
934F
14D1
A879
9EB0
1DFC
A71B
A4F2
A450
A8EC
245B
A3F2
A8B2
257C
A682
2680
A8DB
9C6A
A461
2403
21CD
A68D
9C9B
A850
A90E
2676
A8DF
A1B8
16BF
9A14
8CDE
1C30
A860
2429
A498
9CE5
A1AF
1DA6
2725
A8EB
2467
2344
A93E
A841
A5B4
201B
2158
A5FD
254B
250E
1FAC
A819
A246
26DA
A547
1F99
1FE0
A68A
9B1E
271E
2723
22F0
A467
A5A4
A2F8
A2D9
A732
A625
9E6C
20F8
9C22
8C4F
2223
232B
9C2D
96A7
A0F5
2649
A8D3
A865
22C4
9AA5
A16A
A82C
1AF1
24AD
2677
9C18
24D7
A3CF
9B1D
A443
1672
A310
A59B
209E
2586
1DA5
A913
A6C5
A941
A857
2358
1988
99DE
21E4
A8F2
A647
A514
A2F6
A72D
A949
A570
A752
2286
A4F7
A1DE
22CE
25F1
202D
A944
A88E
26B6
A8C9
A1B1
2463
9F61
A894
999F
212F
1DEC
9864
A820
25C6
A161
A68C
0B1C
A373
945A
A6C0
A08A
A7B4
240E
A6FE
A69F
A8A5
252F
1E58
A5F8
2251
2630
A28B
210D
240C
A801
A364
279A
21E1
24DD
A5E3
12F7
1A5D
A779
A628
A5AE
A109
25EC
2682
A8B5
1DE3
9ADB
A72E
A177
25C5
25B2
9F25
20A9
A586
A490
9799
A7C8
A5FA
1B85
A7A9
1D49
A3EF
A369
260A
252A
A82F
A8EB
1D35
A879
2092
A5FC
A4CE
1C15
24D3
A878
2553
A4C0
1BDC
A807
A66D
A01C
21CA
9EC1
25DC
1B92
A47D
2648
A2DD
A167
2455
A64F
2711
24DD
25E9
A0BB
9BBB
9EBC
A6BE
A590
A6E6
26C1
2490
A269
A64E
A911
A48E
A4B0
28EA
1CE2
9EB3
A451
9E8B
287B
A3F5
A270
A4BF
2409
A532
9ECC
1B59
262E
2175
A5B0
A875
A007
23DF
222E
A21E
1E14
0D29
2181
9D19
24B0
A667
1E53
A4EC
99C4
2229
2662
2641
A4DD
2428
A7AF
26E8
24DC
9040
2043
A3FA
A333
A02D
9EF6
A09E
214F
24CC
266E
25CD
A69E
A806
269A
A319
9EDF
A49B
A761
A81F
A04C
A3C0
274C
A4FE
1E90
2710
1872
24BC
23D0
A151
A87C
A669
1CDB
A5C8
A923
1CC5
A7A3
A8D6
A2AB
1EA7
23E7
A75B
292E
21A4
89CD
1A1E
95C1
A8C2
A4D4
A57C
A900
23DF
A8E9
20A8
A852
21C7
1DC3
25BC
19AF
0A96
21BD
A88B
A57F
A6A3
25E2
A858
A271
A907
9DAD
9FAD
9D61
A52C
AD72
AA99
A208
AE64
B238
B03D
99F5
29F5
AA8F
A820
B064
B0C2
2582
A53A
AD3C
B319
AF4D
A803
2CEE
AA35
B140
AA57
2F82
2E64
221A
A241
2950
220F
9E98
A701
A07D
28AC
239C
23C0
273C
2804
A0DE
22F4
1FAE
2829
9B15
A48A
A856
A7A4
2579
A885
23C4
A711
A9DA
9303
3064
2C8F
3421
308D
2E23
A80A
290A
273E
1F8F
A94D
2A0C
2902
254A
2FA3
3094
3158
A7D0
A464
30DC
29F2
A626
A80B
1AAC
237E
316B
A6FC
24E2
AC47
A956
AD97
2478
18AA
A8C6
1A48
245E
A987
AB58
A8F0
2AED
2520
A874
AA4D
A1D4
198E
2460
24DF
2C83
24D9
A593
233B
2F20
1DDD
A565
A5E9
2B89
26E2
A7BD
AAC0
A9C2
ACC4
A999
A2D8
AB56
A8A5
A431
9EFC
AA03
AF37
B14B
A86C
ACC7
A4A7
A9E4
ADA2
2973
AFBD
B071
AC69
A823
B38E
AEBC
B2E0
B00F
ADB6
ADC9
B312
B02F
1CFC
1E82
B0A8
B1EF
B0E4
A81E
31F4
3318
97FE
AFA7
B3C7
AE87
3086
B11A
B138
B052
A85E
A3C5
AD94
AD58
ACAD
AB38
A93A
194B
24C1
AC6D
A8E8
AB2A
301D
2513
A670
27F0
0CC5
2903
25AC
AAA2
AC2D
24AD
A1C3
2472
A55F
26AE
AD5C
2B9B
2BC0
A284
1CBE
AD3E
2E39
A85B
AFE4
B00A
B1B3
A8EC
2297
2712
A72E
AE01
A4FD
ACA2
AB49
3029
2B3F
AD17
A960
AB81
2AB6
2D54
9D03
A9FC
A6B6
A9B2
A8F1
ACED
B02B
9850
A2C8
2448
AC01
AA6C
2361
2D9B
2461
AF84
A9F9
2530
2AAA
AA01
A52D
ACAA
271E
2523
24E2
2BBD
AAB7
B066
A95A
A182
2931
AB04
AA37
2C80
2A1C
94BE
AE10
A4F1
2D32
214A
29A7
2CD8
2BF7
30DF
30DB
AC16
2CE2
2C9C
302E
2ADB
A81C
24C8
AD45
A2F9
2810
23AA
2F72
A5A8
ADFB
2986
3100
2F17
A5F2
A898
1F2A
AC00
1BA0
28DA
A32A
29F0
A458
A831
9C05
AC50
B2D5
2F1E
2AB5
208B
2FE0
AED8
20CA
A594
A355
32FE
AF54
3007
2476
2B23
291A
AF1E
A6FF
9578
2B49
30D8
2048
A98F
A10C
2E53
2D34
2F1F
2DBB
A752
ABA8
AEB8
A8B7
31B9
AE71
AA73
A9F0
A1EB
2E2F
254A
20C9
28E8
2C63
30AF
2E88
25A5
A5E6
2D7F
206A
AAE6
280E
2F64
2C2E
13FF
29A0
29B0
A7A8
2C85
2E63
2EE6
A871
A93A
AAC5
28F4
8AD9
A4AB
B245
259D
9E27
2CF4
A52C
2C76
3143
2888
AEAB
8CF7
21B3
A5A5
2DC9
AACB
A50F
AB76
AC12
2E2C
1B1A
AA76
AAF5
26E6
24A2
2719
A1DD
265C
2CB2
AB08
28E3
2B68
2760
346E
A491
3029
30CF
2858
A721
A618
2F4E
3014
29FA
A865
A5A4
2FA6
2584
2A28
291E
AA9E
1F37
A5E2
2B75
9ED1
AD82
AD07
AC12
A8D0
AC85
9CD3
A9AA
A83D
1F49
A440
A01D
A03F
20F8
A26F
2927
26FE
A957
2259
9818
24D0
A6D3
A465
9F66
A920
A004
AC3C
2870
26DB
A657
29E1
2EA3
AC41
2D07
2CB6
270E
ADE6
9FDE
A9D7
2E52
AB69
2BC1
267E
2FB9
2C0E
A8DC
2759
27DD
2B3A
2160
A575
30FE
24FB
3062
2D57
2A35
2E23
2DA9
22FB
2C7C
307F
22F1
2151
2883
1BF4
28F0
2EA6
1C2B
A88A
A95A
9E61
2B3C
2788
26B9
A38C
B014
2A2F
A60C
2819
A047
AE98
2FD2
3248
2F7D
3033
326F
3024
3098
A537
294C
3175
30CC
A6D3
A9BE
1AE2
3005
2912
2583
A78D
A8EA
9F62
3282
2C78
31C9
30BC
22A7
29E7
1A26
2051
A22D
A0D0
2411
1DBA
2A67
2915
9D3B
1F52
2902
2680
A416
A795
A2E5
A458
1E3B
A542
A9E1
A860
1F8F
A276
2619
28A3
B469
B29E
B426
B426
B320
B27C
B072
A8D5
2D4E
AB59
AC1B
2DFC
A7B7
2883
1BE8
2C13
2E27
28A4
2D2E
2B07
AA31
ADDE
B27D
B0EB
277E
30B8
29EC
2404
258E
A4EB
A9D2
1C67
2698
A707
ADEF
B038
AB38
242A
195E
AC2B
AC98
A880
AC3E
AEFB
AB54
2C5A
2B1E
ABC8
A951
A48A
2EC8
2C8B
A0F4
310C
2FBD
3064
A1AF
AF39
AAEA
2C6D
2EED
9440
AF85
9B93
2DA8
2D85
94E6
A962
927D
2DB5
A5A2
A8A5
AC07
25FC
2A91
3035
29DC
246F
2583
1D9F
A460
A57A
2731
A406
2BBC
2CE4
A9BF
AA78
26C3
2D17
30E4
2566
164C
2BA2
2641
2FEE
3199
2C7F
2813
2DB3
281A
2989
A99F
A849
2F5F
3139
309E
299D
3175
2C6D
30BD
2B80
2E3B
321A
2CE3
2BB3
2667
1C39
2EF2
2DB1
AAD6
ABBA
A910
26C3
2E75
A196
25D7
ACD6
1EE3
2EF5
AA94
A90D
25C1
9DAB
A5DD
2CE3
9D40
2DA8
2CD3
A324
2D3B
2D61
2E1F
304C
26F8
2D29
A898
AB81
A392
2A78
2F37
9D91
2CE6
2531
9AA8
261E
2102
2CCE
2B89
A9FD
2BB5
1A28
2BA8
2AFE
AAB3
2D0F
230C
223E
2062
1A20
1FE3
A614
2F57
2E2A
2439
281E
2CAC
2C99
2FDC
242E
30C0
1C26
198B
9E6C
1645
31F5
AEF5
B019
9CA8
2BC1
2F82
A931
A30F
A437
AC63
29D6
23CA
2AF8
A4B1
ACE6
305D
2C76
2DB1
2ECC
28AD
2E39
AC48
AC16
2AFF
270A
A570
AE41
A558
2C97
2B31
2449
A53A
29D5
2C23
A282
ACF6
9615
9A66
A86A
A4A0
220D
A2E4
2A35
28DF
2557
24C1
A8E0
A77F
A492
280B
23AD
2014
A631
275F
9929
297D
A506
9C03
2BB7
A282
A1C5
2978
273C
A0C4
20C9
AF7E
A4ED
A460
B201
AB31
B0C4
A543
AD01
AA67
24D7
AD91
AC65
A887
AC15
AF13
26E6
AC09
AC3C
ABF8
AC11
3120
27D9
29CF
A3AF
AB9E
1E12
A8BB
AC81
2B94
2BF3
AAFC
AC65
AD05
AAD7
A40B
2EF7
30C1
29EB
2379
AE71
2B54
3016
A7C2
AD8E
B0C2
AD15
24BD
AA0A
B253
B506
A34B
0FB8
2863
94AB
1D0D
2819
A468
A3E2
A348
A5DD
282F
A491
26D2
264B
2790
1E83
A370
9F43
287C
2888
258E
23F1
A64E
9C5B
AA13
A9DB
2D32
A6D7
2C8A
2CA9
B211
ADA0
241A
2D6B
2E10
A837
A8E8
2CE6
2980
29CA
AE72
AC1F
1A35
246D
1FF9
ACA2
A06E
172D
1259
2DAE
2591
A748
2D7F
2D01
2CDD
29CC
26F4
A1D8
27BA
296F
175E
9F3F
28A6
2A93
A14F
2B48
1B20
9B83
AB64
A176
2D2F
29CF
A494
A4E1
A063
265F
A511
214F
1FFC
228E
2A1D
A39E
ADD8
9CFC
2CE8
2446
AAB6
A9A9
24D5
2CDA
2942
25D5
AB52
AAFF
2F7E
ACC9
A6EE
B007
AC6F
A9A8
1A9D
2C6D
2D9B
27EF
278F
2934
3122
30B4
3177
2B63
AF34
2FC8
310D
3159
2D1D
B0C3
8A4B
2B11
2D0B
9F88
A880
AC34
AAAE
A8FB
A9A8
B33C
AFCD
AD8E
ACA8
B00B
B373
AB82
9950
195E
AF9E
B08F
2B3B
3022
2FC6
A08D
AEB2
2E26
30CC
300E
2991
AFEF
29B8
2C04
2FCB
3164
258C
A961
AB1B
A882
AA9B
A38A
ABE6
ABC9
2D0F
A5E5
2E69
AD12
B078
AE7C
257E
2383
A7F6
2CAA
2C28
A0DF
2D34
2CE1
2070
AFCC
B15C
33B4
A416
28C3
9E90
2F2E
2F3E
1812
B175
B0C9
AABC
28D1
AB77
B1A8
B46B
B2EE
A814
30DB
AAA2
B0A0
B1F9
3071
310B
2467
A905
B0B1
9478
03CD
ADCF
AE2F
AFAC
AE8D
A93A
AE45
A9CF
A42B
AF18
AA6D
A8A2
AA88
A7C4
A794
AC34
A89F
AA77
A899
29E8
AA26
2780
2CBD
2A12
2D07
2D0C
31B8
2C43
AE09
2C38
9EBB
2F64
3171
2344
264B
26DA
29D2
3030
1FA6
2958
ACB8
B004
2961
21BA
A44B
A78F
B20F
A3A0
AEEB
1933
1A82
AECD
ACF0
B16E
AA67
2ECF
2D0B
2F96
AD3A
2869
2E25
316B
30ED
1B1E
1AE4
2B6B
1C8A
2DE5
2933
A660
AD4B
A406
2BB5
2F16
B115
AD48
AD5F
A900
2C1D
B139
A865
A4D0
2D2F
29D2
AACB
2DAB
2F97
A61B
ABFB
A968
2DC2
91F0
29E0
26E1
2E87
2F2E
2EFF
29F4
2EA9
AB55
AE09
A289
A883
3146
B24C
ADDE
3331
2FF7
339F
ACC7
3094
2FB1
3261
2E61
B165
2D17
2EA9
3113
2C74
AFD0
A98C
253D
1D89
2CC1
2D98
2611
29FE
24FB
A989
32EA
28A8
28A6
AD3D
AF60
29EE
A2CD
AB08
AC15
AC86
2B43
2819
A452
2857
AD67
3049
3299
30A2
3227
298B
2FA2
A5F2
ACB1
2390
3000
2819
A88D
B1A5
AC59
2C19
2B36
A415
A32B
B010
A992
2F2B
3083
311A
A7DF
A128
3214
3040
2233
2D65
2D98
2397
A3CD
A8F1
9F3A
A170
10FD
A121
1DB0
23C3
10A5
A136
9CA0
A326
2448
AC2B
A72A
A904
2193
A335
2283
A7E9
2709
A434
A937
20A8
B0FF
A891
B067
A1F8
2CC8
AA0F
9EAA
2CC2
2E04
3161
169D
993F
31B0
3125
2DAB
AF19
2ACC
2DA7
2939
2595
2DB6
2CE7
317D
32CF
308D
2C9A
A61E
A678
A9F2
2B37
2F58
A6F4
B069
AA73
2FC8
2E11
9DAD
9CDB
AACB
2EE4
A551
A0BB
2C88
2C1E
A728
2A25
A954
A7BD
2A99
281D
A8EC
2C5D
B07D
A880
AE87
AFE1
AE8D
AD9D
A636
AA28
AFB6
ACE5
A880
ACEF
AEEC
A7C7
3018
2A30
1A61
AC01
30DA
318C
3004
3185
217C
293C
114F
A512
2A63
2603
232C
2405
0D0C
A79C
9A2C
A221
976A
A92D
20F1
A76E
A8E9
9B72
1B5A
2434
A962
8F14
2707
9B30
2432
25AA
A141
2F6C
2CB2
2A9A
291D
A467
2F7B
2D37
3021
2AA2
26D3
2B67
2A50
2B1F
AFEC
ADC0
ACF7
2D80
2F49
A96F
AF59
B3D8
B2D7
AC7A
B133
B0F3
1F10
A96E
2524
2FA0
B040
B04C
AD4A
AA6F
2ABC
B33C
B12A
B06F
ACB8
28D8
AF30
AD73
AA71
2634
2697
148E
2723
2F8E
2E20
A333
98F8
2480
306B
3471
3429
A970
AFBF
1F6E
2E48
3014
B106
B14B
A9B7
2E81
2F20
AB31
AACB
8EBC
31C4
320F
B0B2
AE4E
AA4B
1BBE
2E9B
AB0E
AEBA
AF2C
A8BF
A669
24EA
23F9
2DDA
2C87
A64A
2B37
3003
3069
2DD5
A9CD
2E68
2283
3068
29FB
24D8
A758
2922
A8FB
A674
25C6
A84C
2C94
1AAE
A899
AF9E
A8C8
A288
AA2F
A83E
B02D
2CEB
ABAE
AD6E
A011
A97A
AD59
ADE2
2862
A249
AEEE
AC95
9DA6
AE48
2B5D
AB84
2F53
29C4
AC10
260D
3046
2C7C
ABA4
B2FC
A995
29D3
ADE1
AFB7
A93E
AC59
285E
A540
ADF8
1F18
213D
A523
AA5D
A0AC
AC8B
8EEA
3115
9F3A
A7D0
22AA
1C61
2C69
A9AE
2617
2476
A60E
2A7E
28B1
A5C3
A59B
A78E
A2DD
2759
98F2
1BA9
9F1E
2807
169A
AAD6
A798
20F7
2B17
30C3
27ED
285D
29F2
3186
A53F
B3FE
B28E
A465
31CA
97F3
B308
B64E
B1DB
3281
284F
B2EF
B43E
98D1
294E
A800
B372
A7C8
20DE
2EF2
2C31
A8A5
A9E9
2967
222A
302C
256A
AC5D
2BBC
A63E
1CE1
2C23
1CEC
95F9
A58F
2CE9
29BB
28BE
A85D
AC2F
32BF
2BA4
1D75
96EE
AEB8
2287
2768
2BCD
2A97
9CF4
2900
245B
A28A
1F9B
202E
A523
1FD5
A3E9
A47D
A8EC
24AA
2C04
28F7
1868
A4B2
9B2F
16AE
264E
A106
257A
AD3C
A94E
ACC3
ACAF
B090
1C23
25AE
18F0
2CFA
930C
32AF
2E7B
22CA
A6C0
AE5A
2F23
2B4F
A300
25C4
A142
331B
2EFA
29A5
2CF1
1F13
AA16
235C
235D
9E20
0BFF
A439
A092
A879
124B
A7B3
25B9
23AF
1E3B
2443
A75D
990A
22B7
A4A3
2670
1CF3
A29C
A766
A316
A414
A686
2654
25A6
2602
1A76
A4DE
2809
A0AD
9783
A8FE
A75B
A678
A83F
1AF1
A510
A8EA
A865
A852
A494
91CB
23AA
97EA
A39D
9944
A273
A751
A97A
1DC1
AAE8
AA9B
9103
94B2
A078
A34B
A714
A9BE
1D12
87FF
98ED
2871
2281
A3D9
A2C9
A465
1FB0
A1BC
9F63
A584
A545
9D03
A5C0
A396
9E54
24FB
1C25
A481
1F18
9E89
A5A2
A8B3
9E5E
9D67
A8D7
A59A
232E
A68D
1F2B
A556
18A0
2859
A2B0
25E0
A294
266E
0EB3
A023
9CEE
9DDB
A870
A266
2251
245E
A818
A53C
9F39
9596
A48B
26CC
A341
1987
A1B2
A832
A63F
AA94
18AB
A839
A1EE
A89B
A6F3
A5A0
A30C
2503
9B08
A020
2590
23B1
A4EA
A89C
A25C
A54F
A071
0F21
A761
A7A4
24F2
2529
A9BE
1D27
25AF
227F
90E2
A8C4
A7F8
A1C6
2874
A4D8
A17F
A586
2449
A933
A479
A4BD
2326
9F13
A82A
A788
1A6E
A816
A891
A0E0
2431
A64C
A9EE
2496
A6D4
2176
194B
24AF
A93D
A48C
903C
2460
9A5A
2416
1B8B
2132
A627
8E1C
22F7
2167
193B
A54F
A2B1
9C17
A834
2678
1E63
A820
9952
A810
254D
A03A
A5D1
A5C0
1807
A7E4
9C6D
A43A
A807
AB3B
AC91
AA01
A945
AA62
A9A3
9913
1625
A6BC
AA81
2491
2426
A9D7
A897
255B
9A87
A476
9BDD
9ADE
2519
9DC3
A83F
2554
272E
A86C
A357
9C35
26C6
1FAE
2613
1C6B
278D
1F59
96FE
225A
9F4A
A751
A5D5
054F
A763
A06C
A63F
A63F
A2FA
A510
A883
AA6A
A50E
2474
A903
A9AE
A97F
A779
A84F
A2BB
A621
A811
A23D
1CEA
AAC1
A5D8
226E
A497
A6CA
2312
20DE
A6A4
1915
ABD7
2146
A897
2073
A559
A3C5
9CFD
A5DE
28DC
AAF4
2108
98D5
1734
A059
265C
A75B
A939
AA41
AB74
2079
A6C1
AC12
A9D1
AA2A
A351
A93F
A927
A8E3
A80F
193F
A321
A692
A938
1346
AA49
A803
A2BE
9E89
9171
A935
A400
1E0E
AC5F
194E
A6FC
AB65
9A2C
AABD
97E0
A98A
28AA
A849
999F
A9A8
9793
248F
8A9E
83BC
20FE
A32C
A3CF
A704
A4B7
A5C5
A888
1D8D
0B4F
9B07
9E27
A5A5
9A1E
A995
A637
AA0F
AA54
A02B
A9C0
A426
A377
A814
256A
AAF7
A756
AC25
A74E
A9C9
A602
A733
A06C
AC15
A6F0
A611
1E7F
A91F
AA5F
942C
AB1A
22BF
AC0E
A795
A5BF
906F
AA71
A4F7
A8DB
AA80
A1F0
AB78
A640
A363
A9E2
AB14
9BAE
AC31
A821
2118
A893
A5D0
1FD0
A93B
20D6
A5D2
A6B9
A444
A898
A004
2003
998B
A9E5
2415
A70A
A1B0
2058
1CA6
1EB1
A43E
148E
A689
A69A
2130
2037
2065
A88C
A61B
243C
A740
25B6
1D99
A626
2020
2363
A839
A48A
1EC1
A606
A082
A46E
A6D8
A705
91F0
A982
1C80
AA2E
9ACD
AA53
A9A7
A42A
249B
AA8A
2044
1C14
9E1E
A8C6
A7E7
1ED6
A57A
AA88
A8FF
A574
039B
A650
A3FE
AB18
22FB
A53B
9062
1C38
1B77
A3FB
A4AA
A9A0
A5C7
A896
1D7D
9B45
1F07
A66E
A03B
A661
A7BC
A78D
A507
A75B
AA17
A631
A129
2341
9FB6
A5EA
1AE6
240D
A60C
2846
A802
A342
2560
9615
1E37
A970
9D1E
22FF
9CD9
A5A2
1D6D
A81C
A9A2
9DAE
189D
A284
A007
21C6
27E3
2663
276A
123E
A741
2047
A7AB
286E
2068
247C
2654
24BD
272C
2534
A5CE
A5A5
A81D
A12B
2280
A287
1CE4
A30E
A6D4
A884
0957
A46F
9D06
2095
2674
247D
23EC
2470
A6C5
2556
9E3E
1D94
A797
A75B
22F4
A44D
A71B
16F1
0DB8
A834
203F
A855
A006
A43B
9C3C
A1B2
261D
237F
189E
1D1C
A818
2187
2095
2158
A74E
A518
A8ED
9595
2688
A92D
A96A
A34F
1A09
A823
10D5
A8DF
222B
A209
A90B
A00B
A924
A7A6
A8BD
20BD
A4ED
ABF0
1F41
A894
A909
A464
A9E8
A815
22DC
A8FB
200E
00C9
AA6C
A524
A28E
A6DD
ABF1
9A3D
9D11
A99B
A8D3
1D86
2794
A7AE
A44A
9FF8
A86D
A768
9C4F
A931
9F78
A8EF
A88D
A997
22AA
217F
ABE8
A74C
9D02
2073
A5C9
2519
1933
9AF5
A11E
95C2
A92C
224B
22A2
A9CA
2377
1D25
98C8
259B
25F4
1FE1
987E
244A
A7AE
1870
A0AC
A46E
21A7
A34F
2227
2314
A5E4
1E58
A118
26D1
AB9D
1C91
A9E5
A3AA
A8E0
A672
A818
A36E
AC46
ABA9
AB89
1DC8
9784
A99D
A9DB
A793
AB10
96E8
A7C5
A9DD
A647
AB6A
15F8
A4CE
AB88
A63E
2134
A63E
167F
A128
A3AD
A6AA
995B
A1E6
A3EE
28B8
25FC
1F0E
A44B
9D2D
A604
A5F8
25CF
A8FD
2423
2404
98B0
2902
19F1
27BE
20D8
A676
A63B
24E1
28B1
A5E0
A65C
A7D4
A738
2565
0C14
A0CD
244E
9D20
A8DE
9FD6
A43D
A82A
A8ED
1BAE
A47B
95B5
9F05
A5DD
20B8
AB80
26C8
A5CE
A5C6
A934
A483
2091
A7C0
9886
A6A6
1144
9DCB
A23E
25D9
2546
A6F5
8C7D
A6C8
A4AA
AAE8
201A
A8B7
A5CB
9B6B
A8F6
21EE
A0DD
A922
A181
20B2
A4F0
2534
A8FD
A1BD
249E
01C5
25DD
25F4
27DE
A455
10EC
A78F
A86B
1EA7
A81D
A666
9ABE
A0F3
9CDD
1D42
A90D
1D37
2153
A6FE
A42E
A175
2507
20DB
2787
A633
20B1
1BA6
A82B
1C67
98D2
A149
AAEC
AA31
18FC
25DF
AA8F
A511
A83B
A862
A703
2373
204F
228F
AA8F
26D5
A5F1
A32B
A528
A5E4
A4E2
9D7D
A6C3
A944
A869
A81D
968E
13C0
A6BE
118E
A147
234F
A942
92E4
A5D1
ABCF
A883
A924
A894
9AD0
24A8
A8F8
9FBA
A0D6
2605
A540
A8A3
8821
2797
26CF
A878
A3A5
24B0
2518
224F
A0DF
2274
2612
A171
155C
A5A5
A68B
1F04
81A3
A49F
A7D4
A013
A783
A7F7
9EA3
A79E
2428
2490
9EE7
24BD
A685
A72B
274B
1FAF
A4D9
A516
2315
AC1F
A09C
231E
1E71
A1AB
A808
25A5
A465
A1F1
A937
9D89
1D29
2429
A436
1F3B
A172
A37B
A314
19E4
A1A1
A23A
A3A2
249F
A551
A800
2423
A11E
9E16
A651
2632
A649
A0CB
A164
ABA7
2915
28A2
2395
AB09
A600
26CD
AB71
9C17
A5F4
1905
AC44
A283
249F
A92D
A80F
ABFC
AC3C
0DEE
AB47
A4CB
A431
A735
9D06
A700
2629
A51E
1AA6
2060
A95E
9DFB
A827
2588
2498
A221
AB70
9DAE
2021
AA06
272B
21F3
A6E9
979F
A0DD
A5B9
2626
A19C
A1C0
A6CE
A90A
9F11
A6DD
1CB2
AAE4
A29B
A880
A5A5
A6A5
A70C
20F3
A40A
23AB
9EF8
AA11
A83C
AC5A
A225
A82C
A15F
A68D
A240
A897
2504
A189
A660
98C9
A2D6
A4EE
19E1
2141
A24B
A561
A6CE
A7A4
9E68
A782
ABC5
AA11
1F1F
A82D
24B0
283F
A83E
A943
9FC0
1283
A443
1D5D
98FB
A040
A62B
A156
26CA
A51F
A42D
229F
25A4
A0B0
A87E
2345
2357
A91B
26F6
A198
A943
9CA5
A923
A0B8
A965
2444
1C3A
A5E6
A40E
1DDF
9B0B
AB70
ABD9
A32D
A889
A559
9FF4
AA3E
ACA2
1AE7
A4C3
1688
9B82
A7CD
2639
9CF9
1F59
A0ED
9E6D
A6C7
1F94
A9B3
A0B2
9DD6
AA59
A082
A82F
94D6
9640
A95D
9938
A1E3
A990
1DCA
2617
A982
A384
A817
2471
A006
A859
A7CD
A94F
A721
1C62
A142
A487
9612
A941
9C5E
A8B7
9765
9FCE
A511
AB16
AAF2
992E
A041
A632
223D
259A
A320
2651
131A
A4F7
9F24
A96E
1C98
A7C7
A7C4
AB75
9C6C
A4B7
1929
9E67
AAA1
9731
A2A2
A718
A5D9
A427
238D
A8A3
A6D3
A9A9
938E
1FDA
A7D3
A935
94A1
2210
9B93
9E4E
A80E
A53E
1A01
ACA2
2538
A449
A217
A020
A09A
A963
A660
A175
A6C9
A16A
A4FF
A985
17CB
A118
A6F2
A4F0
A120
A0FE
2507
1C7A
1E1C
A940
A984
A834
0EFF
A6AD
A3FB
ABC6
A76D
A930
A515
2413
23AC
A0C7
9E41
A54F
9ECB
0735
9FEA
A368
AA12
AB33
A1FD
A9BC
A8F6
A9E9
265F
1E7C
2939
A9EE
2074
A408
27A1
A2C8
2624
2423
1A09
26C7
1742
A599
A907
1F83
2504
19FC
A90D
2193
A766
A659
A79D
93C6
24A6
ABF3
9EA6
A068
A923
A818
24CD
A346
25D7
A82C
A8CD
1DCC
23DB
210A
A545
A599
A851
A79B
2153
22B5
A71A
2746
2539
A34B
2327
26E0
98CF
1FB8
24BF
A837
A30C
1D0B
1826
23AF
A7AC
A0A2
A587
103E
A669
22E4
A811
1C75
A6DB
A87C
13B5
A6AA
25CE
A888
AC35
AA28
AB45
AB1F
A8D5
A54D
161C
A8F0
A91E
A2D2
A637
A1B9
A753
A71A
A90C
9808
1E06
9E4A
9747
A8AC
A633
A441
A22F
2331
1E18
1B68
25F5
A7CD
A84A
A204
A8A8
2214
AC80
A89F
AA05
2667
A2D5
A145
A1D4
2457
A038
AAE9
A96E
A65A
ABAA
204B
A86F
ACC7
AAA2
979A
A48E
A555
AA64
A4A3
A221
A3AB
A810
2252
25C7
A87F
2800
28E7
A872
25B9
A2F3
20EF
A739
219C
9D6A
A83A
2226
A5FC
9987
2783
A4AC
A432
2437
A0DA
9FE7
A7DF
A7FF
2786
A250
2810
20FB
1F2E
A8AB
A428
A56E
22F3
A6B0
A85A
9B4C
14DB
1B03
9D66
A38A
A8A5
264B
A6AF
A367
207E
95F1
0AD9
A8BF
2708
A453
A7A6
A90A
2033
248C
265E
1DD4
1A31
A80D
22D7
A2A0
A80B
A7CF
A4C9
AA27
A7C5
24CB
25C1
AA4A
14E3
A655
AAA3
1A8D
A626
25E7
94D0
A02B
A9F8
ACBE
A196
A6DD
A287
A48F
A71E
A860
2362
A7B8
1A84
1DD6
A5D5
AA7A
A501
A95A
AA6C
A8A9
A97B
A51D
9994
AC8D
930E
149C
A891
24A0
AB4A
9FE6
AB1B
9C9E
9C6C
9C2B
A911
A4E8
258E
9F15
A7AC
270A
A804
A508
A8C9
2590
AA06
A8FB
A5CD
25EA
1DF6
9703
9AA5
22ED
2726
A762
A5D7
24C9
1BBF
A826
1B9C
A93C
A4D4
9D34
9E17
A69B
A886
A6FA
A686
2601
9F34
A456
A482
A8FB
A8BD
9D4F
2305
255D
272E
A538
2511
A7CA
267A
A12E
A6A2
A942
A94A
A8CE
A571
A4F1
A931
1D57
A81A
2692
25FD
94C8
A716
1975
A471
A7B7
A84B
A82F
A921
9A7B
1EF6
2406
9962
1AC5
274A
A2BD
2704
990E
21DE
2191
2433
9A1D
2272
17A0
257F
1D40
2710
A096
A624
289F
A72C
A42D
A831
1978
2421
945A
24BC
A426
A3AB
23A2
A842
AC2B
91DE
2516
9898
A8F5
A4C7
A526
A786
A345
2377
A685
A1B2
1B5D
A8A7
25C8
9BD5
A699
ABAB
A74F
A488
A6FD
14CF
21BC
0FA7
A552
228F
2338
9945
A885
2315
AB73
AC22
ABDA
1123
A54C
AA05
A760
A6BB
AA49
A4CC
1ADF
A1C5
87FF
A65D
209D
22C5
9893
A3D7
A162
9B6C
26FA
1A1E
99C1
25EE
2693
A934
A440
2450
231A
28D5
9C71
9C77
9CF3
A6D3
A0C4
A95C
A79A
9E4F
A65E
2352
9445
9C53
988C
1AA4
A594
A43D
A956
25AC
A7C5
A856
A375
98C3
A878
2653
A83C
0E46
1D31
9D3A
A7F6
209F
A4ED
A967
A87C
9C18
AD56
B11E
ACDA
AEE3
9CD0
9F47
AF61
B271
AEA6
A442
AAAC
A182
A309
A8BA
810C
A926
216B
193E
AC52
A261
A98B
A2C9
A903
977A
9F39
9D19
A61E
2796
A534
1FDF
248F
22D3
215F
24D4
A258
93BC
981A
9EE4
9EC8
28D8
1E30
296E
25A2
1103
A11D
9577
18B0
9AD7
25E5
2D41
2D15
AA60
2AB1
22B6
AE5D
2B7F
326C
2E3A
295C
2F4B
2C79
2E80
2A9D
AE36
2CC5
2F85
2887
2657
AC52
AC81
2605
2F05
2C64
A0FE
213D
2570
9DBA
A8C5
AD18
A2DC
2891
9BE3
9FC2
A58C
A7FD
9FF8
A925
A55A
2121
A315
9C22
2831
A054
1B27
9D51
24F5
291C
25B6
2BF2
A764
A9AF
AC8A
AAE0
A036
2C01
AABF
AD2E
AAF8
9F11
B0E8
AE19
AD5D
AD54
A4F9
AAB9
A96F
AFBB
AC02
A377
AF04
AC6C
B26C
B390
B25A
9E93
AF32
ADDC
AC3C
AA8F
29F0
B157
B01F
AA5F
B2ED
A5A7
1B52
2AEC
A1D5
B164
AA08
9D7A
AD7C
A6D1
A31B
25CD
2EDA
AA5D
ADDC
2501
AB80
ACB1
AA5F
AD0B
284F
ABE7
2C24
2E6B
2A17
9298
9EC1
3082
30CA
2EAB
AAB1
1C42
26C0
96B8
26F7
2E60
273E
AC5E
A9CE
3118
2F71
21EB
ABC3
A310
A9A4
A9F2
A0C3
AC72
A91D
AD43
ADCA
2C67
2935
2FBC
21A1
2E40
262E
3226
2BEC
2F33
9F92
2614
B024
AA4C
2B96
2CEC
B63B
A799
AC0E
B40B
3097
B1CD
A484
AA07
A977
1027
AE3B
A214
2000
2D43
2C93
AB59
2E80
2E05
2F1F
2D79
2441
29D1
2810
295C
2E63
AC3D
B47E
B071
AF38
B0F3
AAB2
A834
A47B
9A18
2530
A9A9
9725
A3F5
26CF
2D29
223F
B2AE
B36C
ACF4
22CF
278B
259C
AB77
A682
2CF5
2CE6
2D38
A768
2CD5
A811
2C97
2D4E
9D74
2AB1
AC58
2C00
2C16
A62F
2386
2FBA
A20A
AF8C
B31A
A702
2CC8
A73D
AAC9
B113
A3A6
2CCB
A9F1
2A8C
2C73
2CBA
30B6
A952
2DFD
33C3
31CE
3093
2A9B
2D9A
2CD7
2F8D
309E
267A
A6A8
2212
282D
259C
A3A6
A77F
AD33
2A35
32A3
277A
3057
2FD3
2E4A
34D3
9DBB
2052
2F21
2E2B
2C60
ACFA
3030
A159
28A5
A773
2C5D
2923
2FCC
2980
A82D
3190
2EDD
2C88
30CC
3100
A858
A86C
B0AC
AB16
2C5B
23B6
1D1C
3082
3263
31E6
2BFF
3023
2EEA
3297
2459
23E6
2CC5
A500
9CB7
2A8A
AD4F
AD1C
B25E
AF5F
AE85
A730
25A6
A96C
2CE1
30C3
2505
2827
24DE
A855
2F63
AD9A
A9DB
AC0A
27BB
32C9
AE57
936E
AC55
2900
3076
B0F2
ADD7
AE76
A5CD
B06A
B09A
ACD0
9735
2137
A3AA
B29D
AC42
AE6F
A8BD
200F
B159
B234
ADF3
ADD0
26F0
B2B6
B089
9A00
AFB3
AA5F
241E
2DA9
2DC2
2F64
2404
241F
A8E6
A29B
AC0E
A95A
A899
A78A
A896
AADD
AB20
A4EA
A26E
A538
A0FD
A4B6
AB18
2431
ABD7
1836
A9D4
9FFE
A60D
A802
A875
9E83
3024
2F0D
341E
3492
3485
3002
305E
3433
3436
339D
2CFE
2D70
3259
2DFD
9CB3
A81C
29DF
A05B
AD56
2E26
ACA4
2ACE
30B8
2764
AA78
B147
B218
B124
B0D5
B4D0
AF9D
B13C
B134
AF04
B1BC
A4E4
294D
9E36
AAEF
A7CE
A89F
2CB6
2892
2618
3038
208B
A8AC
232D
AA5B
9E8A
ABB8
B114
B338
ADB3
B025
1C82
A93F
9FB1
AA60
AE59
2942
2ED3
2DDA
A58E
25A7
1564
300A
2DC0
2842
2F3A
2D6F
21E3
2563
AD9D
B02D
1CE4
936C
26BF
296C
2421
2637
A987
9FCE
2332
249B
A59F
A47D
1973
17BE
A1A2
A2DD
200C
A3DE
A8B9
2835
2036
A37B
1E1F
A416
A5C9
AB4C
AD99
ABAE
9FE5
A58E
AE24
2D96
2E8B
2EB3
24F3
AFFC
24C5
A6F8
2CA4
AAF5
A69C
2B69
27E0
2DB8
3044
2835
AB00
AE4E
9EFC
2EF6
A102
29EF
9F4D
2F95
20BA
B0CB
AD00
A1E0
A9BA
AF3B
A14F
2E53
2F99
26C5
B252
2EBD
2C9C
2DC1
256C
A97F
3009
2D22
2DE4
2CAA
2DB4
26D6
B239
AFA8
AC64
B096
2FAB
A308
B045
A819
26E3
323F
9E4C
AC9A
20DF
25CF
2EE8
24B1
A6CE
A4F7
AAD1
AE78
ACA2
ACAE
AF9F
AFF6
30F3
2BBD
ABFD
AC02
248E
2BBF
2E02
309C
2EF9
2EDF
A868
2D1E
2EDD
2939
A9FE
26FE
B086
A86E
AD52
1A5C
2F31
2AB8
A8EC
A65B
29CC
AEB9
B25A
B275
AC9F
AE99
A51F
AAAF
ADBC
ABEA
A82E
A12B
2FFB
AD4D
23D9
9EB4
2F89
3150
A8AD
2CBA
302D
2E7E
24A0
AD1A
ADFF
3033
2413
9C43
ACA6
A750
A0C2
AB6B
28AE
AA7B
ADAA
1916
2D59
AB5A
2C92
2060
20F0
01B4
10EC
2E2D
2E81
2C6D
ACE5
AD24
AB43
A8DB
A4FF
A52B
A72C
A689
1E57
263B
A7CD
A974
A90F
A9E5
A6B8
AAAD
AA44
20F3
27B1
2081
A98B
ACA0
A501
2B7B
A057
270D
29EB
9832
29E6
A2C3
B313
AFAB
AF00
B0E2
B47B
AA78
A4D4
2159
A9AF
AAA9
B3C0
B478
B38C
B1B6
AFA7
2958
A151
AD95
9D75
2C70
27CE
3060
3184
3191
3058
B294
B09F
AF6E
AAD4
2DE9
2A7F
A9E9
1683
25FF
2D2B
2F33
2C18
2C5C
30CC
3029
A006
2C33
20FE
296C
25BB
ABFE
AA53
AF95
A7E9
AB51
26F9
979B
1F80
9F32
A638
2A56
2B9D
1AB1
2519
253D
A9F2
2830
25BC
A516
A811
29C0
2471
2058
A3CC
1CF9
A37E
9EF1
A481
9D93
27F6
300E
2807
AF95
AE88
B226
2CC2
2D9D
2B09
AC8D
2821
A137
3034
2457
2B09
A744
AA1E
2C3D
2DF8
3001
21BF
2DF7
A610
AED7
AE73
A662
2481
AAA4
2EC9
2A37
2B9A
2546
218A
AD71
226C
324C
ACEF
26CB
2CE9
2CE4
3121
A80A
270A
B167
AE3A
2C32
A7CC
2E04
245E
B108
AC66
A8DA
2883
26E8
277C
A7B7
244A
290C
A5D0
2826
A4B2
A473
26A1
24EC
A87A
A4C3
264F
2757
2662
9D9C
2781
27C1
A71C
A643
2889
21C5
2C9F
B166
24CD
AF7F
A9E2
2DE7
ACB9
A8B8
A114
AB77
9CBF
A135
AE20
AFA9
AAE1
A973
AAF4
A63A
AC61
2AC6
2EF4
30F8
2DCE
2566
31B6
9CA2
2D35
20D4
237A
2CC5
9DA4
281A
2503
259C
1E34
25D3
A6C6
247A
28CC
A9D0
29EC
A67F
22A5
24DE
9D8D
2A55
A91D
A485
A6B0
A9EE
2CAB
3041
2E02
2BCF
A96E
2D5E
32EE
2E30
AAB9
A9B6
A645
2CC7
251D
AA15
AA98
2518
22B2
9C9A
A8D7
A742
26B6
2A1F
A890
AC04
28EA
A085
A2F8
A844
9F86
A5F6
2312
A959
22B7
ACA6
B048
ABFC
B294
ABF9
B185
AEDE
A86B
AE28
305B
32A2
2CA2
A8A6
2A80
9F8B
22AA
2CAA
3198
2F51
28C3
AB24
199E
2FE2
27B9
ACB7
AC3A
A29E
30D2
2A95
B090
B1D8
AF66
2C71
ACF5
B1E0
B1FF
AF7B
B3C8
B2C1
B04D
ABC7
285C
AD87
AE13
2673
2D60
305B
2CB8
AAE8
A4BA
30A3
2BE7
AC59
A84D
AD64
02F3
A8D6
2F35
2F34
9D3B
A471
AE79
A9AB
256F
A762
2BDA
AA0E
2F17
17F9
AC75
280E
B09F
3011
2757
8A85
2F1A
2A0A
A7D5
2969
2478
2EBC
A051
2FBC
2BCC
240A
2C36
A675
2C92
A82C
2A03
AAD5
ADB1
AE58
AA82
2DEE
AB3B
B0B9
2925
2B48
AC48
B2EA
B04E
99AA
28AA
AF16
ADF2
AB23
B115
B117
B232
B361
B1A3
AA01
B0BA
A69E
A4EE
23C1
AD06
A64E
2415
AB2E
9214
2AB6
2735
A94D
AA43
2C7A
2DEA
A350
2570
A127
A893
20A9
AC9F
AAFF
AF96
A9BB
2965
2475
2555
1C80
2516
AD01
A140
B020
B025
B0AD
214C
A92A
AFAD
B253
AFA8
B28E
ACF2
B037
A962
B0D0
B43F
B480
B50D
B483
B4E5
B2FD
B26C
B1E7
AA59
2873
2829
27AC
26D0
2C32
2CBA
30E9
3061
31B4
2C14
261D
319F
24D2
2C95
A708
A2ED
29F9
AE10
AC78
B043
A7F6
2E68
281E
25F8
A53A
283B
3175
2B58
2D84
2189
AFAC
212A
A8C0
AD09
B17D
241B
30F3
23B9
AC7D
2816
280F
21DE
2120
297F
2CB6
2EAD
2807
2E22
AC5F
2696
AF39
2345
2C63
2615
26B9
AF71
2AA3
A9AE
2CFD
2C36
A4E0
2517
A65E
2635
ABD7
2373
2A4D
305C
2E1C
2815
2BFC
A6AB
30D6
2C5E
2E22
31C7
2F85
2DF0
2C50
2DF4
2C76
2EF1
287B
22CA
2B8B
28FB
2C3C
2DB2
2C32
2E30
2238
2969
1E36
A8C2
2CA2
A290
2DAA
2C4F
2C6D
2D16
2C94
A32E
A67A
28A7
2954
28C3
A77E
96A4
A79B
AA57
2BA2
A347
A8FC
222B
A7DB
2AA1
15A6
2A1C
27F3
2757
28DD
AA7B
218A
2746
A866
2A68
2B57
2B05
AC7F
AC81
A72B
ADB6
AE84
AE41
AAAC
ADE9
B107
AF97
ABE4
B116
AD4B
953D
AB3A
A99C
AD6E
A1A4
31B3
2E4E
30B5
312B
2FF7
AF82
2A7D
29C1
31B9
30DF
AE21
1C6F
2996
2B3B
ACF5
2E48
A7A8
2D23
2E21
A5B8
2F04
2DFC
2F6D
2C92
2CDE
A03B
313A
2E12
9846
0F3A
2E0B
3269
32EC
306D
ADA9
2D78
2E42
2C12
20D9
B03F
2B0B
239B
2C10
2A75
A2A4
A642
2B6E
A18F
96D9
AB7B
2F11
2E4D
2FCA
2C62
AAC0
2004
2853
21D1
A8E4
1A3B
26AE
9DB8
9BCA
182E
A5E7
25F6
9A6A
22A6
A74C
24D2
28B0
A45A
A5D6
1A83
A1BD
22FC
1E04
20EE
2868
229F
3154
2B2A
26CE
267F
2DD9
AD03
28A8
2E66
2593
2836
B3F9
AD69
ADBC
B1BC
AEB7
B414
AD8B
ADCD
B098
AFAA
B554
B5A9
B528
B501
B1EE
AC2B
B407
B2C1
A751
915E
AEBD
B1F6
AEF5
185B
AD65
A98A
B047
AE87
A167
AC5F
AD42
AC35
AB5F
A006
AF68
ACFC
A663
ADCF
B0FF
B140
23F7
2236
A5AB
995D
A6A7
A5A9
2888
A482
ACC1
AE38
1FB5
25FC
ACD7
AAD1
2E58
223F
2EE9
1DFE
A773
2F67
2731
2B62
A0B7
2D02
2943
182C
27CB
2C5A
A57D
A6D8
2D94
1C73
AB1A
B247
A25D
3046
1B83
AC26
AD7E
A3AF
27DB
B27A
B173
ADCC
A8E9
A589
1A0D
AE63
A67C
AC13
300A
3007
ACF6
AA89
2B07
2CE9
3293
2D42
2E9B
1E91
2872
2DFA
30FC
2D2B
AD2C
B22E
ADB6
ACD5
AD85
AFF2
B158
AE9B
A905
2AED
A3AF
2D0B
A8F2
A401
95DE
2A54
29DF
2C2F
2BB9
244D
2C20
2C34
299A
A2A7
2BDF
2C3A
2D98
2CEA
A5BA
2B10
2CE1
2A15
A702
294C
1867
2D36
2672
2964
2C56
2C71
2802
2CE1
24DD
2DA7
2978
1FBE
A379
272D
262F
24AC
2915
1D24
2962
2CAA
1DC8
2492
2B6E
2C7F
2C87
2CF1
2804
2A77
AEBF
AD39
28B7
A492
2C26
9CFC
28F6
2B32
A9E0
2E4A
ABC2
9C49
27CE
2C66
23EB
AF4F
AAF0
AB6F
2134
2AB7
2AF0
AD64
A848
2FD1
30C2
2571
26C0
2CD8
AE43
A4E6
283F
AF4C
2641
9F20
AB4B
A1DB
A164
2113
2A07
11F0
A9EC
2103
2D04
2C06
1CFA
2F3F
2F98
AC9E
AC51
A2ED
28C1
1B25
A134
2924
2084
A7BB
A9AF
A484
AC44
AA48
A04D
22C9
1E39
A6BE
24B6
23A6
A652
2B19
A4C8
A096
2337
2278
24F3
2170
B1D5
AA1E
ADD9
A849
1C7E
AFE0
B289
B109
B196
AAC6
AD69
AD81
A474
AC7B
2D41
AF24
B2ED
B2FD
AEEE
B0AE
1CE0
AD5D
A1C6
9816
1C66
2CC9
2937
2C65
229B
2CF7
A35D
28F9
24F3
9BBB
AA8C
2E50
9CE4
A05A
AE7F
AEE2
AE87
B10A
2EE3
2EC0
AE1F
B221
B047
A8F9
AC89
AC18
2175
2886
9F25
A157
A4BF
2750
2922
1EE7
971D
A436
202A
25A1
A5B4
2685
2775
28D0
212F
251C
A152
A562
A6BD
A52F
A570
995D
A39F
A8D8
234F
2A3E
A731
2BBD
29F4
A9AA
A977
189E
27C3
ABD2
AA6D
A9C5
AC28
AE54
A941
B0DF
B179
AFE1
A806
324B
2CF1
A901
A2A2
32AF
2C46
29FA
9CC8
9B1C
2573
1CDB
1A09
1D71
22D8
AC09
A30D
97A9
228F
270F
A768
A939
A550
160E
A106
AA18
A189
28A0
0AA7
A11B
A6F3
A8EE
A593
3033
3034
1F88
A5E9
ADDC
AFC2
AD22
2867
1C16
A87C
B097
A60B
3134
2DB0
1CB5
AAC5
22B1
3235
2C67
31A1
32D2
32A3
3224
29A9
2C18
2C9E
0CB8
2D01
2D42
3360
3200
302B
30EA
2DA8
3204
2DAB
2F53
30D8
2B55
3019
A414
2F36
2E35
A70C
AE3F
A9F4
ACEA
ACDB
27D1
2FEA
2ACC
9C10
2CEB
15F6
2D8C
2C30
2C00
2EA2
208A
2DC1
259D
20E8
2DCF
2431
2C2C
A5FC
AE95
2379
ACF9
2CFA
2CE7
2CB7
2CD9
9A28
2C2B
2048
AB26
26FB
2AAC
2D8F
22AD
AB47
2BCF
269E
AC4A
2ABD
2CC1
2906
3090
2496
A258
A89F
A6F5
A430
2ECC
2F72
2852
A735
2F92
9F5B
A7D4
A552
2959
2F96
2A0A
27AF
AC91
A621
2374
AB98
AABF
B081
B2A5
A319
ADE9
2B92
AA02
B04B
2B93
A000
B025
B12E
B41E
29F1
2859
2E08
2569
AC34
A694
2903
1155
AC18
B1AF
AC45
20BE
AD71
1D83
A49E
AF06
94C2
A84D
A2F7
1EA3
B189
A2AA
2E49
2F57
AB18
AED6
AE70
303F
285D
AC0E
AC06
26B1
2DF3
20CE
AE50
AC16
2C95
12E8
A852
ACB8
A059
2967
A8A9
2C01
AAC1
AD92
2E9B
2370
2B0D
2938
2C69
285C
2D1E
AB50
2102
A910
2C46
B125
B3A2
B2A2
20AE
AE32
AEA1
AFF1
B04B
2AC8
978F
AA77
ADEC
B06D
AD4C
B03C
ACCD
A8AA
AE7D
2659
20B3
A84B
ABC1
2791
253F
2DDD
1BF1
A8CD
2C55
2C5B
2BF5
9E11
A0EE
AC98
2A76
A5A0
AC7E
A727
AACA
2512
AB18
B032
AC87
2C5C
2750
98D8
29D5
238A
A526
A507
2709
A919
2217
A66D
AE54
ABF9
2FA5
2CBA
3293
A0BC
267B
A73B
A958
2B83
1F9B
325E
30A0
2C32
2EEE
A34D
24AC
ACC3
AC4E
A442
A476
235F
B041
AC31
B403
A7EA
1452
AF65
AC87
B17A
2E82
22FD
AE27
A802
27A5
22A8
A79D
2FFD
31A5
366D
AC6F
AC76
AD3C
B02D
AD70
ADE8
2D0C
25EE
2004
AC37
AFB4
2E4A
1C35
2ADD
B1C5
AC05
A92D
A730
24AE
AE06
B1BD
B20A
B023
A8DA
AE33
22EA
19F6
A886
2227
A4D8
192B
A347
969D
A982
22E4
A815
A034
247B
AA42
226A
A8C5
2528
9045
23BE
A914
20A5
9EEC
A1C7
9E1F
A89C
2BDC
299C
B2C6
AA50
A562
AC71
A62F
AAF0
A84C
2920
AC31
2B29
AD88
B03C
A926
ACD8
A6AE
AE31
AC7A
B02C
31BB
30CD
2C52
2E1A
278D
1ACD
1C50
29D2
307E
2D1C
A658
A7BF
2988
2C06
A05C
A4AF
24CA
A3C6
2C55
AA3C
1ABE
ABDA
AB30
9650
18D7
99C9
AD8D
AA6A
A6FB
A57A
2EEE
2CD1
3175
30C0
2878
2C6B
2A9E
2D1F
2D5D
2151
245C
A081
26B2
311E
2D17
2D62
16F2
AD2E
3030
24FE
354F
32BE
317A
31DF
2DFB
8086
148C
1F44
246A
1F08
2894
1E37
1AE9
A43D
A886
1D11
A9EA
26BE
2632
A473
AA09
9502
277F
A8A7
A998
A6EC
A6A0
20FC
A692
2ABB
2BCB
2808
AA33
AAB3
2E0B
2856
25B7
A359
A4E5
2CA4
3262
2D92
2B17
25C9
2A57
3064
3185
2CE3
2E7F
2DCD
B2CD
9E01
2E3F
2C7F
24D4
2D46
2F94
31CF
3209
3149
2002
2338
2B1B
2C7B
2750
AA8C
2D23
2CC8
2DC9
289D
AE81
A8A3
294D
A53A
ABDF
B11E
AC14
AC7C
AA1A
AE44
2BCB
305A
31B7
30CB
95E7
AA43
21E1
25B4
2B1D
A89F
ADF7
AD58
B0B8
AC71
2D0B
29AA
29DD
A5D6
AE33
2DAA
3226
2DC1
2EDB
2CA2
8E3A
AC73
A87B
2CC5
AC05
B007
A1EC
206D
2363
2CA1
2E2A
29B6
26E1
2E92
3027
2B51
260B
A459
9B2B
2F74
2D1B
AF1D
A5D2
235C
14D8
28EB
2BA1
30DF
2F85
947F
A9DF
2AC1
2D0F
1D8E
2C8F
2DEE
2FDA
2C1E
2774
A327
2F5F
30E4
2E61
22C5
2B72
3193
AF4B
28AA
318E
31E7
329C
A1A0
A54C
B1F9
AF2F
AF7D
AE07
B019
B07C
A88E
A5FC
AED5
B421
AAFB
B031
ADE1
28F7
B075
AF1E
B32D
B1C9
2355
B087
AD9D
B27D
B356
27DD
2B6E
2406
2B20
2194
1C15
94C8
2438
A25C
2992
252D
9BA1
9C62
A41D
2634
2942
29F4
A58F
2A08
22CC
A256
A2D6
2AAD
9976
2CAC
A86B
3366
2FE5
2925
A97F
B279
2FE1
A642
8E9A
A707
2C3D
3273
2AE3
286B
283C
A879
2B2C
2624
25C9
A899
1E67
28D5
A0C5
B044
B381
222A
2324
A440
AD44
AF39
273F
AB39
2B3D
B036
B319
2823
AF31
A23C
B111
B0CC
2117
AF19
A4F0
AD4A
A638
2C49
A80D
AAF2
2CA0
3172
21B1
A8D2
23B0
1B0D
2206
17F3
A851
27D2
A141
26D3
9FA1
A431
A0B5
2346
268A
2184
A10B
26ED
2918
29DC
A0D4
1EE0
2904
2221
A5B7
3236
29B2
28CD
2A25
26EA
A8B2
9C7D
294C
AD7F
2A5E
AD75
AE6D
B10A
A1F9
25A2
AF9D
AE59
B0A2
AF23
AD36
A873
AD4B
AF44
ADDE
B189
A0B8
A478
A389
2091
2507
2453
A671
1C4F
A318
24F3
240F
A79E
A00B
9AED
20C0
22AD
28CA
25D2
A14D
A523
20CB
26DC
27EF
AB4E
20C2
22ED
2029
A658
2360
A7A1
A2DA
A5E3
1F3B
28B9
98F0
2853
1999
A681
A65F
A87B
9DFF
A584
9BE3
2045
2405
9E51
A0DB
252A
28A2
A449
A656
A641
AB57
9E88
AC28
A898
A9C8
A953
A913
A7AC
2431
AB96
2466
9885
A695
A1D3
27BE
1963
1DAC
A137
AA4F
A720
ADD0
AC83
A3AE
26F9
2003
26E7
A7EC
2413
A58E
2178
2674
2534
25C1
1E1B
2689
1CEE
26D6
2365
A891
A6E7
A04B
A3A9
A8A8
A76A
A207
A552
A6B7
A772
A8A4
A9EE
A7A5
A48F
AC17
A726
A1A4
283B
2192
205D
A73E
202F
A2D2
A644
A9A7
A029
AC3F
A84F
ABF9
ABE3
AD0E
A78D
AAA8
A911
A89A
A326
2025
286B
9C03
205E
A041
A9CB
A664
A881
21B1
2272
18D4
A6C8
AA61
9D72
2633
A6B0
AC43
27D3
296B
20CD
1C49
ACF0
A3C8
A991
A20E
A9D7
A515
9FF9
AA6E
AB02
948E
A4E8
AA82
A9C7
A622
A994
A4B3
9E6B
AB09
A5E3
AB72
A25F
AB7B
AB13
A8B4
AC4B
A814
A988
AB98
AAD2
A700
A9D8
AA9E
A968
A985
AA1E
A9AF
9ABB
A855
A945
A250
19DF
2067
A975
A890
AC98
2527
A471
9F66
2789
ABF6
A89E
AB9A
A3B5
A53F
A88D
A4FE
249E
A37E
24AC
AC70
AC1D
A96D
9998
250C
A8E5
AAE5
2578
0DA7
9A27
A916
9DF0
A8DB
A5B8
214D
A058
2751
A24B
A950
2049
2932
A59E
AC18
1B75
A742
A570
25B6
A566
A8F6
25A9
9C9B
98ED
A32B
9205
9D9B
A95C
A594
A61F
9D42
A31A
A831
A11D
A8BE
AB7F
9023
AB1C
A616
AAEC
A93C
A91F
97D9
A5E4
A56F
A029
AC4E
A821
AC65
9C2D
A9E4
AB11
AC51
A60D
AB85
AA05
A7B6
A84E
AC8C
A358
A5D3
284C
A911
A926
A5A5
91CF
213C
A064
A894
A9F2
A6A9
9F5B
A488
A55B
A76B
AC66
A2A8
A0AD
A459
A5C5
AB03
A1F3
A5F9
AA91
AC4D
ACBA
A900
A748
A736
A3C7
A7CF
A868
9F68
20FD
A2EE
ACEE
AA2D
AC51
AC96
AD9E
AD5B
9F6F
A6C7
A70B
AC3E
A580
A345
AAFF
A608
AAD6
9AFE
A1F6
1546
A6CB
A603
9603
A658
9FD8
A64F
A4EC
AC83
A813
9E4F
A495
AAD6
A8B1
AC07
A6BE
ABF9
9B9A
A419
ACDB
A4DD
AA51
A943
A41E
AB2D
2115
A518
AC74
AC77
A747
AD0E
A88B
A4CF
A949
AC26
2152
9B59
A88D
2738
24A8
9CC0
A20B
A711
ABA7
AACC
AB24
A7E4
AC14
AC22
A8BA
A665
23CA
9FDD
219C
A89C
AA4B
1C6B
A313
21DA
9EC0
A564
A3D2
1D50
209D
A882
A9B4
1E7A
1CB2
2055
A76E
2418
9525
A7A7
1A3F
A65E
A297
2205
9A2D
1C46
266E
A36E
A1EE
2194
A4FA
26F9
A77F
1C71
24F6
A7CE
25DF
1E57
2337
A3B7
A8CF
9892
A708
25A2
A973
A342
AB6A
ABBF
ABCD
A77F
A130
AA6F
A990
A7C6
A6DC
ACFC
95A6
A9EF
AA0D
1E45
AA06
A92F
A953
231C
9CB7
9E0E
9AF3
A24C
A990
ACA8
AB43
997E
A90E
A3CB
AAEE
A539
AA93
A72F
A6BD
A42B
A9DD
A901
2544
A85E
AAD9
A997
AC83
29B4
1C13
1F6D
A215
AC49
A427
A495
A9BF
AC74
243D
A95C
A248
A935
A61B
A452
9E96
2B3F
266C
AA04
AA4F
A87F
2518
AA87
20BF
A081
A595
A6A7
A671
ABD5
A2DB
AC32
AC15
ACEA
A4B2
1735
2585
2321
A4D6
2632
275B
A4CC
1924
A486
A881
A7EE
A415
A486
28B8
A5FF
262E
19C9
A442
2807
9FC3
243F
2127
A29C
A525
A1E2
1E4B
2388
253A
280E
1835
223B
2224
1576
A206
14F2
A0A9
990E
9F18
A4EC
2297
207D
A761
A487
9B48
A6BB
892D
A29C
A99A
A0C8
A2AD
A9A0
1A75
A84C
A019
23AB
AA91
A156
A451
2914
2889
A500
1D64
9DB4
28AA
A216
2960
A94E
A21B
A672
1EE9
2524
A86E
AA07
A782
2119
A8FF
A96C
A8FC
A918
A40E
AC1F
A78C
9B4A
AA17
A8E5
A825
97FB
A757
A102
A829
A1AE
A817
A928
A5E3
A052
ABBD
A4F2
A834
AAA8
A924
1BF6
A659
A86C
99D6
217F
A9BE
9EB7
A705
AA9D
A91F
A5EB
A907
9EA5
9EC6
A3DC
AA5C
19AA
AB05
AA09
A9FC
ABC1
AA9B
A15F
A412
AAC6
A82E
2098
24E7
A6AC
0B4F
A5F4
A7E2
ACE5
A57D
A6C5
98BE
1D66
2551
2B99
A403
A09A
1D1E
A87B
A9FA
A15A
AA7B
A979
AC42
AA47
A00F
AA4A
A20B
A4F9
A84A
9FC0
A553
A7ED
A6C6
A95F
AB3C
A89B
A44F
A121
A477
AAA4
AADA
A084
19BF
A8D5
A9A9
A419
AC38
AA28
9D67
ABCA
8DCD
A29C
22C4
9640
A5C6
A3F9
A535
A6D8
A2B7
A5E3
A50C
A662
A6F3
10DC
0E7D
A5DA
1927
A0A7
9E56
A91C
A87E
219B
A703
19AB
2218
A342
2888
A2AF
9A67
246A
A749
A44F
208A
A8FB
2421
22A3
A7F9
A64A
1920
2359
1BD0
9C02
9D06
A50E
2096
209A
2790
299F
2420
A645
AC16
AC4F
A814
A980
A0D5
AB77
AC5E
AD10
AD0A
AB2E
ABA3
AA60
AA03
A9EF
9FB1
A0E6
A971
1CB2
A64C
A044
A377
AC41
AB61
AB2F
A601
25E5
A1E6
A579
A4CF
2660
2671
8A4B
92D3
A6D7
9645
221F
A594
A217
2831
269C
2634
A924
A877
2738
182B
9D8B
A89B
225A
A3B3
A314
AA85
2212
A395
A58C
A5E5
A481
A036
2182
9F6F
A93F
A9CE
A0EE
AA1E
A680
AA65
AC25
A0C7
A774
AA21
9D8B
9FDC
AAF8
ACB9
AC4E
AA08
ABA7
A1DE
2CBF
A9C7
2465
2934
A8FB
2DBB
A9D4
AC7C
298F
2EA7
AB08
051D
A0BB
282E
260C
AC4A
2BE1
A95E
A806
A497
2605
A44B
287D
18F4
2596
2078
98CC
25B9
A2C4
A633
20FA
A6AF
27A6
24EE
2502
288F
268E
A6C0
A5D4
1E8E
A62D
2428
21C0
A446
2132
A6B1
A760
A0F7
2CD7
2818
2F6C
2DFA
2DC7
2C3B
2963
2DCA
2666
28C9
285D
2BA8
2A8C
9BE4
AD6C
A9AD
19C6
211B
9F9E
B0A5
A9BC
AC81
2965
26FC
B1E7
AC64
A849
9E81
29F4
2964
A61F
A874
2946
A65E
A4D2
1559
A833
A976
A76F
A066
0496
8F18
22EB
9EC3
242F
24B2
935B
A036
1E7C
2981
2CEB
3029
2C7D
2EF8
26F9
2B7C
2C5A
2DC0
321F
2F44
AFBC
AAF3
2E57
2F1C
A7C7
AA9D
AEF0
18D2
AB0F
B327
ACD2
B1D8
B016
B131
B299
A897
2BA2
2F13
2D2A
AB3D
2F64
2F99
308E
2FDE
2885
3248
289F
2F8F
9D16
2438
3022
30A7
2F5A
2E22
A4CB
2DB8
2EC4
306A
3033
AE18
B09A
25B7
A35C
B018
B420
27F3
2C81
2E1B
2E23
ADB8
2BA6
29D4
A9DC
2899
A921
2D13
AB85
B0B3
AC96
B033
338F
1C76
A655
A835
ABAF
22DB
2C38
2B5B
A8D2
AC25
A1E4
2F07
2689
27F3
278C
AC60
9EF2
A315
2C9A
2474
223E
91E4
A352
3075
2A97
249F
2D4C
2DFF
2ED9
9EB5
2BDD
A0C2
2AFC
25A7
2652
29DC
2CCD
2724
01F7
28C2
2B14
98D3
28EC
AA8E
A765
2815
A619
255A
28BD
2CA4
2362
2A57
275B
2643
2D5C
254F
2839
AD0F
A81D
AC82
8182
2AB6
2164
25E1
B139
B23D
AD88
2908
A8E2
B3BB
B048
AE51
2180
AE67
B414
AC80
B179
ADDD
AAA7
AE18
2C44
A9AB
AC31
92BE
A8F7
A0A7
AEDA
2994
A083
20EC
2D0D
29D6
202C
8E60
18CB
246C
253C
2AF9
26C3
A68A
3024
AB9C
AACE
A834
AA78
2796
A68A
9E08
A786
A64B
2F6B
ABFA
A9EA
AF05
24A1
308F
2871
A6C9
2A75
2B72
2E09
A158
AF64
267A
2C99
29F8
A4FB
AFDC
9F0A
B11B
2A8B
282A
A0B5
2C28
1AFF
A069
AC76
2271
291D
2C01
AAB5
AA09
2A42
24ED
1CBA
B0A0
AB5F
A40B
0AA7
285E
A893
2ABD
292D
2533
268F
2854
AD83
AE36
AE81
AB6E
2A78
9C74
AC3C
A374
2BF2
2CFD
1EA6
AD49
AD26
AB9A
2E97
2ABE
A1D0
AEA8
AA4D
A109
1C00
9FEB
310F
2C7C
2B71
1BF6
90AD
2D90
A920
25B6
A4FF
A68C
AB8F
ADEE
A3F7
AC26
ADE9
20F0
ABE6
2827
A763
2922
A1D0
A971
A9F9
ACB7
AEF5
2D15
ADF7
32EE
2A36
2D88
21BD
285F
2FE8
28CA
260F
AB63
A5BC
A485
AD64
AF14
AFFB
A849
2C63
B106
B235
B2A9
A72F
3223
2916
2C8F
207A
2DD5
97F3
2016
14B8
2855
25AF
2AF0
28EB
24FB
2D51
2D19
2BA1
1DA5
2AB0
2562
28A7
27C5
2A7C
28D5
2BFE
2CBA
28EA
122D
27BD
2240
2346
AC6A
2405
AE0C
2532
09E6
A433
2C58
A2D5
28F4
2AA5
B080
A1AA
1D93
A3E7
260B
AAA4
AB67
A6C8
A8C3
AA80
2258
25B7
A2E9
A9E9
1E5F
2E8F
27A8
2A62
2107
25C1
2B4E
20AF
292B
2716
2EDF
A9AF
2C25
2CBF
299E
2F9C
AAD0
241F
A0C7
A9D1
9CE7
AE37
28C1
A2DF
28B3
A58F
AE99
A9F9
27F5
2498
29BD
A587
A91E
2C8D
2DA0
2DBD
B0B8
AFA6
25EB
A406
316A
AD1A
A9F3
A083
A97B
2B66
B453
B1AE
AE48
AF2D
B1FB
24DC
228D
248F
2448
A521
253A
A25A
80C9
27AD
28F8
A473
9B64
AB5D
2792
250F
1E6E
205F
2880
A2D2
26E3
A511
2610
270F
1D10
A7B5
B135
2C10
2E36
30FF
A609
A37D
2C34
1E62
2C5B
2A08
2FD3
1C97
19A3
A8EA
A99A
30FA
24D6
2A57
2CB1
2B52
3044
2893
20F9
AC37
2A81
2C18
2B00
2CA4
A6C2
2B02
29C6
A81E
AD71
A926
2C6A
2CAB
247B
A2CA
A4B9
2E8C
28CA
2D7F
2B29
2CBD
2C66
265B
2224
9E7D
AA13
2875
261E
27CB
A521
3008
2D75
2882
2595
28C1
2673
2C15
2013
AC12
28D7
2C14
16F2
25CF
A60B
0BAB
2D46
1408
A675
27EE
A4BE
AC03
AAE9
AF28
A45C
2F3D
2D20
AD72
B0E1
B04A
AA72
2B1D
A55B
AB04
A4BC
AC73
ADAF
B0AA
B09E
A75C
ACE5
AD36
A85D
2804
94F3
9E81
241D
2864
2B1B
2CC9
AA19
2D1C
259E
AB93
2557
2E05
AF90
B077
2970
AA30
232C
A987
AF64
2BFF
AAED
AA53
2C45
2796
B0D0
B2C5
AE5F
AF5F
AC21
2A6C
2A34
2CB6
2B07
30DF
28C2
2C9B
3058
2F16
3018
2B58
311C
30DD
30F9
30CC
1F9C
2BB1
2905
2D2F
280D
29A8
2CDF
2AFD
2D08
2D7A
A8B8
9C5E
A6DC
A370
94EC
A5F1
A3A4
2D2F
1C00
0C86
A63A
A8A5
2A04
24B9
2052
263D
A8F6
2997
2723
A5FE
AA5E
1F6B
AABD
AC57
AC02
3080
2863
A825
2A97
3340
280F
A60A
A440
20FD
28CC
AD26
AC66
AD2B
AC18
A641
2109
B00F
A10D
AD39
9B3F
A9FE
92BA
ACC7
AA5B
AC58
AE1A
AF94
A8CE
9D9A
AB7C
A43D
2AFD
2D81
28D9
1730
A10D
25FC
2DD4
2B66
2844
A5E9
A100
2493
2DB7
9D63
AC45
9EFE
25ED
2268
27A4
99B2
1CEE
2D0F
2D2D
2633
2597
A64E
287F
10AD
2B42
2B03
11E8
A497
26A2
2933
2A7A
A59D
A693
24A6
A85E
28A2
297E
A5B6
A854
2AC5
ACC1
2458
A7E4
A905
AFBA
225E
2EE7
2DEA
3059
2EA3
AA7D
2E86
2F2D
30E3
2F2F
26AD
ACD4
AC39
A6AF
AAE8
AB04
AA05
A070
1C3B
AA6C
A2DE
A415
2914
2C25
2F7E
2D93
A8AB
AB8E
2894
2BB5
276D
2870
2910
2C67
A888
2D07
2EB9
2D50
B19C
B00C
3174
30E2
AC3B
AD67
ADB3
A10F
24FE
25B0
9C9D
A50C
27F9
2537
280A
9D3F
A409
9A92
1D0E
A41D
2710
26BA
2503
226A
A06A
2690
289C
A809
A428
A0BF
1D5D
29E2
B2DE
B3CA
B0DD
B11B
B31B
AA59
AADE
B221
A872
294C
A819
B0C9
A3F2
27C0
A6A5
B06A
AB07
1669
AC35
AEA1
ACFF
2984
2860
A6F9
B04C
28F3
27AB
2C07
2C39
A856
23E7
2495
A652
A7FB
A7B0
9E8F
A337
A127
A851
A81E
1185
260D
A417
2BAB
2370
2854
2515
2C65
25F8
247B
2F26
2E8F
2E6C
2CF2
3010
2C80
2E4D
3194
30DF
2E56
9C96
225F
2D0A
1DD5
A50D
B17A
A9DF
2352
AA11
B17E
A6C5
A801
AFD6
AE30
AF7D
1A8C
2C47
2125
290E
2C38
B201
A512
28E1
2BC9
AB77
B282
24DA
2927
2C4B
2B60
ADFD
AC93
AAE4
A53A
A9BE
30CF
2D81
2E01
2C16
2DE8
3108
305C
2DB5
2B44
A541
248E
2900
2BA9
2F41
286F
A90F
A92F
278B
25AF
2AF1
ADD1
A99A
A8B4
134F
28F4
242D
AAC5
AA1A
A8A2
2D2D
2CD9
A748
AD19
2061
A034
232C
9838
2380
2155
A253
A988
B00C
AE2B
14E1
A14E
B418
B02E
AEBD
AF9D
99E0
AC03
260C
2919
AC74
AC69
AB9C
AE70
3042
2B29
3004
B306
B3EF
1672
AD5C
2814
AEEE
B138
28C6
AC96
2C95
B3E0
21BB
2CA9
ADEC
AADE
B0E8
2FA9
2EE5
21D8
3085
284E
2A22
2A8D
2EC2
A426
A942
2C3E
29D4
2E2C
25C7
26C4
9784
B08B
28D1
310C
2F9F
AB31
1D3B
26BF
31AD
A597
A4BA
2802
9A69
238B
2DCF
289A
1C01
2E91
31EF
AB54
A6A9
A75F
28BC
315F
279A
A3C8
2629
AA7E
2837
A5EB
A4EE
B1CE
AEA4
1527
2EA6
A8FA
B01D
2899
AD54
AED2
272B
2AF6
304A
2FBF
AC1D
AC87
AA76
22B8
25D0
2CE2
AABB
ADC1
2056
2D18
1DD4
A906
2D5E
1C34
2FC6
26E9
30D3
2EB7
26C5
32C7
B4F9
AC47
28CC
AA66
A729
B119
2328
AC2E
AEC4
AF26
B24C
A6A9
A77D
AD4F
22FB
AE6D
927B
285A
2C53
2828
ABF2
1CF8
2A38
2D03
25A0
31F0
3197
2F19
A68F
A27E
2F06
A503
2C38
2621
2E57
209D
24F2
A6CA
2C0E
2BD9
ADE2
23CF
A687
A548
2CEA
9DC9
AA98
A514
B20F
A6F2
B085
A73E
2586
30A0
32FE
ABBF
2401
24FA
30C2
3348
ABBF
2D8C
2597
2C90
2CD8
AC90
2CFB
2B61
A4A7
B1A5
26B2
9834
A87E
AEA1
B45F
B083
AB69
ADD4
B007
B01C
AC58
2A87
2CCA
2A2B
AC19
A955
315C
3236
2C26
A9E1
AC7A
317D
3115
AAF4
B004
B10F
292B
ADAA
AD69
B05C
1780
A107
A180
25B6
2296
A17C
9D3B
9C70
1E11
2499
A6C6
A2E5
A8F5
A9CF
9C06
2616
A4BC
A199
1FDE
A808
A206
1C68
28FB
A94C
A920
A0EC
9DA4
27F5
A9DC
2BBB
3135
24CA
AADB
AA80
9FBE
AACE
A0EA
254B
2CEE
A516
B4C3
B0EB
A07F
30CD
27BE
B438
AD83
AB27
9A73
2B3C
30C2
29AC
AA18
A9C2
2794
3138
315B
A3AE
A57B
2EAE
272F
2DD1
A805
B0B7
A011
A00F
2F76
289F
2F37
ACBA
AE91
AADA
2C6F
3059
1EE0
3162
2F4E
ABD4
1C49
9C55
28C2
2112
AACD
96B3
A2FF
AC11
2863
ACFD
AC4D
B226
B451
ACC2
25D9
A773
ACC1
B22B
ABE1
B1F7
B433
AE33
25A7
A69A
9C86
A72A
A5F3
AA86
A71C
2996
8E0C
A44B
28BD
2459
A057
A03D
2009
24F5
2449
9B08
27E8
1DA0
9F1B
219C
2954
9F22
246E
A3C7
274C
2E86
31DE
2C05
B211
2C03
322D
31C2
A494
B0A5
ADCA
A642
AE13
B172
2331
1EBB
2361
A8B0
A358
326A
28C9
94F6
2D01
1A67
AD3B
266F
21C9
AA2E
1C61
ABD0
A7B0
16B0
B008
AE49
B002
AC47
A2C6
AFA1
AD51
A82D
274D
30A0
2DC9
A8F6
2C1E
32B1
3424
346E
2CF4
3172
2EC1
2CA7
2C9F
1577
2A16
2B06
3125
2E20
A3B3
2B85
A188
2E3B
316A
A45C
A90D
A9D7
2BD2
30F5
2A1D
A584
ACB0
25ED
29A8
3059
2DF7
2135
AC56
2D3A
2015
2C7F
299C
28EE
2BAB
2CFF
2A8B
2D4E
2D3F
307C
94B2
AF8C
A144
2D46
298F
208A
B0F8
AFDA
2766
2E0C
2C78
1ACF
2BA3
98F6
9C41
A8A5
2C36
3006
21D5
2F15
2D74
2B3F
A8C0
B197
B0C5
2D98
B146
B42E
AFFB
B192
B3B1
B022
B001
B02C
B191
B0A1
A69F
A608
A7D9
ABE7
A9B6
2D88
A6D9
ADC7
ABAC
A11B
B10E
AF4F
AC5F
A976
AF9F
B3F7
AFC5
AC39
ACA4
B039
B1CD
AB51
AC00
AC63
2238
AD01
9EF3
AA92
ABA5
2713
A875
A0C0
AB0D
ABA8
2438
A07C
A947
A69D
A836
1FDC
AC63
2034
AAD7
AAD8
2859
A8B2
A811
A6EB
AAB7
A885
28B3
21D7
2E4E
329B
3155
269F
A195
B298
2BC4
3267
A4A5
AAB1
AE7D
301F
30B9
2CEB
A5AF
B0B1
2FD7
3238
ABF0
B21C
AD8F
2834
2D38
AAC4
AA90
A08A
A510
3121
B155
AB55
1922
28B9
2D64
AD5C
2DD6
1355
A806
A08F
AF29
2C65
29D1
A95F
B13D
9CF0
A6F0
A878
AD21
B4B8
9EE3
29E8
9EB3
25C0
9B8C
2302
1D4D
291C
2580
29F8
AA98
2420
8FD1
A8D7
AC29
A4A8
2874
A57D
A8BE
9F99
9F03
9C27
2617
A907
26F6
9310
A880
3086
3027
9EB2
A5D6
ABE2
A86B
2DA3
B23D
2ED1
2563
280D
2D03
AAA9
25C7
2D77
22CE
A90E
A803
A9BD
2ADC
ACEC
ACBC
2880
2C71
3069
2B09
3150
2C21
A11F
B2E7
A8FA
A529
2D06
2161
ACD6
B07A
AE36
2E89
316E
ADC3
AE72
AC7C
AD6A
A66C
B2F5
B390
AE1C
AFB3
227B
A2B5
2604
2768
2809
2822
24D6
A72B
2884
259A
A8F5
A67F
1F26
199A
1F9F
A360
A32A
A357
20AD
2820
272A
2236
962A
1F0D
A6E3
A55E
A75F
2830
A9A9
9CEA
2F26
31A3
2C80
2CEE
2781
ACBE
2C5E
2D6F
2F9C
2E02
ADA4
2C18
2CD8
3094
2A74
B126
AD0B
24ED
ACA0
AE16
A7B8
A10C
A586
9E62
9938
A8C5
2591
19FA
1C9C
21D5
2278
A5E9
2445
25E4
2501
9D0E
256D
2836
21AD
28F1
A6EF
198D
A8E5
A4E3
9D92
B1D7
AE34
ADAE
A9C5
9416
AC1D
14EC
248E
2C4D
2C26
B134
AF2A
A511
2E08
2EE9
A0AF
ACE9
A9A9
AE44
28BF
2D22
2DF7
2BC9
2DFA
2063
1C21
AC20
A8FE
2F89
2F99
AF17
AD15
A039
3013
2F5E
AEAB
AE63
3018
327F
2FE6
286D
AF6B
300E
2CBC
2C2A
2E17
9C36
2CC3
310A
3050
3036
316B
2E9B
3095
3191
2EC6
2986
ADCA
2627
32BC
AED7
A9BE
3061
2A01
28CF
B12B
27AB
3293
33E3
A982
AED8
B246
2B94
3024
2DC6
2BB1
2D63
31B2
2CBF
905C
B1D4
2995
319A
27BB
AB79
9E95
2824
AD38
ACF6
AB0C
2E20
A5AC
2AB0
A4AE
B080
2BD0
ACBD
AE83
A886
290C
341D
B155
B324
B093
ADE9
2C2E
B029
B2A7
B220
2862
224F
A25A
AF63
A569
243B
2BB8
28FC
29A1
2D77
294B
2FB9
2C91
2E32
2C89
ABEF
AD3E
9E19
260F
2BFC
316B
2DAC
AB34
ABF1
A8D2
2964
A2A6
2362
2AC1
1D91
2999
B398
B325
A6D5
2DF4
2A83
A43F
B35A
B1CF
2359
2CE8
ADED
AE06
A5A0
A458
AFF9
A95C
ADB4
2DAD
AA01
B16A
ACF8
B00B
2AE0
AC7A
B391
A476
B109
2CC3
19A5
B2BB
A141
A37D
2673
2939
B63D
2FAD
2680
A05D
2CA2
A958
27C0
2C64
3110
2807
B038
B0B6
A0C0
207E
AEB4
2665
B492
B248
ADBC
A061
A1F3
B58E
B249
ABA1
A481
AFD5
2C09
A4F5
ADCB
B324
B248
3484
2F6D
273F
AC8E
ABD1
2F39
2C12
2D00
2C28
2D3C
A94E
AA23
25B1
2DA8
A819
B018
B1B8
B15A
A061
B185
2C16
28B9
2E45
A683
AACE
AF58
A446
3050
A599
A90B
B080
A59E
2AD1
A71F
A216
B289
B250
2ABC
2834
B010
B132
2603
3296
259E
B107
29C6
AB4D
1F1F
29F9
AAAD
AF98
1F5E
A341
98DB
B1D3
B320
AD2C
2F83
26B8
AD3D
B4B1
AEDE
AE85
B1B4
B586
A94D
2D5D
AAEA
AFFA
B458
A39F
B1CA
AD11
B01D
2855
2A1E
AE39
B06A
B0BC
A961
2FB7
25A0
A542
A9B2
ADA4
2C6C
2F92
2DB1
2D17
251E
A5B7
A713
A81F
2DBA
289E
1F0B
A699
1F38
A284
A3D6
248E
20BD
1809
AA93
A11F
9813
282C
A306
289F
A793
2A88
2241
208A
2ADD
A3E6
27D9
A37D
204E
96EF
24AB
AE09
1C54
2483
2CAC
276F
A636
28F9
2D25
2DBA
2E45
25E0
2DB1
2C35
2D27
2436
AED9
AD37
A593
206E
2D34
B0E3
B228
AD3E
B067
2846
217A
30B8
A13A
B031
A947
2F88
3084
A067
9055
AFEE
30BC
A863
2559
2C7F
A6A2
ACE2
AF4F
ADA8
2384
A883
AFC9
AFDF
B089
A20B
2E02
A9B1
2F02
2E16
1B26
2EE8
A953
A920
A6F6
AC92
2080
2B77
ADCF
B03F
ABA2
A4A9
2D69
B066
B119
AE3A
AADE
2EB9
2CFE
AD5C
B008
26B0
2471
2865
1DAC
243E
A713
A41B
A83C
24D5
2157
2520
2336
A8BC
A05E
0DB8
26D5
22AA
A41C
A697
A8E2
A123
A32C
1CE6
A822
A20A
A8B0
2766
222E
ACA0
2BE8
301D
2874
AA6B
AF0D
2285
2AC0
24BA
2D58
2EDE
A4A3
21CE
2DF0
AD22
A50B
2889
1846
3155
B127
AC0F
2DF3
2CA7
AFB2
B01A
A686
25BB
AC83
20CE
AB75
233C
2449
A924
2E6B
AAEE
AEA1
0432
9AED
3031
2E37
28DB
2856
29AC
30AA
2EBE
2D0D
2C68
2BB3
2E2F
30BD
2A9D
AA42
AA3F
AA85
2B3F
A7E9
209C
21A1
B346
A877
A1DB
AC6C
306F
B0CA
B017
A5E1
9C31
2A1B
AE0E
23A4
AB79
AD54
ACA2
ABE9
22D8
2C75
21D5
2F46
264D
AE1B
9FF6
A97C
3075
A9E0
AD0B
2B5B
2F3A
111D
2CE1
280C
32BC
318C
27BF
2471
276F
A0EE
2590
2FAC
3091
A93A
225C
2F6E
3134
28CA
A627
2DD7
2E10
AB68
27E3
2DD9
306F
282C
A18B
3073
ABD8
2165
AA8D
B02F
2BE0
2E25
2DEE
33EE
3341
2BB4
2DE1
2E90
238F
AC00
A447
9535
A2CF
A356
ACD6
A477
2696
2375
2AEA
2DB4
A609
1C57
1DA0
30B6
2C8D
AEC9
A476
2C8B
2E6B
2F21
A791
222D
1DA2
2154
1516
A8AC
9210
A62D
A951
29DA
A886
1DA4
AB3B
0EEE
9DDB
A8F0
25C7
AB4D
2A32
A875
993B
A8A7
A881
2A2C
2CE6
AF43
B00B
AD63
2BE2
2D47
A89A
B013
AB83
2A34
A8E1
305F
B11E
A49D
A9A3
2EA0
2DF4
23CD
327E
311C
2B73
312B
2CD3
32EE
3450
2F6E
3448
30FF
ACFE
292C
2343
3087
2B33
288A
274F
2AFC
AAD0
A892
2823
2B26
A92F
B024
ACE9
A568
ACCD
B0EE
AC36
AD9D
B0BC
A890
AEA9
A473
2556
254C
9CE0
2BC0
853E
9C6A
A51E
A57D
A858
2427
2404
A835
2798
22E5
264B
267B
2735
28E5
A262
2664
24E7
1FD4
A7E6
A373
A925
2F60
25A0
2CEB
210C
290F
25D6
2E7F
AB32
28F1
1520
2CFD
B0F2
AEE2
A3B5
AC9A
B239
AF7B
33A8
2BC2
28F5
B00F
A5A4
A831
ACA1
