A29B
A60B
A51F
A4FE
2908
A352
2345
2BA8
2FAC
B202
9EC2
A1A2
30D7
9EF7
A074
B41D
A72B
9E74
2BA1
28F7
20B6
A632
342D
AACF
2704
AAF3
A815
A46E
2F71
261E
2454
A91F
3001
A56D
A2DC
32C1
95BC
2E84
2512
3498
28CA
32B2
2BF0
1DA2
220B
A943
25E3
22F7
B035
308C
A759
31AB
2BCC
A42C
AB9A
2C88
248F
302B
2FAE
A9AF
AB04
2ABC
A63F
340B
9BFD
2BCF
2D91
22F7
3396
A864
A4F7
251F
A8E0
2A77
A974
1F5F
B17E
9F94
302F
A4A9
2FD4
B46B
B01B
28A9
25C3
211F
3274
356B
2D2F
30F4
A939
A826
34B2
29FA
A481
A99B
A833
311F
205A
2674
2525
AA7D
AC27
A92C
35D2
249C
A35F
264C
B1F0
32C6
AEDE
3026
28DD
327D
240B
3593
A901
AA07
2D68
A1A2

