2A16
242C
2AB3
254D
2C72
AD33
A875
A6AB
AF60
B26A
AD69
9D9A
ABC2
231D
B1C4
28CB
2901
2832
AC16
A9DA
9C8F
2C52
2974
2AB6
1EAD
2938
2D2B
298E
B42C
AE5F
ADD0
2AA9
AD79
20A9
A94B
ABF4
AA15
A831
2E31
AF7E
28E3
AD2A
AC59
27ED
2865
26FD
224A
26FA
B07D
1899
9A29
B1D9
A706
AE4A
24B6
AB8B
AA08
B342
B0EF
1B4A
2C73
A56D
A631
1CE3
2B99
B049
AF75
2C16
2E31
A957
21B8
ACD1
27EE
28E3
AE6B
A591
AECF
2DF8
AB9F
A258
A638
AD56
2C4D
ACC7
2B4D
2A48
14EE
28F2
2E81
24B4
AA9D
2D0E
ADE7
9F26
2793
AC52
AB22
AF1C
1E4C
AD3F
24E8
A939
ACAF
AD6A
AE8A
AA51
29B8
AED4
ACB2
AA92
AE97
2D2D
1E47
27C2
2975
B0E1
2BF8
A4BA
29AA
A74A
AD9D
A62A
A50F
28E3
2EB5
A52F
A17E
322F
20B5
252B
2D96
218B
2FD3
A8A4
29E1
2C08
AC8D
2615
1930
31D4
27C5
A61F
3012
ABED
A8EA
A65F
272B
2D1E
AB1F
B03E
2ABD
2D36
2C7A
2AAD
A80D
309D
A438
29D6
A49D
AF90
1E39
2412
234B
9764
2D33
2C39
27EF
2BAC
AE65
2205
AC3F
A9DC
AEE4
2341
AB52
331A
2280
2408
A006
254B
2A2D
9F07
9943
A824
9140
B4B7
2C09
2AC3
A41D
AA55
AC0C
A9A9
AD04
A95B
11C2
1ABC
9CC1
22C7
241F
AAC0
AFC8
2208
29CF
ADD4
2507
A487
AD57
303F
292D
AD4B
AD55
ACB0
B152
AD83
A621
A270
27F1
A5AA
2D65
A996
29F0
A92A
B037
A062
2F02
244B
2DEF
AC82
B18A
2873
2849
3020
27EC
2D74
258F
A6E1
1EA0
AE39
2C98
A6F0
2344
2ADF
A8B4
2362
A75F
2856
AB04
A45B
202E
AF0C
A3E1
260B
3166
AD37
B1B4
B0C9
20F1
2C35
AE3F
A960
A95B
2185
A562
28BB
3244
A7B1
98F7
2299
2564
AEAA
AB4C
AABB
B281
1A6B
2D92
AAE7
2D5F
2D36
27F0
3141
ADC6
A6B2
A816
2AC0
A36D
AA80
2C68
217D
A3F6
AD42
AF3A
2F08
2FBD
A111
AB8C
2FBB
AC7B
AD93
2D87
2C16
94D3
2AB6
2D7A
32C7
2C55
AA57
2560
2EE9
ABC4
29B4
1CE0
2E6D
A8DA
AA50
2D69
AB68
B1D7
2A9C
2D48
22D6
B4D3
A4DE
B4F2
29DD
A608
2ABE
AE12
307C
2FC6
2C30
AC6D
2617
30FB
9AF4
98B9
2038
262E
2779
AC2B
2CE8
A5FA
A9B3
22D5
2D3E
B418
2163
2A55
2614
B01D
22B9
2197
A1A3
AC55
35A0
A178
AB76
2C53
2CD7
244A
AD89
28C7
A359
A556
1FE5
AE13
ACBE
2D9F
AFCC
AF48
2F07
AAF9
A811
B37E
2CCA
B16D
2D01
28C2
A825
B0B1
B475
AAE6
2CFD
2D49
2D30
2F58
2D58
AC87
AC81
A8CF
A011
24A4
AD65
2810
2016
A647
A83A
A0EE
B245
AE0D
AECE
30EF
9D1D
241A
A1B9
1C5F
28A6
A871
A87D
AAC0
A84B
2D20
AFB7
AB57
2FD4
2CFB
2AD7
2D58
2667
2316
2A5D
2DD5
B14D
A759
2FD1
2D18
2FA4
AB3E
A979
3090
A19A
AA86
ABD5
AD1A
AC79
2950
269B
AAE7
22DF
2851
A974
33DB
AF8A
B036
2C0C
3076
254E
2EF6
304E
B048
AFAF
A770
28ED
2CDA
AF6F
A58B
1DB9
A466
2080
2C28
AA1F
A65F
AB40
ACA7
AB5A
2E29
2863
9C6C
AFDE
2FE6
AEEE
2E49
AE4A
28ED
AF13
AD3D
2E18
2C76
AEF2
2C97
A822
2855
29ED
228E
2C00
260D
20E3
A45D
B2C2
A0C6
283F
2489
27F2
2E31
2AB9
1225
2F1C
2CC6
AB66
30D4
3058
318D
2DD6
ACFB
2158
B262
2C91
25B5
2824
2D11
B069
ADA1
26E7
ABA4
2369
AD58
AE71
2204
26A3
ACF9
B090
31BC
B054
2C97
2C61
28CB
2C51
2779
A8CF
AC33
B03E
2B18
A92A
AEAE
2CFB
A274
B0DA
9BC8
AEBA
284F
28B4
A7AA
2EFF
2B19
268B
A09E
A4F1
2D9D
288A
AB4A
AD14
2C49
A931
A672
2DA4
AA2F
272F
33E3
AC74
238D
AC78
2D1B
2F49
3532
AC25
2128
ABCD
96E7
A908
2EAB
2CCE
A9B6
A883
AC6B
29D8
2985
A938
A7AF
2A70
A382
A68E
9EC1
AD86
A246
2C12
B181
A58A
AE2D
235F
2EE7
B098
26F3
A450
A47E
B1CB
2CEA
AED7
A2CB
334F
AEA2
AE2D
2D02
204D
18ED
2762
A957
2C9F
A6B1
28FE
8581
A94F
2C90
A4CF
B226
AB1F
B00F
AC16
2C9E
2B28
B169
AD3C
A96E
2855
2B5B
ADF5
A827
AA60
A2EF
287B
ADFD
30DB
28C3
284A
A862
A7C3
2CF8
191E
ABAE
ADFE
2D6E
289A
B014
B1D8
A413
1D50
AD24
2968
AB46
A766
AE31
2DC3
2D0A
B114
30C4
A90A
2C3C
AD8F
2B1B
ADDF
2C6B
AFB8
2CCB
2DE0
2978
2D5A
A6F3
B146
B3CD
2DD3
AB97
2C89
AD1B
25C3
9C0A
A572
2CE4
2CE1
AABF
A3F0
AC2B
A934
A9FA
2B1B
A4CF
2CA7
ABD7
2923
B2F2
A097
2B71
2CD2
288F
1F2F
AD85
AF26
247C
A909
AD49
AD5E
29C9
2B83
285F
AD7D
264B
A113
AF66
2D4E
9917
ACCB
A5AA
2B4F
30CB
30C3
AC2D
AC4F
285C
AE32
2D2F
A955
A43C
2474
A932
AAAE
2D68
A8E9
B09D
2C36
AC1B
AF4C
2D24
28AA
ACF0
9EDC
3107
2D6F
296B
2F9F
2AF0
A802
3173
250D
2CE9
AF20
2E6A
B078
B163
A94A
990D
A802
ADAF
B41C
ACAA
2CBD
2AA6
A8CB
25C2
2D6A
2D2F
28B1
A842
26B9
2906
2FDB
2C93
A046
2842
2544
A8DA
2C1A
A81F
AE58
A5DC
2C98
AEAA
27BB
A85C
AE30
A699
B502
B3E4
AEFA
AB0E
9D2C
1C62
B09C
A288
2C70
317B
2DFE
A1AD
A610
ACCF
AA3E
20A8
2D05
27E4
AA76
A949
2E9C
3227
AD1B
AB05
A93A
28A0
A68B
ADF0
A85F
2B50
AD2E
AF0E
2C23
2ABF
AC40
B074
2E1B
2907
284A
A8A1
30F1
219B
1305
295C
AC1E
307D
2D7A
2F7E
AEF7
A39A
B16D
AC41
2E6F
AE14
B070
A901
B016
2141
296E
A771
A471
AF9F
3127
ACE5
2085
2D4C
AE59
B0FF
A994
282F
A037
A310
29A8
2007
ABFD
2126
A90E
AC04
AA4B
2BAC
2A39
B0AC
AF06
A642
1C20
AD08
276D
9522
A527
2251
98FE
2859
A025
99A5
2DB9
AA53
A493
2C4A
AE7D
A3E2
2C49
A0F4
AEA4
AA37
B0DA
A84D
278E
1AE2
2C4C
2C33
28E9
B0D7
ABE2
2540
AFCD
B024
A454
AD5D
A7C2
2887
AB04
B100
ABDC
1ED6
A9E8
A7EB
AA6C
AAE7
A17C
B083
2E2C
A9E8
A12A
ACE4
A40A
2A20
AE22
288F
289A
AE52
2E34
A763
ABAF
A12E
B2B8
B2EE
B0D6
A729
2C88
B2E7
2C10
AEDC
1CD0
A20C
A69E
2A72
A5E1
AD11
AC89
2947
294E
ACBC
2158
A98B
AC5A
28D6
2464
AC53
AC85
A1A9
20B8
AC0F
2785
292B
A7C7
ACBF
A8E0
2924
271C
A966
B08A
AA24
A8C9
2748
9E9F
AC83
A8F9
A8D7
2CFD
2760
AFE1
2D01
2D35
2C2A
2D69
A9C9
A201
B070
A764
AD97
ACD9
AA84
B0D8
30D1
ADBC
AC5E
2B86
31B7
1A8A
AB38
23D5
2F4F
AA0F
2933
AE2D
9919
2D81
A9D4
A807
2890
A4C1
240D
2F25
32E2
AC6E
B107
2D6C
9CF1
1816
2CA9
A466
2A5E
2CEC
A365
AB5F
2EB9
2DC5
AC6F
ADF6
AC25
28E8
2C01
ABF1
2BCA
2D7A
9EF1
290C
AD7D
2D20
A85B
251B
2A31
A480
9AE4
2B80
2D45
9DA6
AD9C
AEA6
9E3E
25BC
20D6
AC0D
2798
1D43
9DD2
9547
2971
A844
251F
2D14
A83F
30F8
A5B5
AC2F
27EE
AB90
AED0
24CA
255F
9DCD
2797
28BB
9B3D
A267
2A23
AF6C
30D1
A842
AC9E
218A
3197
A73F
2CF4
AADA
2A75
AB0F
ADEE
1A16
2C09
301B
AC69
2313
A7FC
26D3
21A0
A498
292D
AD02
2C3C
323C
B048
AC8E
9AE3
AC10
29D8
A4D2
2BB4
2854
2DC8
A2CB
3076
A96D
3162
2CB9
A4E9
AC6D
2C94
AC6D
2AE2
AFCE
2ADB
2C4E
A9A3
AC4B
2BA0
A295
284F
A99B
2D26
9818
273A
9CAA
2F3C
AE35
AB53
AC0B
9F9D
A642
A8B1
2B85
28EC
B28F
AEC8
A664
30C1
AD3F
A6C8
26DC
2CB4
AC0C
AD26
3314
2C23
3214
2868
9D3B
2072
3099
8A10
A8C1
B143
AEFB
A6F7
A5C0
ABE9
2A05
AC29
ACA3
9EEC
A9A7
2A79
2DA9
B1E5
2EC9
22A1
A54A
A677
2B1E
2841
2DF5
2841
2F99
2642
2AD1
AD2C
2E3C
AA7F
AD3C
A191
2F61
2A6F
2BF2
AA74
2B3E
3289
22FB
AC3C
AC49
2AE8
32F8
A938
2D75
2F04
B17D
9940
2FFF
AD42
2562
AD87
3293
2402
A342
2B7E
1873
2B2E
ACDD
2F52
A92C
2268
346E
20E2
AE54
2D63
2524
B0B8
AB39
2358
B131
2D60
AA73
AACC
A7BA
B47C
2826
1F87
A8F8
2D27
9A05
AC97
2A73
A903
3164
9D58
2CE1
2D8E
9D65
200D
AAEF
9F6D
AC53
ACF8
B16A
0FE1
30D3
2B90
2D6A
A437
249D
ACE6
A502
2E24
30CA
AFAB
A10D
2C7A
ADB8
A3F4
A3FB
A984
2A95
2E7F
AC10
2659
AF41
2762
26B9
AC29
A3C2
AE7F
AB5C
3071
A9BB
AC29
2ACA
2C28
AFD1
AC34
2C77
ACCC
AE98
AB99
2896
A4E1
A6BB
B096
30E2
8D08
ADD5
2D6F
2EA0
A8E1
A60C
2D67
A71F
3062
2C37
2176
2D74
AAA2
2008
A974
A98A
2CDC
25BE
2AC2
A946
307A
1D99
2A1E
AB1A
2A49
2F4E
A826
8FFF
2CE7
336C
A81A
327D
AB3E
B3C5
3134
A92A
2AD1
9F73
AB04
2649
B136
A91E
2C04
AD3F
B068
B2AA
2C68
AD22
ABEC
A667
217F
A7B1
2B00
1D26
AF1E
AED9
1CC6
1EE7
9990
9CE7
30BF
ABB5
2809
A143
25E0
B07F
A6A7
A774
AF87
A961
24AD
AF10
2BBC
B075
297D
32E7
AC3A
ACBB
AB2E
21EF
266E
A54E
2DA4
A8A7
B1BF
ACEA
22C9
287C
2542
B000
A765
AA57
AD2A
AB57
AC12
9147
AC53
31AB
A936
2446
A995
2A99
2363
2BB5
AF58
A94F
2C2A
A0EC
A09B
24C6
2C8A
AC5C
B24A
2D09
A40F
1C40
A97B
A8AD
192C
AF6E
2A96
ACBC
2781
A0E6
ADF2
2B62
A6BD
29D2
2C8A
A945
A239
AB7E
2474
28C1
2A58
AD1D
A5D7
287D
26E1
A822
B1B0
2C92
2C66
AEB8
AA21
B03B
ABC5
A937
2E91
2B74
2C9E
A0D4
2267
26D6
A2DE
2C23
2386
2552
A4C0
AC84
A9C2
A997
2C2C
AF57
2F12
2F51
2DC9
9576
31DA
2C42
316F
2E87
2D47
A39E
2CD5
2D85
31FF
99C0
B2AA
ADE8
B28C
226D
A14F
24DA
2E42
B1E3
2D1B
9B99
A53E
2915
20C6
A9D8
286D
ADC7
A939
2EDD
AC31
B088
B37C
253E
A8AA
A7A6
1F93
2684
2CDF
AA34
2C66
2BD3
3282
A90C
2BF1
B158
2B6A
1238
280A
2B66
2C20
2718
2C3C
B086
2CBC
2CA2
ADB3
ACF3
B1BD
A962
AB23
AD32
AD41
2C68
AC2A
ACB1
A50F
28D0
3032
A638
B42F
28F6
339F
255D
AD46
AD1D
ACBF
ABC9
2DE3
26D5
A194
ADF4
B4FA
3019
2809
A8CB
AA9C
ADF5
9B34
AC1E
2B90
2C16
30C1
2209
2A91
31B5
9BC7
2DAB
A7A4
AC70
B20D
B01B
28CB
21F0
2B1C
2E0B
A559
2FA9
AF37
2F2F
A48A
A73B
ABBF
A987
A65C
2CD5
A612
95DE
3023
3178
AF62
AD90
2DAF
2C07
2202
2B78
2DCF
A798
A6F9
25D5
AAEA
2B76
AD5C
AF91
AB84
A892
17D4
2C18
2D7A
A913
A853
9F5C
2FC9
A8EF
A97B
28B8
ACAD
AB6E
ABF5
A879
ADF8
2B3D
AE1C
AAE8
AA8B
2827
229E
A6B9
A656
3103
AC64
32BB
3221
3071
AD42
B119
AB2A
312D
2AE8
2CF2
AF1A
ADEF
2960
ACC4
29A7
274C
26FB
2991
AF5C
292A
2511
26A5
2D99
31E1
A868
A1D4
AF67
AA49
2E92
AC7A
21A3
AC30
3087
AEEB
B095
ABD3
A777
B098
2AC4
AC47
21E6
2A97
A82F
A891
28CB
A375
97A7
A7FC
25DB
2937
23D1
A81C
A9A0
A751
2F76
2CF5
1EE1
AC17
2E48
AD28
B1D6
ADB5
2DB1
AA86
A4B4
2DD2
A052
2DC6
AC04
30E6
29D9
AF27
A914
A8FE
B0D3
2754
9F99
AC3C
A82E
AC85
ACF0
A32B
A717
9821
2D1B
AE59
2D4D
2CA3
B16E
2E1B
2FE1
2A8F
A2C0
AE56
AD06
ADAC
A436
A7B5
301C
AC5E
ADC1
2C39
AFE7
2CB3
A542
2A5A
AAB1
274A
2C12
3438
A0D5
AD69
B3FE
2406
2D1D
A87B
2936
A69A
0CD1
AEC8
A97B
3186
2DED
2ACC
2ECA
B031
A940
AE95
3341
AA15
2CD4
2C15
2462
2F8B
2884
2E66
B11D
A876
AC1B
2D31
23D2
A2A0
AAC9
2F40
285D
2998
A72D
2C79
A65A
A65C
AEC3
AECF
2C9F
2833
A931
2111
A689
2EA8
28F5
2EB4
AECB
2C08
A10B
2CAD
A044
2E97
ADF3
AADF
A834
2D38
A5EC
2947
3042
2565
2F4D
A51C
AAB3
A9B5
2C3D
25B0
AC36
2C3E
22AA
2C0F
2A9D
30F2
2ACE
2BA1
ADB9
A960
AC82
2367
2D75
2C9E
2462
A617
149A
A879
A851
1F0C
A46C
28BD
A6B0
2C70
ACDB
31B0
AA1C
2AB6
AF9C
243B
AF98
AB42
2E0B
A56C
2E93
2CAA
9ED7
0B9A
B237
2BFE
2C83
2412
2D70
2338
A09A
32A0
260A
A82A
AB55
A0B6
B018
2924
32ED
2D7A
A07F
2B4B
AE2C
AC2F
AC1C
31C3
AE9E
2CE1
AD35
2B53
21D0
2DB3
18FB
2C42
A979
2CF5
A552
284E
2C90
2D41
2399
B321
31F4
AABA
A887
24C8
29AF
AE14
245E
21E0
A4A6
2DC1
A8BB
AAF5
A921
AD57
3108
2676
B07F
AABC
2431
2650
277C
AA78
B055
A85C
275C
2DA9
ACA3
B048
A524
AD10
A3F2
A4BA
AB48
2A6A
2010
A2EF
A4B7
A028
2A3C
9EF1
AB80
A263
AC9C
296A
240D
A4E0
2552
B168
2BE2
2749
1A01
ADCF
283C
A5C2
AA72
2AD5
A620
2CB4
A89F
9FEE
2787
299E
AA32
AA44
2C90
A2C7
AA0B
A1B8
A830
2A73
A702
AB2D
AE85
1AD6
AF45
A827
2202
91EA
AAF7
2B0E
AD43
A539
AA05
ADFF
2932
A918
ADEE
26DF
2B79
2451
A718
ABA9
20E5
261D
AA0F
AD88
A79F
2008
A186
A4B3
2763
A794
B02B
A7D0
AD36
AF54
B08F
26E5
AB60
24F3
9C61
AA4C
AFE7
A4D8
ADB2
20DA
A2F7
2165
AA20
2907
2DC1
96D6
B0AF
2A99
2BA9
2CA5
2C78
AFF9
AA2B
AD08
AB0F
AC40
AFE4
AE1D
AC5E
ACEC
2646
9794
AA33
2A12
A939
B13C
AA9C
AA09
ACDB
A870
B1E9
A503
99A9
ACE3
2D97
209A
AC30
A467
A946
2932
AF6E
ACA4
A245
2D15
222A
ACFB
ACB6
A86D
A18A
A685
2D0B
2859
27B0
2797
288F
2849
1A85
A489
A363
ACAE
25D2
28D6
2F7B
8368
2E8E
315A
2BA9
B08C
2ECC
2AFD
ADAF
ADCC
27A7
AC2F
232D
2C42
2C64
2F7A
B0B7
AD22
30FF
AD73
B1A9
2E48
2DE2
2C7A
A830
2433
ACC0
AC1C
2CF9
1DA2
268D
307E
29C7
2E8C
ADC8
AC96
A779
2EE6
2E04
295C
A5C7
AAE0
A96F
9E06
AC2E
A651
ABC0
2F08
AD9F
A8C2
2D16
303A
2C4F
24E7
9DBB
2874
2C5A
AD50
2CE3
B33D
29D4
A543
A722
26A7
28F1
2436
A180
ABAE
2B49
2D51
28B3
A19B
A908
2433
AFC1
2B1A
AEFE
28CD
A575
A274
2D09
A87F
2FA3
2D5F
315F
B228
A8A9
2DB3
1CC4
A456
2CBD
A4D3
2DF5
2CBE
AC78
A9FF
AC9E
AA70
A432
30A6
0D03
2CB2
A958
ACB2
B1AC
2B41
A160
25C8
3022
3195
2B08
2D0B
AD5A
ACF2
31A9
AE55
A820
294F
2D47
2781
ADF5
A1CF
A40A
2B1B
31C8
B39D
26DB
2454
AE3C
2BC3
AD05
B4E7
2C53
2CED
B148
2CA3
2E85
2522
2B1B
AC07
A218
2EE8
972D
2CA0
2746
2F2B
AD0B
1374
A082
2A5E
AA47
313D
20CF
AC48
ACD2
31C5
20E8
AD9B
B294
ACB8
AD3F
2512
AAE1
A881
2E96
2D50
2D6F
2D3E
AC1F
A793
2A2D
A992
2F29
3069
33BF
B0D8
24B4
1EAE
2C92
3106
2D46
1C33
AF23
AC33
AD37
AC8E
2589
2B31
2D37
244E
23EB
AC76
B23F
951D
AEEF
2DC6
2B18
A8DF
AD42
31BF
A8F3
229D
AE54
2DC3
2698
2CA4
1921
AD21
3050
29A1
AC0B
AE27
2990
AE98
2401
AB9A
AC6B
2E93
2655
1F8F
A5C9
ACA1
AC2B
0CAB
AF93
AE5F
2B2B
9F5C
AE8C
A937
ACF7
30DE
AC30
9E8A
AE91
AEF2
2A72
AB9D
ABF7
A741
AEFB
2D32
2DD7
2A83
ACB7
A933
26EC
AC9E
B32B
AD64
AFFD
B30F
AA4B
2A2C
B336
21E7
B177
2C50
A82D
23B8
AC1F
2B98
2E90
ADE0
2D93
AAB0
2AF6
AD82
A613
2C0B
AD6B
3222
AC81
AC52
279A
A123
B2A5
A02D
317F
A698
A81F
ACC0
283D
2C0F
ACEE
301E
2C68
AAD8
2ACE
B1FC
ABCA
AE7C
AE70
AFB4
335F
B017
2C4B
9952
27B2
2927
2A4A
B0C3
2B55
A0E3
2CF1
AA45
2892
2A95
A9EA
2DF8
AD30
A448
A9DB
A32B
2E2F
A90D
A605
B404
2E55
A214
2D94
2C53
2E34
24B1
15DA
B122
2A8C
A894
3039
B092
2DD8
2853
2856
B0E5
259F
265E
27D4
2615
A556
29DB
1E72
3182
21C9
B41A
B0B9
14A2
2CA2
B1FF
310C
AE4F
953F
ADDB
AC39
AEA1
2D2B
AB86
AADC
283C
277C
9502
AA98
29B8
281C
ABA9
2897
AE30
2460
AA0A
274F
AC00
9B31
23FA
2B99
2CC6
A6E1
AE4F
AA6E
2581
A2FC
AC9F
2A27
2C5D
AD00
ACBE
A5C9
A85E
22E8
18A2
9B10
A447
9EB7
B011
A39D
969B
AD74
2810
AE6C
26B9
2AF4
2D0A
2D74
2C7A
17F9
2A99
A685
AACF
A776
AA02
A402
AD8C
2CD2
A610
2AEB
231A
ACCE
2279
2C48
1BC5
246F
29DA
29F7
AF2F
9C0B
A5C4
AD3C
A9BD
A56E
2A7B
2CEC
A495
2D80
AC75
AFE1
249F
A73D
A24B
2A52
A5AF
9FAC
AA06
9C1F
ADBF
AEE9
AAB2
A8BD
A706
1A41
2C62
2095
823A
AA0C
AD04
A8F9
A948
2C0A
ADB3
278E
AB1E
A609
26B0
A4BC
2D48
2CA3
23A8
AD00
AF6B
A789
98B4
1BEC
248B
A34C
1BDD
A29C
2BAC
A1B7
A09C
ACEE
A892
2553
25E1
AC28
2B0B
A513
AEFC
A6DB
AC0F
255E
2E1B
A839
233E
AD10
AB99
A676
29F9
ACAD
0CB4
2800
A3B3
AE69
AD0E
28D2
AA6B
2C2B
A222
ACA6
A990
9C88
2B70
A06D
A4EC
A690
9E48
AC51
2911
AC6B
2A05
2860
2131
A6C2
A900
A6D2
A3D4
A9AF
A922
AD05
AA14
2888
AEC8
AEA1
A070
A597
ACF2
253D
AE64
AB61
2667
2314
AE8F
2115
2824
2D6D
AB5C
2BBC
2D13
A847
9D29
28EE
AD82
ADDB
2A62
24CF
A4C1
A1E4
2C52
2097
A813
2C8C
ADBD
2980
AED4
AC8B
9D0F
AB76
A8F0
A4CF
ADD5
ACD7
2861
2B19
B073
2CE9
2C55
2C43
AAD9
2AF1
2AC8
A89F
AA62
AC87
2B20
A348
AD6B
A0BF
A9BB
9C7E
AD70
AE54
A6A8
AA2E
1FB2
ADF8
ACC5
2CB9
265A
9E4C
2D0D
ADB4
AC7D
A729
AE28
AA48
2D1E
9DE9
AC80
20F0
26D5
27D4
2B34
ACD1
2CF0
3014
2ED8
2ADB
2BC1
A780
2E5F
2F50
AE0D
AB4A
26E5
B285
A2D3
A071
26D7
A475
B191
1F8B
AB82
A4B1
2D3D
AD89
2E4E
2CC9
22A2
A731
AE87
A024
1DBA
2CF9
A2A5
A201
A211
A89B
29E7
A29D
AC03
2957
2F18
20AC
2F52
1911
B082
2807
31A9
2D18
B205
A8EC
AA7C
2D3B
AF7D
2D64
2EFB
3196
AC19
B1F7
1C88
A769
2E1D
29ED
317C
2C4F
A513
2E6C
9F68
B03A
2292
9C51
312E
2980
A8C9
30B0
AA20
294D
B248
2EC1
A25A
110E
2A54
B2C4
AC9B
AEC1
AC8B
AA52
A91A
AD65
2CE1
2B1A
AD75
2EC4
AAE4
AF60
3398
A7C2
2D55
936C
AE30
2383
2C4F
30D6
B643
A84B
B406
A37D
2880
A87B
AC5D
2BF1
A4BF
A4E3
2C66
ADD2
27DF
ACAA
AFAF
A88F
AB8F
2A58
A5BD
2822
21E4
B038
AFE0
2BAD
2854
ADE9
2DF3
A5E0
2AEC
2F0B
AAF0
B04A
285A
AD74
2BFD
A02B
304C
2BA5
96C1
2479
296B
A078
A3A5
2533
B0C8
AB89
31CB
2CDD
2EDA
B316
24A0
AC63
2C1A
2609
AC5D
B121
2F90
302F
B013
3412
1ED2
9EED
AC48
AE45
2F3B
2336
ADAC
AF92
AE9E
2AD3
2F9B
2B16
AED3
335D
2E05
AA33
8E68
AC52
A12A
2D35
2DEC
A4C0
2DC4
B36D
AB3C
3127
AC16
AC73
B221
A0E0
2F6B
ACE1
1832
2C15
A5DF
3026
3151
2CDB
AE02
2CD2
A95F
23C4
213D
2918
A57C
2D4F
2958
A82C
A88C
1F77
3057
2DC6
A946
A84C
AA75
16CD
A54F
2DA5
B0C2
AE5E
AE14
A9D4
A3CB
2738
9643
AC2B
2251
2CF8
9A64
A8DF
A422
2DC1
2071
AC02
30C9
B4D7
AD61
AC60
2970
A720
A947
1DD3
2C7E
AC26
ACEB
3117
B10E
AC25
29D4
AA76
A2D3
2FCB
2CB7
29A2
A7E0
9DFA
2C5E
1F42
999E
A88C
245B
AC16
ACF3
2C7C
2F6A
1D84
AFE5
200E
B01A
30CB
2B60
A06A
2C3C
26C3
1F88
2CC3
AD59
AF8C
B40A
B30B
B03D
2753
3071
1B29
B098
AC27
310A
29B4
A164
AC31
AA38
24C0
A9FF
AD22
AADA
31B7
A9BE
A8E8
AA51
27B4
B1A2
1D31
2C09
301A
2844
ADE2
2CD0
2D15
2E42
B180
B123
2723
A0DA
310A
2A13
21B7
B05F
AD9E
2D2D
2F62
2AD6
2BB5
ABB2
ABEE
3064
ADDF
2A03
2A86
ACA9
AC2B
AC41
2911
B336
2B8A
2966
2D1B
AC5A
A5A4
AA89
AA94
322E
23AE
2921
AD13
AF3B
304C
B05B
2ADC
99AC
AC13
22ED
2627
2790
24E1
B01F
3117
AC31
AD5A
2C69
ACF9
29E1
30F1
A9C0
A383
A8CD
ABF0
ADAD
B13C
A65A
A6FC
B418
A863
ADBA
1A99
A515
1B89
27F7
A5AB
AEF5
2BFE
1E33
28AB
2CAA
A7C8
AA7A
A828
2EC6
ADB6
343D
B2C4
ADEA
2BF5
9B4D
9EE4
2114
2AEC
22B9
30E6
3053
AA1E
2FB3
A4A4
A6D4
A9A6
A953
A2A2
B0BC
26C1
AF3A
A609
292A
264E
2D53
B103
ACF7
97BD
2D17
2A07
0E29
294C
A3A7
A581
AC44
ADB3
A601
ADDA
2AD8
2D93
9C1C
AE96
2A8E
B1E5
AAAA
2B3F
26DA
B104
2C50
2F78
AA23
A5BE
9860
2CB5
28C7
2708
3158
2DAE
2427
A9AD
2C08
2C01
1EA6
2D6F
ABCA
9FB5
B00E
2C76
2F2B
AF2D
95A6
2EBE
2294
9CC2
3411
AC39
2506
B2C9
2298
2CC5
ADC3
2751
AC70
291C
8A6C
9FBC
2C2F
A954
2457
A786
2C69
30E9
2A93
2593
A933
AC94
9445
2A76
AAF8
2FE7
A868
AA84
AE63
2900
2A59
A116
9C7B
A735
2BB6
1E4A
A40B
ACA0
29BB
23AB
AD03
2B8B
2CB2
2B9D
2E5A
2C59
B12C
ACFF
2BE7
2898
A4D2
202D
AB5C
2D65
9C82
1DA8
ADD0
2D5F
AEE1
A5D2
30BF
2CAD
B08D
283C
2D67
A872
24FD
A281
2C48
A144
1F25
3307
2CC1
2C3F
AD96
2C5A
A72D
2CD1
A934
A008
A8FE
AEE8
9214
3212
AB44
B0A2
2BAE
A5FE
A6F2
ABF7
A4CF
AEA1
3042
2A07
3136
AB0F
2CA4
2CE6
32B0
294C
A6F1
A2B8
A989
AD0F
A818
AC96
2602
2D7E
9F42
2AEE
A97D
A99B
2DF9
2805
2F6B
AC37
2495
A820
341D
2CAE
A890
286C
2983
226F
183C
2E54
2CB3
281A
ACBA
3052
AB73
ABE9
2E6E
A803
2E3C
285B
2AD1
B008
24B8
2FAF
303E
2B21
993F
2D03
26B0
2DFF
2AF1
B0DB
B212
3079
27CE
A436
2342
2F02
2E5C
A882
2839
2CAA
A910
AE36
B021
AB58
A2A7
2CCC
AE0A
32E0
AB4E
150D
1A2E
2A0B
289D
AC8A
AEF0
306B
A7BC
2B45
A6C2
27DB
AB8E
2929
228B
246E
29AC
A5B0
324B
AAD7
3084
AECC
AD64
2AD7
26D0
AAFA
2DAB
9F5E
AA3E
2AA0
26B4
283D
B0BA
2BD9
2C7A
30F5
26ED
A9A7
A4AF
22A5
3064
31DD
29D6
2A03
2C64
A65D
ADC0
20D3
B0F0
A8A3
2CCB
B2CB
308B
273C
AB12
ABA4
A1C1
238D
242A
AE25
2B87
2DF0
9CC6
A8C6
9A23
AC57
2E18
2C28
AA4B
A863
AE07
B241
3064
AB2F
29D2
A2AC
AC7F
32DD
B012
20CA
AD73
96E2
2B8D
2DBB
AD11
2B62
9CC1
25D8
2A80
AA24
2C69
3109
AB19
29C7
A795
ABB4
A574
2CEA
2450
AEB2
AEA3
2A98
3020
B187
A1C1
2018
AB12
2DAE
B0A4
2869
AD36
9DD9
29DE
AD06
2FDC
A0E5
AA90
2CDF
A4E4
2458
32DD
2E78
A859
A4A5
A981
29E9
A79C
B15F
AA94
AD4B
2CFE
31CA
A6C7
9D85
27CC
2173
305E
333A
AC25
A95F
A92B
AD2E
AA28
ADCD
B09D
A2A9
ADCE
2BC5
240E
252E
A988
AB68
24FA
2D63
AC08
251C
2F5C
2D84
2C9A
A885
ACBB
A7F2
AA35
2FD2
2C98
3106
AD60
25C7
AFB4
A89B
2825
AAC3
AF4F
A024
AAF6
A79A
25FD
AA6E
AD78
2D5E
AD32
AC59
24CB
2E17
2C84
9BD3
AEE0
B2D9
2ACA
B060
A808
320B
B000
2970
32BB
1DB3
2AE3
305A
AE9F
278B
23E4
2C44
AAD4
2668
2BA0
2A49
2E71
B37B
AF08
ADA3
22AF
AC31
A1BA
AD8B
A563
AA44
2240
3126
9E03
B038
29C0
2AD9
2D98
2563
2ABB
2CD0
AA47
A61A
3077
2442
2882
297E
AA19
A9CA
B2CC
2A6A
30C8
ACC4
AB8F
2E93
AF18
2903
AC04
A8D7
2CE8
A80C
AC48
2EBA
28C8
A816
B290
AF67
B47F
A28E
31DC
23BC
28A2
B046
2EA0
A44A
AEAA
1C71
2F2B
A588
2DC2
2A75
2D6F
33B0
29A3
A981
2DB3
ADF4
B06E
2889
2843
24EB
AD8A
2537
AA58
2D45
1D6D
AB2D
2D99
3343
9F2C
2F9C
31A2
297A
AEF7
A89E
2C9F
27E6
3026
28F3
29E9
2956
2F98
1D87
1790
2C11
2E17
A2B2
A5E3
25F8
ABCC
267C
2E0C
2CAB
A76D
2824
24A5
B249
322A
2B0D
2FFE
A4E5
B122
33B9
A81C
A420
AB77
2C36
19D2
A3A5
AAC6
2D75
AC35
B03F
A8BC
AF26
9FC0
2D66
AC81
ACBB
2C53
2BD3
ADBD
2682
B11F
AEC9
2533
2659
A7FE
351B
2A33
2742
2F6B
B27E
2C91
AD89
A892
2ABD
99C6
2175
ADAF
ACB9
A894
ACD2
AB1E
AD48
AE36
A384
90A7
A889
ACE1
AD6A
28C5
A6AB
2CE8
AA0C
AED1
A558
2816
12D9
207B
A848
B0E3
B13C
2B8F
A8A4
27CA
2046
30C5
29DD
23F0
3174
243E
2C9C
A852
282C
2839
A047
B211
2C98
2D26
ABB8
A58C
A943
AA05
2CF8
308D
ADAF
B13A
AFB2
9ADC
2494
31AA
B203
AACF
A498
2E22
9EF2
B0B6
AED8
A431
2B3D
30ED
9BA9
AC9A
2CBB
2DB9
A951
2696
AA82
AE2A
A4D1
AD03
3157
2AD1
2773
AD57
24C4
25DB
2EA6
B0E3
28B7
AB16
A4E1
AC10
2ABC
A098
2A42
9D37
AE7A
2D8D
1AC3
AAB0
B432
B2AB
2775
A998
2D80
2D85
24C7
A978
9F17
2DA8
A751
A5AF
AA7A
26BB
A953
A42F
2C03
AAF8
AC26
AB4C
AFD9
B409
ACFE
A1B2
B26D
29C1
AA00
282F
2009
A604
A423
B161
29C6
A8D2
AD5E
26FF
AB62
AC34
2275
2701
AC89
A75D
9990
24D5
2FE5
B4A9
A85E
2DE6
9EE1
2A53
A044
24E1
27F6
A8A8
2B6D
ACA8
2B2E
A115
29FF
2628
AFB7
A5E9
19DF
2C12
27BB
A45E
AA80
1F36
AA76
29A2
B165
980D
B2FC
B07D
ACF4
AF6A
25DA
A891
3278
A4A8
2D03
2F9A
A17C
282C
2F6F
A789
29FC
ABE5
27AD
B04B
1EC3
A393
2CB9
189E
2323
A8CF
29EE
AA0C
1CC5
298B
9DCF
26A2
99D5
2915
B0F2
2AF2
ACFE
A820
ACE1
A84B
A166
30D1
23B1
A446
9A43
2886
B03B
AB26
A576
A72C
2482
2706
9461
2DF7
A16A
AA63
AB53
AF7D
2BC4
9392
AEA8
2E2A
AAFE
290E
A926
ACF1
A3E3
266D
A6BD
AD83
A9F3
B02A
21F9
2602
AABF
A3C2
2D63
1B62
2ACE
B209
283A
2A52
AA10
AE1D
AC64
AABD
ABD3
A742
2D26
2B89
AD14
A471
9CDB
A658
AC14
29C5
AD42
ACC0
2CDE
AD15
A36A
2532
2545
B002
A21F
A29B
A4E3
B083
AD96
2C32
1D95
2878
2A7F
2CDC
2386
B15A
ACE4
A856
9CD1
A466
2CBC
A813
2A24
AC10
AE2B
AD7A
AD82
AD59
2228
ACC0
2B89
B04F
2B22
22FC
AB2C
2D3C
9F0B
AD68
A92E
AB72
298E
A0B1
2CF9
96B7
AB2D
AE17
AC45
A6D9
A57D
B272
1F36
20F9
AB2C
21FC
2A2F
AEA9
A8F4
B10A
A88F
AFCD
A415
AF14
9F26
A734
ABFF
2BEA
B0FE
AC9E
2CD6
261F
AE26
A84F
2C20
A7A5
B2D8
2D34
ACF4
2527
AA42
A7CC
AD43
AABF
265F
2B0F
AD47
AB61
3151
AA7F
ABFB
2A29
AE58
22A0
2CF2
AA2A
AA23
AB99
A9DA
AE61
A889
AC0D
A280
ACCC
25DB
273D
A731
2857
2430
AD3B
A76E
9FF2
AC4B
1616
2D3B
A4FE
A69B
2675
A7E1
A3FA
2D91
B02E
2A3C
2CB9
AD3B
A5F8
2DA0
2A7A
2C7E
B107
ABC4
AD53
A4D0
AD21
159D
A8BC
2C9D
2514
1CF8
A977
B163
AC3E
B08C
AC98
2D3C
AC43
A347
AFEE
1EFE
25F0
A949
AC84
A859
A81B
2A3F
2960
AD20
A6A0
157D
2265
28D8
ACFC
2A67
2669
2D9F
A8EC
A116
2DC2
B096
2808
A6BC
A9B4
280A
2C6D
A419
B175
AE3C
ACB1
A89C
287C
2C57
AEF9
AD22
2D6C
29F8
29D5
9D73
AD06
B37D
29F4
AA9E
AC3F
215C
B10C
1FDF
99A0
AEC7
225C
2631
ADD4
2471
AA5C
B083
B4BE
AAC5
A9AF
A896
2FF1
AD48
2E61
2C09
AE1D
AAEC
A925
2B59
AD31
ACCB
29AA
2521
AC67
2974
2A03
2C89
B146
AE48
B5CD
2E8E
AC4C
AC64
A7AA
1EB7
2C51
A733
2B15
2A90
2845
AFCB
AC68
AE38
AFF2
AB33
A9CA
2E19
29C1
AA2B
2E86
2D61
B198
2C5E
3071
B045
20F9
B074
2B40
A7A2
20B4
99B8
AE1C
241C
2A78
B058
AC81
ABA3
ACE0
AE99
2FE8
A9F6
B360
2C8A
AC44
AEFC
AD51
AC0E
12BE
2B1C
146A
29F9
A47B
1F6F
8D4F
2C2E
2FA4
270E
2939
2667
29D1
B2AB
2DDF
B13D
A854
2BBA
ABC2
2C01
AEE4
B035
A426
30C3
B1B6
2B2E
A685
29ED
261B
AF98
31AB
ACC6
1BF4
28CD
21D7
ADBE
224C
AAA0
AC06
AB32
AFD7
AC89
A5E4
ACF2
2AFC
A470
A5DA
29A0
A9C1
AE0E
A1A9
A1B4
AD4C
A6F4
2850
A720
AA4B
A0ED
AA63
24D1
A71E
A7F3
224D
ADAC
2AB2
ADC7
258A
2761
ACD3
2BA8
2755
B00A
ADD3
AF86
A439
A8EB
AC3C
AC2C
AC0E
AC05
AE10
290A
A87D
20D0
ACDA
2961
ADDE
246A
AAD5
2517
24D2
2DAC
AC86
A971
B012
AD31
2519
A274
ACD5
2479
24D8
2D46
250F
A9AC
AC84
AD30
A4BB
A153
A572
21A3
1DDE
A9BD
ACF0
A7A2
2C3C
9A86
2B78
AB6D
A27C
AA79
A4B8
2718
2D9E
A999
B038
2D49
A5D9
A927
AC10
26DB
A645
A1B5
2D2E
AC3A
9C6C
ADC0
A7C8
975D
AFF0
AF30
A5FD
1D01
99F6
A9FF
A8AC
A9D2
9E0C
29F1
B1B9
AACB
ACAE
A745
2771
AC1F
2D0F
AC18
AD75
AC40
B029
AA4D
A479
ABC9
A8D9
3347
2D35
2C32
A221
A633
AC5C
2D35
A456
B05C
A0D5
2B3D
B43F
AF4D
2F65
2DAC
2C8A
2A30
B10F
AD99
2792
2949
2BB7
2740
9C86
218E
2A51
25C8
2CBC
B108
31C6
3161
248E
23FF
24CB
2BEB
A969
A6A0
A5FC
27E2
AD28
2A0B
2887
ADDB
2C5D
1D55
AA5A
B449
3062
AD1B
3008
A815
1EFF
A2D2
AD38
3219
1D1D
AEE7
2F3F
AA56
ABA2
A284
2CF4
2859
A467
B35F
A079
2B8C
ABD4
AA95
B040
B42E
ADEC
ACE4
2D98
2C07
A007
30BE
2D50
2817
2C48
AEEC
A911
AC6D
2CA4
2AF1
AC1A
9C50
2C23
A9FD
2D50
AE76
AD15
2CFB
2E0B
227D
2DAA
B1FB
324B
A397
B2F8
2E12
B3BE
2E8B
ADF4
AD91
B0FA
A9F6
2539
A28F
AD23
2AB4
A919
AC94
A413
ACC0
A722
ACE4
A80E
ADC7
24FF
9AEB
AD41
AA19
0E3E
2847
ACFA
AE86
AE2C
AF7B
2AB4
249E
B09A
A320
28CD
A94C
2D7C
2CF6
A245
A279
27A8
ACFC
AB2D
24A8
27E3
A94C
A809
AB1E
3065
AC34
AD7E
261B
2C6F
A989
AD5D
2CD0
22D3
A9D8
25F4
AC03
9CB1
280A
AF1F
A50D
A246
2B36
20E6
2D47
28E0
1FB0
A8DF
ADC3
AE5D
281F
B11C
AF2F
A52F
A94A
A819
2CD4
28F0
A92C
A1F7
A941
A9FE
AF2A
A51C
2DDF
2A01
A616
ADC3
18B8
221F
2800
2D98
AC35
ACF8
AC44
ADEB
AC28
232D
AE77
2A9A
2A08
276D
A38F
B05B
29C5
2C92
A5D7
A45F
270D
2CA0
AAC8
ABC1
2D0A
A831
B072
2C59
AD18
2A09
AFB4
AF3F
2403
AF13
A797
AE6B
ADF4
2D94
A659
AD11
2C9D
A52B
ACCC
2261
2F4E
1ED6
2DEB
306F
AC48
2A89
A8D2
1EE5
3016
2EF8
2949
2621
2746
3129
3139
2D24
27CF
ADB9
26AD
AC45
AD80
AB3D
2964
AF2D
AB70
AC9A
2F5D
2BEF
239C
297E
284E
AA5F
9CF0
ACCA
AC1D
2F62
AF44
ADEE
A761
25E6
ACB1
A1DE
A724
3217
2177
31B5
A7A6
2E5A
2C94
AC1F
9C3C
3384
A955
B2E7
2CEE
291B
AA82
AF64
A98F
AD5F
3135
2C0B
AFD7
3047
A808
2C9C
9779
2C14
A6F9
25E6
AB25
2978
AF01
AA29
3019
AED0
2890
B0CF
AD26
A9AD
A0BD
B5B3
A921
B0B0
280A
A562
A6ED
B115
AF31
2CFB
2E8A
A870
AD38
2356
2BE6
26D4
2043
2CCE
31D5
2A5A
2709
9A48
2D1B
994F
AC48
31A3
22D1
B047
A761
2667
23D7
2FE7
B0FC
29BB
A819
A64D
8C4B
2503
3109
ACC5
2193
AB88
2F92
307C
2DF4
A80C
2CB9
2C18
A4A4
2DC0
2AA4
29DD
A8F2
1976
3161
A085
2341
2F12
AEFF
2C2D
2DDA
2A51
3089
2DBA
AC0E
249C
24B2
197D
2A67
2CB0
AC0F
2CAB
A852
30AF
3078
31EC
AEE4
A5F8
2835
A96D
AA42
2AE4
AEFE
AB5D
3039
31A0
3441
2FA2
26C7
B0C8
A99D
2ED0
3163
A835
2CC8
22A5
2EB9
AB66
2688
A6D9
B1FD
2828
AC87
AC3E
AC69
2A07
2B06
2F33
20A9
A8BD
309C
9DC7
2C97
2A1B
AA11
2457
2C26
2796
8FC8
261D
3138
A7B2
2B4F
25A8
21E6
2806
AB60
20F9
2E11
AA5B
A828
28B7
A48F
2DBF
2673
2923
AE24
A697
AC22
2A1D
A5C2
285E
2A76
A958
2DF5
B392
3129
B146
2B72
27FE
1619
31BC
2C75
AB7E
AAA7
A452
2271
AA95
9F95
AA6D
2D52
2400
2B86
29BB
225E
2CCC
B1E8
ACF3
AB39
B1C2
2D07
A55B
2855
B0F2
AC05
2C0C
AFA4
28E4
A18C
21DC
A95E
A8DD
2F61
ADA5
AAD2
2832
A32B
1D07
98BF
A1FF
2881
96B8
A296
2D4D
A901
2A62
AAE4
2867
2D5A
14A5
AD13
A96A
1DC5
B02A
2939
31EB
AEA2
AC3F
AE83
A9CE
24F0
29A9
A975
3080
2670
201D
2C22
1D00
AC66
2B9E
2E08
9DF9
AFCD
2991
2DD8
A6D4
9EFC
2CF4
28BC
A152
B37C
2A06
2536
273D
3073
2C1A
29D0
ADBB
1B27
2C03
A78D
AF97
AD07
313A
A7CD
AA46
AE58
AE95
2A5E
A54D
A9F4
A4AC
A0B0
ABA7
24FF
A4AC
AAB4
1C96
A816
A9E0
2C80
AF34
ACF3
A9B4
B170
1547
B1D4
AA04
AB87
A70C
ABA4
3177
A7A7
279D
2C44
AD57
AAEA
A585
A611
ACE7
ABA2
AEB2
242C
B420
1160
2C0D
AC92
A02E
AA73
AFCC
AACF
AC4B
AF84
AD08
AD17
AD3A
288E
3001
A769
A878
28C5
ACF3
A895
A803
A8E4
AAFE
B008
2568
ABBE
2FCC
2CB4
14B7
2B9E
285B
AE29
2D50
3065
22A2
2C59
2CCB
A575
A39B
B074
2FB7
A88A
B33C
2C53
AD38
286B
2119
283A
A77C
30B8
ADA8
15DA
9DEC
267F
2959
2C8F
A60E
B1F2
AA18
2338
A388
AA0E
2A78
AC0C
A8B5
ABAE
1C8E
2F95
99B4
ACC1
2DB8
2AAF
AFAB
AF91
31FA
B195
2823
9D23
2B11
B05B
1C66
A5A2
2D34
2D49
AD4D
2CE7
21EA
ACD3
B056
2D4E
A761
2802
AC02
2DF0
2C8A
ACB6
2E28
266A
B099
AFB3
AD62
2C78
B0F8
AEFD
B11B
2A8E
AF17
2A54
B3B7
208F
B09D
AD55
2CA9
2842
AC4D
ACD8
2D6C
A75F
ADB1
A857
A86D
A959
ACD7
AF5F
AD6F
2687
AF31
A89E
AD80
1C03
A96B
2431
2A64
AD9C
2284
A5E2
ACA0
27F2
A7D1
A938
2195
A58F
ABCE
24C0
A760
2A5A
ACDA
2CB4
A6D5
2D3D
A597
993E
2733
2988
2952
AE0B
2800
2C75
A99D
A824
281C
2952
A9C6
1936
AE1B
2A1A
A34B
ACA3
ADA1
9FAD
1D1B
A593
2056
ABBB
AAFB
2B33
ACA9
244F
A508
ACA7
A8C4
2816
2E1D
2749
A5D0
ADCE
A9B8
A7C1
A9FB
2748
A71F
AD28
2127
28A3
ACD0
A91F
2C66
AB0B
AE65
AFBF
AD15
AB17
2C0A
ADB1
23B0
AA06
AC3E
9FA4
AB3A
A8CF
A65B
ACB2
2C17
B053
9DD1
2999
2912
2DA3
AB4D
AFF0
AD48
A27C
24AF
2609
ACE5
2C46
A87D
AA89
AAA7
AC9D
ADD0
ADB9
AA78
A7FC
A9E4
2BEE
20E8
AB80
ACF3
2542
277D
1BF6
ADA3
B0AF
2D2A
AB89
ACDE
A5F9
2836
2815
2468
AB8A
AD3F
A0F0
2AAB
2AAB
1C51
A060
21F4
B043
1DA8
2AF5
2B84
AF64
2C19
9B95
ADFB
2CD4
B08F
1D4A
AAD1
AC33
A034
2C7A
22D7
2642
AD61
2931
A750
2969
2F5D
1B57
AE04
B0B6
B040
2D75
A691
2CCF
2526
B0AE
A89E
AD25
AC41
1BBD
2887
A619
9E25
A319
A061
ACC0
26BB
2C90
29E1
2E1E
AC88
A838
A130
AADA
2DD8
149E
2700
AC0A
AC96
A4E2
B199
AC79
2939
2799
AF47
ACF1
A977
0947
2AA5
ACFB
ADD8
AAB5
AD7E
1D6C
A6B7
ABCF
20EB
1C61
A390
A9F2
2D59
AC68
AC9D
2CD9
A4EA
A916
21EE
ACAA
A91C
B1CB
ABFD
A246
AE0F
2B4F
AB51
8864
AB6D
2B18
2720
9C36
A69D
9DCF
286A
2DF6
13DD
A0D2
B113
2975
AA74
2A2B
2657
2E33
A963
AA9F
AF5E
A9FA
2BBA
A34D
AC91
302D
B31D
A846
2D5D
AC8A
28D6
2630
ADE4
2B8A
AD4F
2D9D
A1DA
A8BB
2E95
2661
32D8
AF19
2BA9
AAB0
9B83
2A6B
22F2
0E31
AB4E
A8BC
2979
A874
2A8D
2DE5
2EDE
B0B3
2EC2
2E39
3135
2A89
B029
B40A
A9BB
A6A6
23AB
2C39
AFD7
2653
2BF9
2EE7
A83C
2C36
276E
ACF4
29BD
29EA
A98D
A8B8
2878
98F5
A0B4
B1A3
24BA
A5CA
15C6
2BE8
2F8E
AEA8
9EDF
AA6A
31D1
289F
B068
9225
ABB3
B3D6
9F1B
A4D7
9F77
221D
21CD
2D9B
AF63
254C
A56A
3086
2372
A8F3
AFC9
AD46
AFD0
AD29
2BD4
2C19
3348
AEC8
2F69
AAB4
2864
AC0C
2889
B111
1627
A819
AF59
22CD
1C85
AAF9
AB1D
2594
9C5C
A9C0
2B62
24B0
AA8F
1B50
2C10
AC70
24BD
2863
ACBC
A853
B14F
A9E9
2187
2C64
2F0B
2945
A849
2ACE
2D0B
2EE2
2C2D
2D97
270A
9E69
2317
A455
304A
A53B
288A
2408
30BB
9223
2F2A
ADFC
A29F
AB13
AB96
A5A5
2318
A601
A503
9DF4
304B
2FFA
293C
2C76
ACCF
2C4C
2902
2C9C
29D8
2939
A038
A4E7
3296
1E00
2BD1
AD30
ACBD
2559
2A57
9D38
AD85
A403
2CF7
A086
AE28
2B28
283B
2C5B
2C2F
A538
AD6D
B120
2B99
3091
2C8E
33F6
2B03
A720
2FE4
164A
20EB
313C
AE7D
AAEE
A9FD
A008
2C5F
A061
2B57
ACD4
AD94
B0FD
A7E8
A5CD
1EA6
AB47
A7D8
2890
2A3C
2FD6
B286
3285
B383
243A
9ED6
2CE3
AC16
28FC
29D5
AC7F
AC0A
ACCA
ABA8
AAA9
28AD
2C73
ACEB
3156
3162
AD7B
ABE5
22F6
960C
2B86
3296
9ADF
A257
156D
AF7F
AE5C
ACC2
2665
A388
3391
1AD8
A3E3
2978
ACDF
2C6D
1E42
28DC
3028
2018
2A81
2093
2A50
B256
29D6
2E15
2564
A87F
A698
AB51
1AB6
A033
A4A3
A9A2
A592
3033
224B
2C1B
2C8C
2577
2E2C
25C4
A98D
A95B
B07C
2CD4
A5E7
28A6
21DA
9627
AE2D
2881
303D
2D2F
B044
A0E1
2C93
ADD5
ABA6
27A6
2B59
AA63
A870
AD70
30E7
20DD
A92C
1C9B
2990
A408
B1B3
2619
B4CD
B140
2099
2AEE
A44F
2E25
B0E3
2C14
2B76
2ABC
A773
2E11
AD18
2C3D
A9FB
2964
AF6A
2CDC
B0F2
A771
2BEB
A889
2D88
3054
25E3
AEB7
3040
B18A
A50D
AE4E
A85A
2AF2
B179
2E36
2A3E
ACCF
1CED
2E5B
AAED
A01A
ACAD
9F54
305D
1A38
AC59
A826
AD14
AC25
B065
A7C6
2949
28A9
AF5D
B024
297F
2A40
2F33
2675
2A66
AB0E
AB3D
2EE4
2983
3032
2631
A937
2B7B
A8EB
29FC
2B8C
A625
A974
2E17
2AFF
AC91
2D06
AD6B
2CA2
ADA1
295E
2C60
2CE7
ACF2
2659
2019
A77D
312C
1D74
AD32
AF20
A3E7
309E
3092
B113
A659
1568
29EF
2D40
2D78
A4BC
A9A2
A404
B120
2757
1632
2FAB
A1FF
AAAB
205A
2D97
1A03
A995
2FB7
2611
2FF2
B159
B2BC
309C
AFA9
24B6
2DCC
B43C
B056
2FCD
2432
2AF6
3430
28D4
26E3
2828
9F92
248D
AD4A
A5EA
AC50
A7BE
B197
2CF9
3009
ACA8
A279
27C0
A6DA
A1DB
3022
B42F
ABFD
A5FE
920C
289F
2C76
A8A6
B0BF
9C4B
176B
1750
ACD5
2D72
AFF0
AA25
2C03
AD89
2AC6
A9CE
2544
A926
AFD5
29DB
A7D1
B17A
A306
1FAA
32B9
24D0
300F
9AC9
AA34
2786
B05C
2A2D
2B28
2CB8
32D9
AC93
ACE7
2D3E
B055
2C78
AD89
ACED
A585
AB94
A7FF
2B2C
32BA
B1BA
ADCD
A558
A7EB
ACCC
2520
A9ED
ACC6
ADAC
2DB4
2E03
1C44
2DCF
A0ED
B1C1
A883
AF20
28F6
287F
2692
A8F9
2CD1
2F01
A7A3
320E
3041
29D0
A52F
2C2B
AD32
2D00
2D71
A5B6
275E
2995
312C
A284
A53D
ABE9
A798
A89E
2FB8
2A72
3088
A34E
314D
26B4
2DA6
319D
1C7A
1F5B
31C2
32D6
AD2E
2C63
AE88
19D6
AB33
A561
A5EE
2C46
2E38
2741
20E5
AAB9
ABC0
26A1
2BCD
ADE4
29AA
32AD
AC50
1E4A
A4D7
32AB
15EF
3186
AE69
920C
AD5B
2D3E
A502
9DBF
2DC5
AC60
2679
A20A
25A2
AE36
A8A2
AAAF
AF48
24EF
2FCE
B049
A7F5
A7EA
310F
AAA6
ADAC
AB47
A920
B12D
2FBF
236F
2926
2DD4
AFB6
30B5
AD5E
A4EB
31FB
2D68
A87D
B091
9C38
28FC
2CB5
B0CA
2AF1
AAA4
ACAB
209F
AD43
9B49
AADD
2A47
300B
2C1D
ABB8
2580
B07C
2905
2CE4
2ABB
2EA0
ADD9
A97B
AAF0
A62A
ACCA
23E8
AAAD
A422
3117
A98B
0032
3075
2965
AC56
2860
AAA5
B0EE
2BB3
AABC
A605
A835
B1F1
AB37
2DF5
3049
238E
304A
AC94
AC60
2304
2FF4
A8CE
AFEF
2180
2BED
A651
2F5B
AC99
A5F7
AD13
30D2
2A22
AD28
AC00
A113
2B61
247E
2F05
B1FC
AD0C
ADF5
2BBF
2624
A689
32AF
A06C
332E
2A5B
3175
2C09
AEB1
18DA
2A66
25AB
2587
2BC4
2C07
AF7D
A8D3
2EB4
2A6A
2B52
ACF2
1CFF
2CEA
A28B
2AD9
2F5C
2DC8
98F2
A83D
A598
25F5
B21E
A9D8
A3E7
26F1
32F7
ABA2
AB3E
2F8E
A874
2B7E
A9CC
ABAC
3025
95A9
A840
2F91
18F9
296C
A923
AD7B
B1D9
26EE
2FB1
A716
9CCF
A145
2D5B
AD7D
23CA
2FEF
2647
A4E1
A854
A4EF
A0AA
32D4
2950
2D12
A4FA
2A62
2CA7
19AD
21A9
2406
A882
AB73
30F4
ACD0
28C1
1B8F
2EAB
ADBB
A943
2B12
2D79
1D0B
2E21
2868
B4DF
2B66
2E13
A881
2F3E
3024
1496
2CF5
A2AE
2C50
23F3
B43E
2535
2D03
AB06
A6EA
2C37
AA93
2158
B24E
A85E
ACAD
A687
284B
325D
AC6B
1A85
2C07
2D7C
ACD1
A59A
2177
2422
AC83
AC56
2C26
A404
A219
AA9B
AC22
9D2F
A472
ACB1
AD0A
ACAB
3122
ACD1
2170
2758
A82B
B159
AD51
2C78
AC02
300A
A8B4
B0FE
B00E
AC09
2C7E
24D2
963A
AB7A
AE92
AE9F
30CA
2860
2D9E
2493
9D51
222A
300F
A9B5
906A
B32A
299C
2A0C
2483
9D28
26F1
A227
2FD3
2D45
B24D
2826
290B
A6BE
A202
2A4C
AABD
A837
A92A
AE8A
2E52
300E
B1E2
A7B0
A8D9
AA51
AFE3
2E8F
267A
20C2
228C
2BEC
3158
1E2C
2D62
B03F
A785
306F
28B6
ADBA
AF3B
A7CE
1D10
AA2F
293D
1E0E
A8A4
30DC
A9FE
ADC1
AD14
B119
9D88
3257
ADDB
2C7E
3215
2CB7
321A
A4FC
AE31
3425
A885
9E2F
2E4D
2D43
2DD2
AC10
1B5D
964E
A82B
AD5D
2933
AD39
B048
2C91
2E8D
29E9
2CFA
2AD7
A93F
218D
3119
ADF6
AB4F
ADCF
2D45
327D
28C8
AC81
A537
2CED
8054
2167
A45C
2A56
346B
2F8E
A03F
A924
A2D5
A667
ABC6
2F6D
26FE
2CA6
2BFF
3030
9F33
AC4D
27DA
24CC
B07D
2B05
A231
AA86
290F
AD8B
2D5A
2368
AC26
99FC
9296
2475
2A7E
9F3E
A95D
AD6D
B05C
AD03
2CBD
9AAF
AC2C
2DDF
2600
A21A
29AB
2714
AC56
AA49
27BE
338B
ADDD
29C5
2976
221F
A628
B1EE
344B
A587
2AAD
271E
AB1C
26B9
AE42
B12B
2695
AE6E
291E
2DE8
A577
A34A
B17B
2911
A0EF
AF6B
25B6
2B6A
AC9D
B3AC
2F8E
B00D
A9FF
AEAA
9AFD
A7DC
2868
A8D6
ABD6
2BE1
2469
ABED
2B4F
9474
A9DF
A7C9
AB05
A989
2C23
2CB2
AC26
2CCB
268E
B0B2
2B79
AD6D
3072
1EBD
3079
2BE5
B296
2E5A
302A
206C
96EE
A636
2A16
2AD3
A13A
2838
2B9A
2899
ACBF
2E16
A92D
AC2D
ADF5
3067
3167
2AE5
2088
96D7
28F5
24D7
2FB7
09AB
2287
22EB
20A4
2DA9
28C8
2CDF
AA94
2726
B016
295F
2C23
2935
A534
2C25
2D96
26DE
276C
2B00
2E10
AB3D
AE36
A092
A9FD
2B34
28CB
B237
A0BE
AC0A
ACAA
2CD9
2C5D
A966
A9A4
AD45
2CB1
3387
2CC9
ACAF
B0F6
AA2A
3031
32E1
284E
2507
B03D
279B
AE16
A3F1
2968
B021
2DA5
2CEC
1BEF
2509
29E5
2CA1
2D3D
2AB3
2925
3064
2A32
2865
A853
31E9
A916
2B4F
94AD
B3B7
2DE1
2EE4
AF5A
B164
AB66
AAF4
2685
297A
B160
2D4E
1E4D
24E9
2BEC
AD52
AD2B
9040
A675
A6CE
259D
2D71
2C26
0FA3
AA88
19B8
223B
A934
AF9E
2AE2
B369
A83A
1079
2D2C
AAE3
AE3A
33BE
AEFF
2841
AE0F
AD7E
ACA2
914B
A8FE
B28A
2975
2545
ACDB
29AB
B001
AA97
9F69
2522
ACBD
A41D
AA72
AE9D
B170
AC40
2143
19E1
32A5
27AE
2C3E
9ABF
B0A5
2809
2CEA
A656
2CCA
ABEB
AB75
1DA1
2A54
2E26
24F1
B0BA
A5EC
2173
2A64
2B9E
A960
AC96
19CB
2405
3028
2C05
2BE9
AD14
B088
A8FD
227B
2D41
2E53
AE1C
B1D5
A9DD
AD7E
B100
1963
A047
2812
2C02
A3C5
ABA2
2BC8
2A54
28F6
A69E
2851
A73A
27F0
A9FD
2886
1CF8
AE07
2846
327F
A80D
B283
2B28
B0E6
2822
2E75
30AF
B1B1
B168
AD8F
ACEF
28CF
A93F
2C6F
A627
2A77
2DB1
2C94
A72A
2B6D
2CE6
29CE
2E32
3073
2BD7
A48E
B4FC
305B
2F3F
A8AA
3087
2B19
A72F
AD6B
2A61
A8FD
B27C
AE21
2AE7
AD27
A183
AD6D
20D2
2820
94CE
2A3A
2F6E
AC1B
A5AA
A968
9DF5
312C
ACD8
AE4B
293A
AA67
ADC5
1F43
224F
AE82
A89D
2C44
B422
3288
295D
A59E
A293
2DB7
A35D
1FA4
29EC
2BC1
2C42
AC26
303D
26B4
20DE
A84A
2FA1
ACF4
AEEA
2C96
AACB
2B99
ADD1
A668
1EA2
2BE3
319B
AE71
B01A
B047
AE8A
242C
331F
2A14
B2AA
AD7C
3277
A976
2FCC
A951
30C4
A2A7
2753
3286
ABAE
ACF4
23A1
AD43
AEEC
2CDD
2A81
A825
A9FB
AA48
2319
3058
AB68
A26C
286A
B118
2B92
B111
1D67
2612
9F48
2FB0
A907
AC4F
AA0E
A497
B055
A039
21C2
28B1
B1FA
26FF
24E6
A9D6
A3D2
AAA4
ADBD
1A80
1353
2696
A60D
A27A
3132
AED5
A79D
B385
32CF
2D7C
B214
2915
B05B
2C8E
AFF6
1EE6
AAE3
2CDA
A88E
A63C
A2AB
2C1A
2D48
256C
AA13
AB3D
AC17
ACB5
AA90
2EB1
AF3B
A398
A3E0
B046
285F
296E
2C9F
1A4D
A861
1DAD
27B7
2ACA
A1FA
280D
2BD6
2CA7
A8BD
AE2B
A61A
2D57
2F34
A8CE
A544
2E39
3135
AF0F
316D
B444
A91F
29E6
A886
2D0B
2D50
2F86
A4D2
2ADD
2D4C
B23D
A82C
2B0F
2670
A5ED
9715
30AD
AB80
A8A7
2F4D
3029
2ADC
A899
3107
ADE6
AC18
B071
21BE
219D
28D8
AC74
A69C
92DB
A88F
2A85
2D3C
AB88
AA0D
AE91
A925
A9ED
3398
A9B7
AD0A
AD77
2871
AD76
223C
AA41
2280
AA71
AF1A
A3D1
AC8B
AE1F
232D
2D2C
A9A1
2C98
A774
2E48
2455
2F25
AADB
AB18
2E30
2CDC
24A0
9CFE
2803
AE8E
AB76
26C2
A02D
A837
1D1C
A751
B112
2C43
A9FC
AB2A
2C61
24DD
9EA1
2E6B
B148
AF69
B296
AA6C
2C3D
2FE3
A60A
2FFB
B2A4
A05E
ACA4
A970
2A22
AAAA
2823
AC05
B1DF
ADA8
2BA2
2DFD
A139
310E
AB6B
2C48
2F34
AEF0
AC24
AD41
30EC
AB31
3030
ABD4
25EE
AFE6
30CC
B25F
A15F
A89C
1FB6
AC28
A600
B145
AB26
AD8E
ACA9
A583
AB3C
A6FA
ABD6
A90F
AE2D
A4AC
295F
A932
2D73
25B0
2691
2CF2
3077
A2B8
ABDD
B1B1
28C9
2C63
A935
2B8E
2F8A
A60F
2D06
AD7A
242A
AD96
A603
B46C
AC64
27F3
323E
B305
2C22
2F53
AD3A
3043
2B00
2BE5
2608
9DBF
8F8E
A212
A7AE
1F89
B135
A5EB
A75E
A9DF
222C
3053
2DC2
A87F
A4C8
2C27
A90F
AAF8
2CD6
26CC
2843
AD07
2B3A
2C7C
B253
2D62
A515
1557
B2F5
29AE
2470
AC2D
2F94
2C98
ABA3
A87E
3445
9E68
AFB2
AA5F
9EC4
B05F
AD01
ACF0
AA31
2AA7
2CDD
287E
3035
AC90
2D16
A824
AEA4
2FA2
A12E
ADB7
AD77
A64F
2A44
AB43
A668
AE25
2962
2A46
A8B3
2984
2E20
29C9
ACC5
22D7
A8DD
A82D
AD19
A6E7
9FA9
AAB4
A7C4
3068
B00F
300B
2708
AD24
291E
AC57
30F5
298A
A60C
AD80
32B5
29CD
28DA
AC1B
9E09
A270
2267
A680
2DF8
AE51
2B29
A5E6
A46D
1FE0
2F66
AC46
ABF3
31DF
2D25
B1AF
A994
B050
25F3
2EA5
2E79
21EE
AC7B
2AC6
2D10
AD3C
AEF9
29A0
AC13
ACEA
9F56
AC96
2CAA
25A0
B43A
AA1F
2B1A
A604
A68B
2E9B
A947
2915
299A
A378
2A37
2405
B063
9D0A
2356
B4E9
3315
2676
2841
A763
9CCF
3163
B110
1F91
AC1F
AB7F
AED7
ADAA
A538
9805
B2E8
2C5C
3009
2C62
2757
303C
A7E8
256A
2B58
AD16
A5A6
3193
B1E9
ABB8
2961
2D36
9E26
3011
ADD0
2947
2CE3
AD77
A335
29CC
A8D5
24A6
967B
2B46
2EFD
A4BF
A8DB
9CBC
A429
AD17
2DB1
28CB
ABC0
AAA1
2BF2
282F
AAB0
B179
AEAC
9A55
25B3
AC24
2FFF
A4AC
AE1A
29CD
95D2
A3C4
AFB4
2A0D
2826
A856
2E1F
A46D
2A52
A9EA
2CE0
2F5A
9D1F
A96A
26C0
2C61
ABE5
ADFB
AACB
A77D
2C44
310D
A1F9
2FA0
ADE9
AE6C
20A1
AF24
24CE
30B5
29B4
AC54
3091
2DBA
A6D6
3135
2A67
A9C7
A4DB
A46C
3249
A385
2C41
2449
28A7
B070
2C0F
96F3
AED1
9D95
9BC6
A443
2BB0
2F31
AF07
2FE0
B048
A907
2E0F
A916
A8E1
AC93
30EF
AE6B
1CE9
2D11
A81C
2843
23AE
2C7F
1E5D
3082
3413
9A11
9EE7
2D42
A898
2C0A
256E
A714
A038
2FAF
2973
2452
AC76
2C0F
B0CD
AD4B
A4D7
2C72
2C40
2D0B
A6F6
2D54
A7CA
286C
A5FC
2C3D
AE8D
26D0
B2AC
A79D
A625
30EE
2C11
2D2D
AAB1
A9C3
A816
2C14
A185
A088
2D4A
AA71
A6B6
2E3D
AE69
234F
3051
A802
A399
A402
A927
2A07
A3BD
A252
A902
2A57
B017
2F3F
ACE8
30B2
A0D3
228C
A944
2A54
AC1A
A99E
A0BF
ACCE
1A0D
3124
AC88
A9C2
AA7E
3071
B5F8
ACBF
ABAF
AEB7
ADDB
308D
227D
2DB3
29DB
2EE2
31C6
2A88
2E4E
AC48
20D8
2834
ACE2
AA00
AD2E
23DB
2962
3364
2C4A
28AA
260E
A951
AD72
B374
97A0
A8C2
300C
AD04
2DBF
2C43
24C2
2C44
9C20
A0A3
2D18
A687
AEE2
210E
AA9F
2955
B12E
3063
344C
AD10
2289
2859
294E
A1C2
2DFD
216A
291D
323F
B15A
A9B4
ADAD
ADD5
2CE6
2E7A
286A
2377
ACC3
1D78
AE9F
2C66
27B8
AFA9
2C33
16DE
AA31
2A42
AE92
296D
B1D1
2E63
AF35
1E0A
2621
2D69
A94E
A374
A6FE
A749
B0F1
AF2F
ABC7
312A
24FF
9D53
B11E
9D54
A874
AAE9
B0D9
22BC
ACE2
ADB9
2655
ADCC
2D3C
B07A
9A32
304A
295E
AB8F
AE60
28CA
AFA4
AE31
A677
AD0C
A1C8
24A9
AD1C
26AF
1E5E
3091
B09F
3151
17C7
3078
9C05
9A39
B19A
ABA4
AA22
2E75
2E20
9E46
AB5E
26E1
2FD6
ACFC
ABCC
1BC3
2D74
304A
A9B5
1F96
AC89
22AD
AEA3
2C1D
A442
A9A3
2C3C
A9D6
2973
9E06
2CD5
262A
AE0D
2D49
2E4D
2547
A5E3
24EF
2B87
AE51
29DF
2C06
AE7D
A91C
289A
9BAB
205F
A539
23B5
AF56
250C
2AC1
23A2
2BCD
A42F
AE5C
21F1
3073
9695
2698
237B
9C1F
2C5D
A6BA
A78C
A6C6
AAEB
A983
ACB4
259B
A57B
22EE
2C63
AD7A
A191
20C8
A9EF
2D98
9D87
A1DD
8B1C
2960
24C4
AFBC
2B5E
2CAD
99A0
AA53
2AF5
2C81
3104
2AD9
A989
AB1E
B144
2D13
26D6
A1B9
3160
979D
A886
2A86
A82C
289F
2A86
AC78
228D
2B86
2DA6
2A09
A8A8
2A24
2C2B
AF9C
2594
32FF
AD16
29D4
2AF9
AC08
2588
29FC
A9B3
28A2
301E
2F87
A506
346A
2659
ABF5
2D3D
2D54
24FF
A95F
22FB
AC8D
2E8E
ADF0
AB96
2D42
AD1C
2C57
ACAD
AC04
2ED8
27ED
2F2A
B0AE
AE79
2279
2DE6
ACA6
A6C0
B00B
AA17
2BCA
9970
2AC6
2238
B28B
9D0B
AAC1
B3A7
AFD3
A93C
AD7B
AA11
2CA5
2D8D
B06A
30AE
281A
AB9F
A9BF
A511
B1C1
AA42
2A1C
3075
30C2
2D18
3052
286D
2A1E
A0FB
222E
AA55
AB5F
2723
AC87
A898
A51C
27C6
2C34
A9CE
ADF0
B0C8
3223
29EC
AC6E
2ABA
AD68
910A
AB5C
30B8
2C3A
B5EB
AE86
2C36
A927
A601
A891
AEB1
2F98
2FF2
A8BD
9C5B
ACE9
29AE
9F64
A73E
2925
ADA1
281D
1917
A7B7
A5F5
A764
A797
2CD1
A940
927F
297F
AAF6
287A
314A
2A7E
30E9
B242
309B
A900
2D3B
1407
B1DD
A59F
AB75
ADCB
2CFB
B5B7
1A79
26DD
2380
A9A0
AC1C
2608
ACBA
2FA1
B479
29B2
20C3
240D
A411
AF5E
A250
1489
2CED
B412
32E7
B2D2
AA4D
B197
A856
2576
2E2B
AFE8
2573
2A7D
2C05
2A70
2A4D
A8E2
AA4E
31DB
30F0
AD91
ACCC
AC35
A35D
28AA
307F
2D40
ADA0
A901
A2E6
2CE6
2CB2
A90C
251A
B1C0
3088
AED3
2CD8
2A72
AA99
30A6
AAC8
ACF5
2C1C
A5AF
A726
AB38
A77A
ADA9
28CE
234F
AA14
2C27
A4CD
AD10
A737
A9DE
ACEF
A627
2D1E
A864
3104
ACC9
A972
3092
2A3B
26F5
180F
AAC1
B28C
3155
AC2E
2529
AD8A
AFA0
2C13
2F40
A7CE
A085
ADEB
2F16
AC10
28CD
AAF1
B176
AA7B
1C79
A285
2280
AA00
2DB7
ACFF
2C1A
A8D0
274B
AC89
A52F
B030
A89B
2D67
AA76
A780
A59B
B30B
AC7B
2935
1BC7
AA16
A486
2CE0
A90A
0F96
2415
3160
241E
B0A5
9E4F
A696
AAF6
A2EC
2928
26D9
2B42
2CE3
2C29
A72E
AF3C
2D5A
2D36
ADC2
2C2F
2473
A7DC
2CB8
1620
ACC1
2A67
9D60
AA8B
29CE
AD8F
AC62
297C
AB87
AB1D
233F
28EB
2BCC
2B2B
B045
2817
2E9B
ABA2
ACE6
A939
2C6E
AD04
A4DD
22A0
B0DC
AFFF
2B5E
AC58
AE25
AC66
ABC8
AD43
AC2C
AE20
2D0B
A89A
AAFE
A8FA
AFAA
A1E8
AB36
2095
2AA2
2BCD
ACEB
2911
2A13
2140
AAAB
B1D6
ACC5
A99E
A7BA
AF5F
A1A4
B04A
2C71
B1E9
2A7F
29D5
A805
A85E
291C
29F0
B07A
A4A9
A078
AD68
2E0F
AEC1
28C7
94A8
9997
2493
AF78
AE2E
AB7C
ABEF
AC54
AD3F
ADFC
2CDA
AC1F
AE02
2532
A945
ACD5
AD87
A85E
A5B2
AD10
1F1D
A619
A728
96B1
2D02
A7B4
2446
2220
A535
2716
A2B7
A917
AA47
B119
AD17
24A0
9DF4
AEED
9DE5
AA27
1FB8
2C18
AA19
916E
2CAA
2579
2BDF
ACA7
AD07
A47A
24EF
2D3B
2C08
AC5F
24BE
ADA9
2BAC
1B3E
ABA0
A6E6
AE92
A923
A4DD
A1A5
AE0A
AE76
2CCA
AD75
A8A4
A839
1F85
2348
ACFA
B0BD
AC88
2079
A9EC
2734
ACD4
2C79
A9CD
2847
AF29
2D73
295A
2884
B036
187D
2AEB
A872
A940
26F7
A9E2
B000
A39D
29B5
AD3F
AC91
AC48
2418
2CF3
2D92
24E2
1449
AE90
2D9C
A839
A8B0
AD5F
2D5E
25B1
9D21
AB8A
264D
A141
2586
2D28
A2DC
ABA7
29CC
241D
17C7
25DA
ADEF
A7B0
2773
AE55
A87A
A99A
24B9
2BC7
28B2
AF68
1B1E
2459
263C
AC29
AD84
ADB4
A7A1
ACF5
2B0D
AE7B
2A0A
AC9E
AAEA
AD63
AF70
22E5
AF97
AA09
2A2D
2D4D
ACAD
A57A
AC43
A333
AB43
AC8F
2CD6
AA8B
2848
AC2A
97B2
AD09
A55D
A84B
AB6D
2E43
2AB0
A7CB
AAF4
3370
A84C
AC8A
253E
A942
B144
A979
2A12
2A0A
2448
28A9
2B8A
2C75
B0EB
28C9
A4EB
2C50
B1BC
AA00
9CC0
ABAA
312E
2B29
A74C
28FB
AE48
2107
2C71
27CE
A625
3048
0FC0
AF34
2DFA
3048
2CA3
199D
2745
2CF9
AD21
AA11
A9DD
B1F5
AF73
AC35
ACAE
AA0F
AD1D
AD54
A82E
3126
2274
2E02
1F50
AC2F
2B12
B0F4
2DA9
A84E
B261
2AC3
AD77
2BD6
2D0C
2D1D
297C
2D7C
A5E8
2930
32B9
98D1
AF79
2D21
AAD5
2AF2
304D
2F2A
2C67
2A5D
32B0
A603
3097
B188
2894
2BE9
1E70
8D64
2C0F
AD90
A5D3
2687
AC50
2D01
2C81
29B6
A579
2730
29C7
B088
299F
23C3
ADDC
AC22
2EFB
A4D1
29E7
2919
2A3C
28C8
24C6
AF47
3511
AD79
2B9C
22A1
2229
A85D
250A
2D2D
A176
A407
AC77
AD3C
2368
2A7B
9428
2C85
2B5A
A0A8
ACC0
ABD0
AC99
AD83
A411
2758
ADA5
A402
A440
2C86
2771
AD34
ACB9
1E8F
AB61
A68A
ADB3
ADA5
AC47
2CAF
ABC5
AA3F
AAE9
AB7F
A670
23D3
2861
2599
2B12
AC63
1EBE
288A
23A6
AA1B
AC68
27E9
A774
AB1D
2C31
AAD1
A8FC
A923
9394
A0D8
206E
AB78
AC28
2A3B
ABD8
A9B4
ACCD
2809
A5A1
2537
AD97
2930
A519
A8B8
AA2D
181E
AF67
273D
285B
9AC7
218E
AEEF
2897
ABE3
2C3F
21D6
A194
ABE3
AF9D
ACAB
ABCC
2A07
2589
2609
AC8A
2CB8
A566
AF5C
AA7D
2D53
A9AE
2A1D
AFA6
2C1A
A246
A37E
AD0B
AD52
1A4F
ABAB
AFB8
AA59
AD41
9CB6
2C56
A589
ACB0
A563
A151
A54E
238A
2D70
ACA8
2914
AE4F
A8C9
2CCB
B074
26FA
2D88
AD83
1895
23A1
AC37
ADAD
A04F
AC8B
ADE0
AFDD
1FD5
2490
2C84
2A5C
2D51
313F
2C6D
A7BF
9A11
AB3E
286A
A9F6
2C3E
AAC6
AC2C
2206
31A6
ACC8
2D3B
2DAC
2FBE
25BB
AC32
2FDA
27C9
A67C
AA16
A3D2
2BFC
248E
2EA3
2980
A61C
A921
2FCB
2C13
A85D
A577
292E
B05E
2754
267E
3225
2A99
31A0
AC96
2B67
30D4
A002
AEC0
2983
A414
2C4D
2BD4
3109
9ED4
2562
2F55
2B15
A807
A7EA
2E4F
AAE6
AC47
29EC
1D5C
2BCC
24F9
A233
2FCB
2C16
A6BA
A246
AD0A
B218
2DEC
A5F9
2A80
AC4F
2D7F
27B8
290A
A5B5
3074
ABE3
B111
B1B9
13CF
A50E
2EA9
2CB5
32AC
AA17
ACF0
B43F
2262
B204
2757
9E35
B19D
B4B4
2DB4
A9AE
2C8A
A849
A93B
28D4
2C74
AC99
1658
2498
2942
A879
AA8E
2A82
AA19
A8E4
A893
259C
AC23
2ABB
AC39
29F2
AE2E
AA1C
A87D
A81C
A8D3
A8B3
A519
A89D
AA6C
1ECD
ACA2
A89C
AC55
AB5B
AD5E
AFB9
1D3D
ABE3
ADC1
AE69
252D
28A5
AB07
284D
ADD5
A736
AC44
ADCF
2877
9D3C
A990
A969
A0DA
2B6B
A999
176E
AC5A
2A65
2D52
A947
AD3E
2092
1EC5
25A1
AD67
2383
2626
2DD5
2C48
2CEC
2CAD
A5DB
A2A5
9933
2091
AA5F
ACB7
A690
AC31
AFE2
A502
ACD6
A409
2C15
AC98
A42E
AE80
A220
A5B6
A953
A4B2
27F5
A815
2603
1C41
254B
AC23
9CF8
1D9D
A74F
25F4
279C
AB90
AB94
12AF
ABB4
AE8C
25B9
AA84
ACE9
AED0
A8FE
258F
AE1C
9C95
97BD
26A1
ADA1
2DE0
292C
2CE9
2A77
B33F
A221
2CDB
AE47
A943
9FCA
A3EB
1FA7
2ADE
2855
1D6A
A99E
1F28
AAFE
30E0
2460
AFE1
9546
AC26
AD0E
AC6C
2C63
ACF1
A08E
B26B
2497
A83D
A8EF
2C35
A97A
2E1A
B37E
289D
B056
26D0
AF62
A496
B1EF
AFF5
A92D
A575
9BBF
AAAE
AC4D
A40B
280C
A976
3069
ADF1
2FCC
2C4F
B473
A3C2
AF00
AB52
AE0A
2DCF
A8B6
AAB7
B03F
ADB1
A8EE
2DA9
ACC2
2B61
1E5F
9E93
ABD3
AC26
AF2F
AAF3
A2C4
AF12
AD66
B323
ACC2
AD11
2C27
2677
2743
259D
A920
2034
29AF
23E3
24AF
1DC2
2C5F
3291
3157
2896
296E
AD00
2858
AC29
A819
A736
2209
2CC6
A68B
B05E
AA69
AC84
ADF6
1FD5
B019
AFD1
2E57
A9CF
B060
295A
31AC
AD7F
2E66
B3AD
2B21
AA36
AADE
ABE5
1865
2DD9
2891
AA55
B275
B0D1
3021
2CEC
A9EB
B04C
A278
A7EC
3046
254E
2B24
250B
AE28
26D2
2C83
A02E
21EB
2C40
A586
295A
2EBD
A3AE
ADDB
A504
2CD6
B00D
AC7B
A803
AE2F
2CBF
2CF4
25E5
B207
2DA2
B09C
3061
2A68
29DD
2C92
2992
2184
A4FC
AF22
A6C1
B2CA
A162
2D83
29A9
AEC7
2813
AD39
2898
2825
AA78
AD5A
A623
2C2B
9E06
2B5F
ADA8
AE0F
2D7D
A7BD
2A16
A91E
A81E
23D8
2C2E
2A3D
2A64
2852
2DA1
29E5
326F
3019
31AA
A7DD
317A
25A5
2DA3
AB86
263E
A7FB
AB39
9EC3
2F5D
ADCF
9E3C
AA53
19D3
2DEC
A741
1E3C
2CF1
23BB
A337
296A
ABEE
AA63
AB3E
2D6B
2501
1F84
29BD
B0F5
2EE8
B131
ADE6
A513
2958
2E38
2FE3
AB34
2C47
A17C
9F25
2B54
2D06
0C8E
A409
3273
2923
A328
276E
22FC
B27F
AB4F
A4D8
A28F
2E12
AC28
ACEA
2DF3
ABDF
1952
2631
9DDD
33E2
29B0
2C35
2EB0
2C0A
3254
A8D8
9C76
2FEE
AC4D
162C
2D25
2B28
A804
ADC1
22E1
AC0C
30E8
A48B
2B60
2743
AC8E
2D04
AEA5
27D3
33E0
2C5B
309D
255A
AB27
B00F
2498
9AC2
337B
961F
A87A
2D13
A910
9715
A7AE
2D3D
2D23
2BAB
2BEC
A6B5
1F75
2D90
24F5
2ABF
2F27
A60C
A9B4
319B
ACFC
B41B
A975
32E0
AA85
ABF0
A87D
251C
2BAA
2EE6
A4B7
2744
B453
A622
AC88
9535
ABED
A90D
AB83
ABA8
AFF9
2C85
A302
1C7C
1EDB
2F54
ADAD
2FA2
218B
ACEE
A929
28D4
263D
298E
2DFC
AC64
3062
2CB1
2CDE
AD53
AE52
2EEF
ABB7
AE47
2D2B
AD4B
ABC3
3151
AC96
AECF
3088
A9B8
3053
2D27
A355
A969
A949
A83C
A808
278E
251D
AAB4
AF3F
B0EB
28B8
28FC
2F1E
3083
A9F5
ADA9
2C50
AD33
3012
15D9
2D5F
2FD5
A59A
9878
AF8B
20CB
ABC6
1BA5
AF81
2BB5
2FEB
AA4D
215B
A8C3
AC36
AA61
2900
24CF
302E
2F1D
9EFE
31A8
1654
AFD7
2AC5
2CA9
32A3
A6D1
A5EC
9C15
AC4A
A9AD
A8C4
A6E6
A4E3
AFB2
25D1
32C8
AD0B
A0AE
9EDB
A646
2AF8
A2A0
AC51
A75E
AC36
AEEA
A2B0
2C43
A493
222F
9D33
AC12
ACBB
3086
B024
AF36
B03B
A815
ADF2
98CB
2A15
29A7
2D61
1FAC
99B6
265E
2880
AA87
A82E
B361
A931
326A
3103
2D1C
1F22
2D66
A4C6
AF35
27B2
2CF8
2FCF
2C73
31F8
2C23
B20C
29E2
A796
2A23
AF67
A54E
9C09
A3DE
2844
2CDB
303D
2F0C
22A8
2B8D
1C1D
2ED4
ACEA
180D
A0C3
2D7A
A54F
276B
ABAE
1EC7
2D9B
A075
B05F
B1CD
2A09
A95F
9D33
2667
AEFB
A664
A23A
28AC
2701
2FC5
3068
A8ED
AA28
2783
2F31
2444
32B4
A59C
A589
275F
A902
2C3B
29DB
B0BE
AF8F
2CC7
9AB4
3056
AC52
2871
A4C0
AB3E
A882
2F2B
AC0C
25B7
9C14
22D4
1140
9CB8
AE3C
239C
AC7B
25C0
2C73
A7C7
A1DE
A252
2A9F
A56A
2CD5
B109
295C
327C
2D8B
A560
AEB4
A8BC
AC36
24DD
2D0E
B116
295D
2D75
3209
2D87
25AE
AD52
9F5B
A60D
2539
2678
2CD1
AA58
A8EA
A702
2E16
24F7
2B3C
310E
2DD4
AD2F
2FED
B011
2C85
B194
AF25
3322
2C49
AB04
30E1
2BF7
2126
2F1F
2D95
A45A
9EC8
2A7F
2C3C
3049
ACAE
AC7C
2E4D
24A8
AAAA
2982
A221
A95E
21D7
29F2
3006
2502
2552
2C7C
A8D8
B153
AAB9
285A
B0DE
A1F7
2F10
2A0F
248E
B241
319A
2CBF
AD2F
2838
AC31
2CEF
3119
0CCD
A7A0
21BA
AFC2
B3D8
3376
2F5E
2A4A
2364
AD6C
2CEC
AA83
AC90
AD53
2B86
2B86
2BAE
266E
A8AA
26AE
20CB
300A
2477
31E3
2C7F
2956
AA4B
2E18
2CDA
AFB3
B300
AC91
A4B6
A900
A53A
2A68
A82C
A572
2BE7
A851
A83F
2C73
AC7B
2658
2AFB
A377
B309
1931
3255
25FF
3022
A298
2DBC
AD18
A9D4
A533
3068
A8C9
2D07
2C4B
2684
2D7C
15D5
ADAE
2CA5
2852
B14D
98DA
222A
2A16
A7C7
2636
AEED
2E1C
308D
B19C
31FA
A823
1E62
23A8
26FC
A90A
2E46
A8DE
2C5F
2C48
A6BF
A4AA
B0CE
2194
2D05
AD5E
9E26
AE07
2BFD
AD4F
B493
ABA6
A6DB
B3E9
A477
1569
3147
A045
AE91
2E57
2D9F
A9BE
AA23
A124
9E32
A71E
A7F4
240C
AABB
ACFF
AD2E
2C15
ACB1
B032
2C44
AA1E
1D17
2448
AA6B
23D3
AE95
26BA
AB8F
2C16
AE27
A996
2840
30CF
AC81
27BC
A819
B171
AD15
2DAA
A94D
2B18
A67D
AECD
2968
B1F7
AC95
A842
2CB9
2C16
A434
1160
29DD
2D33
AA31
AB4A
2788
A543
A5C5
9B97
AEB6
1812
26C5
9F17
261C
B08E
230B
B12A
B0B2
AE22
A678
2DD6
ACF1
2D09
2823
2655
30BD
2DC1
A6C7
AC28
A76D
2AAA
A183
145B
23D6
2C61
2FAC
AAE5
2BD1
AE66
2C08
A7E8
AF7C
AB4D
AEAB
3083
B160
9FF8
AE0B
33E4
2B6C
A36C
ABED
A28D
2DFD
2859
A6E6
A976
A935
2CFE
A900
28E0
1823
32B4
2B04
2969
2E57
26BF
2C78
2081
2DE8
2BBF
2782
3025
2ED1
2D25
ABA1
2938
2814
A852
A4D6
2B26
32DD
AC65
ADA0
2D0A
2093
1FA7
A9AF
279B
2D1C
B24D
AB90
2B93
2D27
AF20
221D
208E
A08F
2B77
A581
2A88
9FA5
2B6E
ACBF
2E18
340C
A439
A3E8
AE22
A736
2A76
3133
2E07
ABFE
A4B3
AB93
A48C
A8A3
26E0
3024
A6D3
A546
AC5E
196F
ABB6
298F
2746
AADF
9136
A8A1
2567
2420
AD38
AF42
A49F
31E3
AE8B
AC12
9F6B
2E39
B2AC
305E
2136
AB53
1811
A717
1EFD
29AB
2A6D
A162
AE01
2CF4
A925
2C89
A83D
2C30
A8AE
2FF3
31B2
ACB4
A47C
227E
B00A
A94A
AD3A
AB9A
B01B
AA8C
A8CB
AC9A
2C53
30C2
3082
1A0F
A8C7
AA74
A4EE
30A9
A63C
2734
B27A
ACFE
B395
90EE
A7F3
285B
AE1F
A78D
AA5C
27E8
2C6C
31A4
946A
B219
2706
308C
AC4A
A9C0
A516
9E22
AC4D
B14A
A836
2C29
214C
2116
ACBF
2FEE
3009
A350
3112
A658
AD55
AF01
223C
AB92
A571
945E
A5DC
AAAB
A3AE
20E6
299A
2905
2AE1
B04B
AF1D
2D44
2F86
AD17
B014
B107
AB69
A8F4
B3D1
A99A
B1B1
AC4F
AAA0
2B09
2803
2C61
2D19
AA97
ACD7
2B99
AEFE
2A07
AD3F
B14B
1AD5
AF33
267B
B014
2AEB
3005
B0C5
AB47
2B28
9C86
3178
2D62
AB21
A818
2660
2ED7
2D32
2AC6
2EC0
22D0
31F5
A8E9
A9B0
A8FA
AB22
A870
A5BF
308C
2C4E
ACA4
B070
AE47
2DA9
AD46
3105
A8DE
2FA0
AAD0
2BF6
2CE6
AAE7
AE8C
2C59
29DD
A306
2906
A8E0
AF54
A4C1
A5BC
A856
A9BF
ADE2
2AC8
ABB3
B004
9353
B259
ACA8
2D6A
ABA2
220B
A7A8
B1A3
AD55
1D2C
2977
2B26
A962
A755
2D97
218F
A469
2DC8
2C20
AAD6
A18E
A83A
AC32
AC3B
B041
28EB
2D90
2C8C
A2A8
A2EF
249C
A9BF
ABE9
2C09
2CC0
A17E
ADA2
2D93
2945
2259
B15F
A183
ADC1
9D9A
2D24
2C20
B004
28A4
B02A
2AFD
3153
A9F3
9834
AB18
9F6D
AC5C
2C96
20BC
AD8D
AC5B
A960
2BE6
AC40
2895
A48A
262C
A6A9
A9F4
AED5
1357
AAA5
9D36
2D2A
AFD6
A806
AE4E
A7CF
2841
AB94
B03D
28B6
2888
AD2E
AAA3
AE14
256E
2E2E
2C18
9A59
AB40
2C21
983C
AD45
2C2F
AFB8
2A42
A7FD
A68E
AE1F
3045
26A3
A96A
B0C3
AAF6
2BD3
AA30
1DDE
ACD6
AAAC
2849
254B
AD78
2CCC
246A
27BA
27D4
A53B
AD7E
285D
AB5A
2864
9869
A2EE
ADAB
2580
2774
95A1
AD67
2BDC
AEC0
AD8E
A227
AB2F
2D91
2B7D
AE60
A897
205A
A8FF
ADEF
2656
2CE1
1771
A9F9
259B
A9AC
A83B
ACCB
2863
AC19
AC9A
A250
2D83
ADB1
95A9
2607
2B86
AD14
AA3D
2976
AD5B
23A0
ACB7
ACBC
A66D
277B
AC16
2C39
9759
23CF
AD9F
2D56
AC8F
1EAD
ABB9
298C
A0EA
AA52
2C8C
A492
AE75
AC79
2C09
B019
19A7
24F5
AACC
A9CE
ABBD
ABB4
1DB2
2A91
2AF8
2C47
A32D
ABBC
AD06
2B4D
2C5C
AF19
B0C3
A99D
2CBF
AB5D
ACBE
255C
ACCB
2CBD
2899
ADE8
A8AA
AD24
2409
28DA
221D
2155
A43B
AA3F
AC48
A795
A9BA
A868
2CF3
248D
243B
ACA2
1F24
2A0C
2D2D
AD21
AC64
AC15
2429
A616
AC4B
ACB5
AB0D
25CD
AA25
A49C
A49D
286F
ADC1
2E31
A998
9CA4
3010
2D14
29FB
2E45
A422
A5D8
A93B
AA74
236B
9C07
25D5
29F7
2BA2
AD1D
2C62
A4F7
B05C
A8B0
2CB2
987F
2DA8
ACD5
2DBE
A2C7
A191
2D41
2CE4
AA84
9C78
AFB9
AB6F
2C9E
2A26
26A1
AC3D
2C3C
AD2C
9FD6
A86C
AD13
1FCB
97B0
2E12
AAF1
2F75
A462
ACF7
2F33
A8E9
2ECE
2953
AADE
2703
2CF9
2528
2B5D
2801
2D7B
AD58
A44A
1955
AC2E
A7FB
A3AB
A802
A6B7
1626
A147
12D3
B207
9E2B
AC7B
1FBF
B395
B0EC
2DA5
ACD9
A776
AFF8
A055
2A27
ACFE
A89F
2DFD
A95A
2E96
AFD9
A46A
AA1F
AD06
B16F
ACF4
2CD8
AC51
2853
1FBC
2364
AA9A
2C35
2E33
314D
A9BF
AD17
A5DA
27EC
2C49
2CE8
272B
ADEA
2DC1
AB61
2188
A8FC
283D
ABEF
2E3E
2DB1
2C88
AD55
A5BD
3007
A9E9
29CA
2DD2
AA33
2DBA
2D39
2688
2B56
AFB7
A89C
2DB1
28F3
305C
AB8C
2967
2F16
A05B
3126
A133
AD23
A8AF
A111
A613
A485
2C18
ACDD
AA88
2CA2
2D53
AC12
2E19
2EA2
B218
337B
A6EA
A094
95D7
A5EB
ADD7
2A51
1B49
2DC1
221E
AC04
2B96
A590
2BA7
AAAA
B0F7
A725
28EE
21C2
AD64
28D5
A6FF
2C63
2CC4
A957
AE75
24F3
1C64
261C
2E1E
3005
B0F5
A8F3
B04D
2DD4
A008
AF0B
2EE7
2CDC
B3F0
AEEE
A8DE
2A8B
A742
2D13
A8C5
ACA7
AB10
2602
3139
28B1
B05C
AD81
285E
242F
A814
2CA0
30DC
A462
2D2A
AFA1
2B70
B329
24D2
2E57
AB20
B315

