2326
A28C
AC34
A56B
A52F
A970
A8CD
A92F
A1F4
14C2
9B42
14F3
259C
AA7D
AB12
9D62
A855
A883
9A47
2643
A850
A8F8
9A05
A95D
2599
1853
1895
2735
25AF
1E38
23F9
1CE8
27C4
A92F
A937
9A93
A43D
226B
20F6
A6AB
A855
26BB
A707
2637
A1FE
A8A4
A65B
9E99
1EE7
0D2D
9EEF
2486
A95E
A4C9
9D04
2638
A3D0
AADB
ABDD
A1CB
24F3
A990
25F7
2660
A10B
96D4
A50D
A483
A5A3
272F
248D
A90E
A273
A425
A7C1
23FB
A84D
25AF
A7BB
A41F
99BD
A2C1
2556
1F23
A845
A945
259C
245F
2365
A81C
9CFF
2599
1C72
21B4
2482
A804
9D78
A8BB
2404
112D
ABCF
AB86
A540
276E
2185
9EE3
264E
A915
A838
A858
AA65
A096
9D55
A9C5
A86C
95D8
A568
A812
AABA
A512
A18B
A805
A172
00A8
A207
2531
A928
A4EA
9FB4
1E88
A2A7
2165
189B
A60D
218A
2635
99B0
A6D1
27E3
A662
A948
204E
AA74
2456
A1EC
A716
A845
21FD
22E9
9A2E
9BDA
1915
A5B6
A451
AA09
A9B7
A895
A752
A479
179F
A529
2642
21E0
1CD6
A47A
A3DE
A8D2
23D7
264B
A7DB
A765
AAB0
A145
22E5
19EF
1179
A6CB
A88B
2224
A551
A839
A65D
A770
A0D7
25E3
A15E
1BC3
2244
9DD1
98DE
984E
1F56
101F
A135
A53C
1E57
21F7
9A9E
A0A1
A11F
A6A9
26BE
A190
290F
9E75
1DD8
A41A
15AC
27A8
2078
1F84
9760
9C63
A674
A57B
A6AC
2848
A96A
A210
A34E
1990
24BE
A021
A0C4
A5BB
2244
A94B
AA13
AAA5
A540
A4F2
254D
AC42
9B7B
A5DE
A756
A5B2
A6FE
AB7D
A693
A1A6
AA3E
A4B2
A20D
A040
A0D3
A687
1C9C
9CB4
A772
A14C
A93F
A6C5
99B9
A3BE
A937
1FB9
9D10
9F0E
9D6A
2699
23B7
26CE
9043
A4C9
1B51
14E4
1C21
2305
A69D
2529
A574
A23F
16F9
19DD
1546
A832
9A50
96A5
A9A7
A988
1BD5
A459
A650
A568
9DAD
A922
257A
9DE6
A159
9FD7
A656
2076
A149
2694
9D51
A421
251D
A358
226E
A129
A8C8
AB48
A4E8
9495
9DAA
A09B
A9C4
AC0F
8347
A906
A878
A934
1BA3
A95F
A127
20CD
A7F6
9C59
A82C
A0D8
A773
973C
A728
A648
A6DB
22BA
A1DC
9CF6
A754
AC63
AAF4
9EBC
A8A2
24A5
A7A0
216C
A494
A15D
AB01
A2CD
A70E
19EA
2067
AA14
1F80
1884
A941
A76A
27A8
27B8
A028
26F5
22E5
2766
2530
22E3
20EC
A8C6
22EB
9DEF
9F36
A440
A1AF
AC08
24C8
A7D3
A9BC
A26E
AB05
A91C
8E42
2380
A97C
23F8
A051
A19A
A10F
A865
A16A
9DDA
AC29
A632
10EC
9F15
9D4E
ABCF
A7E0
AA6B
A7D3
AB9B
A12C
A982
A0B5
A174
AC21
AB14
A9C1
9626
A99C
A0FD
2649
2757
1E2B
A81D
9F35
2507
269F
246B
A262
9C71
A268
217A
A932
A469
A804
A300
A08C
1908
A0D7
2910
A1AD
275D
A905
A6E7
AA8C
9277
1DC6
A481
A914
105E
1431
1B17
A86E
A4AF
A352
9B39
A53E
A074
A22F
2143
A578
224A
A898
A954
A49F
A0F7
A984
A848
A9F7
A11E
AB71
A8C6
A834
1C0A
A8A3
A500
A37F
AB93
26EA
A6D0
A9A2
A2A9
A441
AA53
A88B
8FE6
A8EC
2408
2386
25A8
A8F5
1CE3
2042
A8F6
A8AA
2445
9F85
0BC4
2697
AA1B
A500
1CFC
A052
A4B3
A042
1A36
2527
A96D
9D30
A966
A1D6
8F10
A9F5
21CD
A5CE
A862
1916
9CCB
A1C5
A431
24CB
9D4E
256F
95F0
A067
A647
A726
15BA
23E6
A63F
0CDE
A813
21C4
A634
1895
96C1
2541
839B
9C2A
287E
21B7
22A2
A1DD
A468
AC3A
AAF1
A5EC
A1BE
A27C
A895
A7C6
A7F7
9E4F
A96D
A840
A7E4
A88D
22E8
254A
A702
221E
261D
229E
21F6
1D0E
A95C
2225
2467
9414
26CE
A6DF
2117
A284
2226
9FBF
A972
1F2A
25E8
A740
1B2F
22E1
2616
2094
A58D
1385
A96F
26B1
A86B
267D
A4AD
AB34
202E
1AEE
A488
9E55
A34A
A881
A3BD
1C9F
2480
16B0
9923
A3B3
2718
A49A
A5F0
A99D
A267
A68C
AC59
9F60
AAD8
A117
A83C
A9A6
A5AD
A678
A9F0
A9ED
A9C2
A873
AC4E
AB72
A573
9D4B
A958
9863
A63E
A2C3
A4C7
1BDA
A307
9EBD
A9F2
A0F0
18CD
212F
201B
20BA
A9B4
A455
A42B
AC5A
1B65
230B
AAB4
A0DA
AA7B
A4D7
A7A6
2362
A24F
A67E
1C6A
1890
24D6
209A
A8D4
A720
1D36
9272
A8F1
1860
A550
A832
24B3
1E5D
A861
A392
A918
A8D4
A065
A8F5
AAAF
A966
A8CA
A83A
A47F
A2D6
9C4C
A78F
9F0D
AA19
9F78
A1A4
AA3D
9F92
A4BF
A846
273C
24DB
A5CB
A5C9
261E
9B2C
262A
13C0
2841
1CDD
0E64
2706
25D9
1F65
26E2
2099
282A
A40F
2786
28B7
A1D5
A488
26E6
26DE
A424
A67A
A807
264A
268C
266B
25B5
AC39
A74B
9E46
98B6
A064
A658
AB46
A9D6
84DA
2618
A057
AB15
AC55
A181
A94E
A9E6
A7D1
A848
A747
AA6E
A933
A7B3
A7D4
A935
A344
A6ED
A64A
A7C1
A927
A6BA
AA3C
AA1B
AC26
A750
2271
24F5
A077
A648
242D
A32E
A570
A601
A531
A7EF
1F3E
269F
A87E
A3C5
A71B
21F3
A8FB
27FD
24BF
2614
A706
25BD
A51E
A861
260A
2750
2360
2686
A55E
1892
2939
A792
1BBF
04A7
A4FE
26AD
21BD
99FD
9DCC
A834
9C1A
24CC
A95A
A79E
A473
A6B5
950E
1FAF
2459
A88B
A5E3
A1FE
A206
A741
A17F
A8D8
A090
1F85
9F06
0608
A0D4
A178
25C9
16FB
A4EA
AC13
2052
283A
29C8
2E71
B227
AD81
B284
ACE1
27C4
B194
B1A3
20EB
A66F
A855
9DD5
2BC8
2A10
2B95
2F9A
2A35
3244
30B7
308E
322F
239C
9F03
19D9
2500
9F7D
A665
A2F6
2996
234C
A4CC
A1A8
294D
2839
9E6E
9F96
A53F
A4F3
2728
28CE
283C
2496
26BD
2576
9C3B
AAA6
B270
AF6C
AA3F
B2DB
B1BA
AD50
2D3D
AAF4
AB5D
B11F
20B8
2A4C
30FD
2A06
1FD9
2F0E
2D1F
316C
290C
3238
3255
3230
2D7A
1A24
3074
2B20
2901
2738
295B
ACC2
93B5
A315
24C7
1BC3
2741
2C9D
2C30
1905
9434
A45A
2B4F
2890
2C37
2A6D
1AE4
AC0A
9881
2978
27AA
27DE
2ED2
A6E2
ABAB
AD96
996B
ABB3
ABFA
A8EA
ADCC
248E
2B41
A4F4
AD95
B072
2A87
28D6
AF40
A8CD
A8B8
2DE2
A0EF
262B
A063
A77A
2307
3107
A93D
21CF
2E21
2DDA
A10B
2A92
28EC
26DB
2DFC
17A6
1DD7
2DAB
2A4C
24EA
215C
2EEB
2F85
3054
3015
AC2D
2D68
33F8
3214
30FA
30B3
2409
A49C
9DD4
3163
2A6A
A832
AD38
ACB6
A041
2D70
19B2
AC4E
AC96
A875
A904
A579
A856
AC8F
A8AD
B23F
ACEE
A780
B08A
ACC4
A434
A72B
A806
AC49
2964
A3B6
2F85
245D
A7C4
2803
28D7
24E6
9B49
A7CD
2563
2213
A6CB
AF45
A67E
2628
A249
A137
2C7D
2D44
2E03
3194
28BF
2EE5
2D10
B0A7
2812
2ABC
2D05
A633
AA9A
2ACC
2BE4
A89D
14E8
AB06
255A
2CBA
AF69
A650
B05A
2866
A937
AE59
A7F1
ADEA
AE2A
AEDC
ABE6
296D
2A1E
A555
A66B
288B
28AF
2293
2DF1
2B71
300A
30F2
2B74
2C56
2F9F
3187
3039
237B
26F5
2C2A
2D9A
2C1F
27A1
9D2F
AA0A
AB3E
ADA9
233D
AC98
A52E
AF95
AA66
AA80
21E6
282D
A64F
2B37
2894
2C52
A814
2CE7
3024
2E97
2D66
26AF
2E61
2636
30BF
2A1E
AE7B
B06B
B1D1
AC90
A8FB
AD1C
B30B
B180
B1BF
2D47
ACC5
AC74
B2B6
B028
23BF
2B94
250C
23CA
B024
2907
3222
31A4
2A54
AE1D
A8A5
2D97
2723
99B6
AD7D
3079
2F4E
2A28
A973
A141
2E9E
2DFB
A440
2409
A447
2C4C
294A
2AEA
24B0
AC68
2DA5
AA15
AD79
AE7A
B0B6
3146
28A9
2D99
2FA9
2E60
ACA6
AC76
A67A
A086
B102
A9F4
AA06
AA05
B034
A6E1
AE00
B237
B13F
21C4
AC75
2D00
2B42
ACD6
ADDE
AE5A
2C3F
A419
AE32
236A
AA02
1F24
A297
2468
2D65
27CA
9EA0
B129
9CD5
ACE6
2521
A3AA
B491
ACA5
AE64
97E3
AED0
AF91
ACE7
B020
30C3
AC9B
AD8F
B008
B207
B17D
AF4D
AB2D
AF62
ABEF
AF36
A8B9
2941
A051
AC4A
B0B6
AF60
ACC2
AAFC
AA83
B03F
B0FF
AFA5
ACAE
A70F
AD20
1777
A849
2525
25B3
A637
A111
2347
286B
A25E
9AB6
256F
23B4
A76E
A2E4
A7D6
0E53
2210
A91C
16B5
A8F8
A4D9
A994
A754
A953
1DCD
AA82
AFB3
AAEC
2BC8
A9E7
2E43
13EC
ADA1
2B12
AFEF
A954
2F6C
1D8B
248C
1DBB
2A5E
2CBF
2F99
2D08
270A
2CB9
A3F5
2CB1
2425
2826
A4FE
2EFE
3053
2D33
2C8A
A533
2EC7
2E22
2D8F
2C38
2CA5
304E
2985
A323
AC06
20E6
26B3
15F6
A25E
AE4C
AB6A
AFD4
21E3
A4A7
B02D
3299
2EAF
29D6
A706
3181
2AF5
2B87
2CA2
2F7D
2E96
265D
1FBF
A25A
AB27
1E36
2A5E
A87F
A545
2173
AE7D
2678
25AC
A6C4
25F2
AD72
2375
2541
237E
27E1
244A
1FB2
A68A
9C6C
20F3
215A
2720
9906
2856
A8AE
A86A
A9B5
A51B
2811
A349
2853
9301
974F
2633
A20E
1D30
3132
2C2F
2CCC
A8C6
2AAF
2E73
A453
ACE9
A498
A668
24BC
A47B
B0CA
AFFD
AC59
19D9
AE9F
AF11
AF3D
ACC8
B00E
AA68
2C67
AE5A
AE7A
2A52
2F4E
2D45
2525
AD00
248A
2F95
315F
28AD
2CBA
A2C0
2AB3
2D5F
2941
3036
A8E5
2C41
29E4
28EE
2A89
AB0A
A01B
8EB8
A37D
9ED2
A525
1F70
1F4C
1CA7
2BD3
291E
2191
A573
25B0
2AFC
A4C4
AA64
AAC7
ADC7
2C35
AC75
1CB2
9DDD
A0B5
2DA6
A3B4
AA8F
AB42
2AA9
2D39
ACB3
9C47
2702
2C6E
2F01
A896
2987
AD44
A9AE
2BFB
2A43
A40B
AAAB
2933
2C61
2DC9
22D5
1E87
A985
20D1
1B54
2403
244B
AAF7
A0E5
1EBF
AF98
AE48
AD5F
27DF
2EEC
A6F4
2CB5
2868
A9F3
309D
3056
2BA3
A961
2E78
2FE1
A849
AC2C
AEE8
277E
2D60
2904
288B
A276
2C11
AFE7
A0FE
AA09
B074
B096
AD29
ADD9
B292
B108
B205
ADBA
AF14
9AA8
A870
AEED
2A5F
AC40
AEB2
9A08
ACD6
277F
228C
28B0
9854
A7D4
A167
9A42
A6B1
2C55
8EB3
AC8E
A8F6
A7B3
2EAC
258F
A896
A045
2CD4
2957
A4BC
A60C
25EA
1E72
A4A6
A65F
A25E
2C3B
244A
1ED9
AAC7
2AE8
2D70
2D29
302B
29AA
226D
9DAB
B027
29D5
A8BF
2347
29C1
9ABD
AD0F
298B
31EB
2FD8
3041
23D8
2B65
31A5
30A3
2E1B
2575
ACF2
320A
3272
2726
2D5B
2E73
300A
3023
2E33
2DC3
309C
A98E
88A7
219F
1C6C
2AC0
295F
A8CB
A076
AD54
2C37
24CB
2C38
A8FE
2003
2F98
A253
AAA1
AB96
A4FA
A9E0
24E1
2629
17A3
A67C
A1AD
1F8D
9B0F
281B
9B0B
A6D8
A9F0
A783
2133
A2CD
1A41
A984
1D71
27A2
224F
2019
29DE
9FCE
2C99
2DC5
3008
2712
A16B
29CE
2AA8
ABFD
A802
AA41
AD74
A4A4
19E8
AEC4
27D1
2768
1BEF
1333
A59B
A14D
2C66
2912
25B6
2556
97A6
AAEA
AA3D
1B9A
A331
A21F
A7DB
A919
A531
26BB
986A
A8C8
A70C
A4A4
A219
2055
AC69
AC18
A658
A3EC
A890
9D44
A44A
A91B
9A9C
A7F0
26CB
A904
A5C5
1DE8
A4C8
A261
26C8
A8FD
1DA4
A18F
9AB1
A64B
A44C
24A8
A50B
A7A0
25A6
A6E4
258F
A74F
A202
A543
A617
26C3
A844
8B92
A1E6
25FA
2948
967F
9E23
879A
214E
275B
A829
24F1
9F45
9C3D
225B
A8D5
0D64
A64F
AB9C
A98E
A7CC
A682
AACF
A88A
24F6
9912
265A
26DF
23BF
2662
2433
A65E
A8E4
A87E
A8A2
12D1
2496
A315
A23F
2332
A4A8
A196
25B3
A681
2003
A7F7
A23D
2190
2687
24F4
2AD7
A08E
2158
A7A2
2B09
289A
290F
2935
29B7
2CE2
A565
1D18
25EA
2566
9A9B
A34B
AA3F
261A
9AA5
2899
105E
26D0
2516
2407
2A7A
2AF3
230E
A98E
A820
2A3C
9B15
22BD
A909
ABF5
29E0
2760
AC06
AC68
2B3F
9E60
29B3
19EB
A682
2B22
20A6
2770
A684
A5C2
A912
274B
AC65
A432
A026
A858
9F57
A047
9ABC
AC2C
A95D
A500
A5B4
A77F
AB79
A6A6
2373
96E5
A841
AA65
A576
A22D
A984
AACF
A610
AA13
A520
ABE7
29D2
A881
A25A
A692
A943
A4D6
9AE4
2A4D
A92D
A239
A620
1EB3
A3CB
A9DA
AC46
A6B2
A6B3
A1AE
1223
AB2E
9D2A
AB2F
211C
9DE0
1606
A821
AC24
A45D
A408
9E8F
A3FF
A5C0
2638
A087
A410
2020
A1ED
A70A
A993
A01E
A8FA
A818
A5D8
A8CE
AB46
AAEB
2414
267B
285A
A8D6
9CF7
9D39
AB7C
A16E
AC24
A3B8
AAF4
A81F
1C1C
28DD
292E
2B80
2234
2BB4
2CC5
27F6
1D4D
9DF5
A11E
A93B
A469
AB79
A751
A756
1A49
A4EA
A22A
A88C
9C3E
AA02
A377
AA6B
22E8
A75C
ABA2
2216
A88D
9438
9ED0
AB7C
276B
2A5D
28B8
A939
16A3
18A6
A57F
A938
A5C4
9752
AA80
A95A
9CB1
A8AC
1BED
AA20
A8D9
2539
244E
A5FB
9AD7
220B
A7EB
ABEE
2810
A811
AC0F
A121
9FB5
A393
A289
ABAB
A89D
A95D
A23B
A6E5
A57E
ABA3
0182
9B49
AB50
2202
A387
AB83
9F09
283B
2AEC
AA7E
AA3E
A9A7
A96F
A6DF
A869
A5FD
A92A
A9E5
A853
A548
A908
9E62
AA56
A5A6
AC0B
AA1D
AB40
A143
AA78
A4B6
A4FF
1B77
1AAE
AC0E
A4AF
9B01
A936
A815
A93D
AAAC
AC48
A8DE
A59E
A0BC
A9FF
1DD6
A57C
A152
A681
A8F9
99C9
A9A6
201C
A7A8
A65C
AB30
AB42
9E1E
A5D0
A989
264D
A875
251A
A97B
ABC0
291A
1F57
9E4F
AB2E
A5FA
94E5
2703
249F
A9C2
AC18
9B07
A364
A787
ABBC
9F58
A7CF
906C
A659
A801
A177
A915
ABD1
A92F
17FF
A115
A4E5
ACA7
9E98
A695
AC19
A92D
A413
1AEF
241C
A22D
A8A8
A933
2601
A824
20C9
26EA
9915
A711
9E63
2127
A878
20E4
9455
A4DC
236D
A87D
2217
A75C
A91A
A4A7
AC36
A24D
A466
A422
A9CF
A618
91D9
A6D8
208E
AB23
AC64
99EF
A9A0
A4A0
A9D2
A8E8
A83C
AAEA
A0F7
AA28
26E3
A5D4
AB66
A4AA
A526
AB61
A07E
993D
2297
A6DF
A42A
A45F
8FE6
192D
A2DA
A51C
A4C4
A9B3
1F7B
2B6A
A626
A38B
9FFE
2B2A
97D0
A453
A8DA
AA30
AC1A
2B4F
A960
1DD3
A603
9DBB
9DD5
A8D2
A96C
A93F
0B4F
AC5B
A116
A966
A3C6
223E
A9D2
AA27
A029
9A48
AA5F
AB0A
A9DE
AAC9
18E8
A54C
A60C
25EB
2086
21D9
A852
9D95
223D
A818
A783
26F1
258E
27A8
2447
2514
9F04
266F
A05D
270E
24BE
A11D
A49D
23BB
A790
9C68
A76A
9475
9D2B
A544
A8BE
AB97
AC8C
AB7B
A410
9C4D
ABA1
A61F
A766
AC89
AC6D
A9CF
AC07
A6D9
1CFA
24C9
20E8
A71C
29C0
2375
A653
A426
A893
A960
A494
9D52
9EF8
AA58
AC97
AB05
893E
9F7F
AB2E
A9D1
ABEE
AC82
985E
25BF
A63D
A92C
AB56
98C3
A28A
1802
A945
A80E
A97E
AC7D
A690
1ABB
1CBA
A997
ABF0
AAE3
A92C
A37D
A345
AC3D
AC88
AAC6
AA95
AA17
A9BB
285F
2158
A859
A905
AA4B
AB8E
A83E
A09B
A9FC
19E6
29FC
9F3D
A960
AC06
AAB7
AB5F
1F57
9A58
AC90
A82B
2808
1BB5
1A4B
A50A
9C0B
2401
2CB2
1994
A983
9A70
2154
A893
AA5E
AACF
A91D
2611
A0F1
A38A
202B
A89F
A817
A909
28BF
2719
ACA4
A460
A4EC
169B
8C19
24C9
296F
AB24
A8A2
A4A2
A47E
A005
2929
205C
A877
AC9D
AAB4
A64D
A7D9
AC66
A011
A1D4
A7BC
A0FB
A723
AA51
ABEA
9DD4
133A
A8A4
A275
AC35
AB93
9CE5
A398
2211
A91A
AA02
AC34
AAEC
A666
A2C5
21E6
A4C0
A0A0
A0D0
234C
2771
2600
1EAA
A721
254A
21DE
21DD
2743
2512
26A8
9C48
9EE0
A804
243F
A863
A38C
A684
A790
A37C
A924
AB3F
A1EC
9F5D
A27D
28DE
A814
A6ED
A7A2
A8A4
1CEE
1EFC
291B
2871
A5DB
A79F
AA45
21FC
27D4
9985
AC22
AC97
2435
A851
A8A7
A4F9
A26B
A842
AAB1
A105
2AAA
A14E
A658
A971
AC96
A282
289E
ABC0
258C
AC8A
2615
A963
A909
164B
A7CE
9A1C
A7E2
AA4D
AAB8
9A0E
A833
A0B9
A30B
A7B2
17DA
A2C4
1B5F
A684
2132
A1BE
2475
A948
2363
9CA1
A764
276E
A860
2145
989E
A731
A70B
2542
9C0F
A8DB
1E10
A269
A809
207F
165D
241C
A8D9
A600
2573
A8CD
A796
ABA4
A7BF
2988
AAA6
AB4C
A760
A5BD
9DA5
A756
A8DD
9F8A
A1EB
A5CF
A890
AC9B
2A14
AD17
ABA9
AD38
AAF4
AD05
254A
A96E
AC21
A465
2676
AD1E
B12E
AC89
1FB4
2E0F
9745
ACB3
2458
2BDA
329A
2FD8
B077
AF3E
28FC
A572
24B2
27C0
1B2F
2950
100C
A79F
9CE5
292E
A4CD
A867
A735
292D
1E9C
A045
2438
2859
25FC
A781
1D88
A56E
27B9
28CB
A508
24B2
AE3F
AC94
AD9B
B05E
B047
A97B
A549
2B41
283B
A82E
B00A
A9BD
A34F
29D0
A928
2499
27C9
265F
A573
9C16
A4C4
A8F8
205C
A4D0
AD72
2481
A7F2
2AFE
9F68
A9D6
9603
A37F
2689
2685
AA24
A59E
1913
A29C
A921
A925
A8C1
27AB
2624
A5C5
24A5
AA0B
16C0
9EA6
A0B0
2824
2FA0
288F
2706
A0DD
2820
2B0D
2CCC
2BE5
9FEA
A196
A448
28A5
2CA3
28B2
1A5D
9E67
2723
2D68
2E33
2E5A
30C6
2CB1
2F2B
306C
2D2C
30FE
2D15
2E36
2FF4
2F0A
2DB0
A805
AEBD
A921
2B89
30AE
2B52
2672
2C1C
3255
3087
2590
ABE4
9A5F
2FDB
249B
B070
B03A
AE23
AAA2
301E
243A
15A8
2821
3047
3022
2B69
239C
2404
2D05
2DA2
A455
A4EE
2097
29E8
A049
A9DF
A147
28C2
2C81
2926
1D17
AA1C
209B
AC58
2148
2C8D
3176
2D1E
2FC5
ABC2
25F8
ADCE
B38B
1B78
A852
2D0A
234A
288C
30B6
206F
3012
2C4E
2EC8
3230
B008
A999
291A
2B14
2FFE
B22E
2C61
3277
31DC
2FB8
B0BF
2F4E
2223
2A8C
3078
28C1
2B2D
1C0C
ABA8
3071
AAEF
A8CB
2C04
9D69
2C9B
277A
A5FF
241E
2A45
316B
320A
A06B
AF3F
A0F4
31D5
2F69
AAFE
1F01
1D54
295A
A6D3
114B
2565
2403
2BBD
28EF
28CA
A79C
99B6
2D11
2F74
318D
2CA3
2EDD
3120
9F03
A5F0
2435
2E97
2F19
A277
24F1
ABD9
295E
2FAB
2744
1D27
AAB2
2FD8
3197
AD68
AC60
997E
2AF6
30EA
A845
2916
2C7D
2FBA
3417
AC7C
B02A
2870
A075
3030
AF96
AE71
2C90
A4E3
2E72
2917
2C9B
2EE0
278D
2D18
2E3B
240D
2E1A
25A5
319E
31A5
2FC9
252E
3083
2E73
B419
AF0A
A8D6
AB08
AE81
A77B
30B1
2CF3
3018
2E34
AB42
305A
2DBE
2E86
31A8
2E95
2DB1
A0A9
A167
23BC
B19E
AFEB
B400
AF82
B38A
AE1D
B0C1
A02E
29C5
AD7F
AE66
AC0C
2731
A0FF
ACC2
ACF6
B05B
A970
ADE5
A7D2
27E3
AC40
A8C7
AB33
9F84
305C
21E2
A5BA
AE6F
AEE2
AC7F
2A76
2F93
2C1B
9F10
AC8F
A873
1800
240B
A694
A89B
AB3D
A4F8
AA7C
A9D8
A930
2758
2EF5
22DB
2E93
B146
B0F2
ADC0
AC4B
287D
A515
28EB
A866
A719
AF2E
2025
228B
A9C3
AE22
B0E5
2809
2CFB
20A0
AE0F
B01A
9FA2
2DDC
2C7D
269B
B143
AE56
A8AB
1558
AA8C
B3C6
2575
957A
A7E9
2A74
A59D
A8C0
A506
245F
1D63
ABE8
A094
A99C
00B9
A874
A940
A563
A9A5
A691
A8D8
AA08
A5C7
A5F6
9AE6
A1FF
AC05
ADB9
AE6A
AE89
A2A2
181C
B079
2577
9595
295B
1CCF
AF13
AEE7
B23E
B2E6
B09B
A792
AFB6
AF75
B068
A91A
B551
B343
B2BF
B102
B021
B262
ADF6
AC37
2EA4
A9DD
B012
2BBE
2B99
30B1
A0CD
A916
ABEF
2AC0
2D67
A6D5
B084
B149
B138
AF49
AE64
B03F
ADA3
ADCB
B041
B241
293D
2EA4
A7CE
2BD1
A69A
2BD0
2666
AADC
24BD
AD71
2AB0
AE10
AFE5
AD0C
AF48
A187
ABE7
ACDE
AC27
A276
A7BC
A130
A11C
AE7D
1353
A4F1
A5E0
1212
A1C2
A0A4
1F3D
26A7
A7CC
A465
275E
A3FB
24E8
9E8C
2556
28FB
1DF3
1FB7
A67D
1E47
2650
A137
2830
1FBA
A222
A4EF
2E1B
2468
ACA3
ACDF
AB7E
3310
2EB3
2957
26FD
A4F4
3449
2749
A99F
A916
2F8F
34F0
AAE3
9F40
A651
A2A7
2656
9190
AC11
AD65
AC77
9142
2956
30CD
2FFE
AD77
9ECA
2810
30BE
2802
AE29
2507
2A1D
1C24
A820
A8D3
A784
AC56
27D6
2398
AC9A
A4C3
AEFE
AE8A
AC8F
AC86
B116
B15D
AEA2
AD68
A85C
B05E
B022
B201
AA2E
9F28
B1D2
ADD2
A9E3
ADC2
AE25
B26F
ADEC
A8F8
A010
AD8A
ABF0
A80E
2A31
263F
1DD3
2C85
2B2D
A8EC
A76B
2CE0
AA85
2412
2030
AC9D
25CC
AD12
A422
28A4
A3FC
26C0
AC56
A2E5
AFB3
AB92
A56B
3062
201A
A89F
9D86
24E6
AF61
A980
A94D
AD75
A669
2B6F
2BC7
2947
303D
2773
182C
A187
2D5A
AE61
ACBE
2063
141D
242C
B08F
256C
1FAF
AADC
A491
29E2
30DC
B41A
B06D
890C
28F3
AE1D
AC04
A9C1
26BC
2BC5
A346
AC4C
2DD2
2D34
2142
2824
AC96
287E
2CA5
2A2C
2D38
A118
2460
260A
1BFF
AA76
1F76
280A
AA83
A92A
24FA
A8CB
A8F3
9835
9C1D
A6C6
A8E1
2811
9BE5
9D92
2940
2053
A3FA
ACAA
AA53
28EE
2365
A909
A506
A72F
231C
B207
AE25
ACAE
AEB0
A8CD
B010
B1C5
AE3C
9CBF
2475
AD23
AB78
2C0B
A84C
A7F3
2AE3
2F78
30A5
29F8
2F48
2FFB
2BFD
2828
2DA0
2C11
A951
A4B5
2952
2F32
240A
AF13
A482
2DE8
2C8E
A9CF
ACB8
8925
1EC8
28F3
9F8C
AC5E
2B27
8B46
2C22
2560
AD17
A260
22B9
2D79
313B
27D6
A52F
18FF
AA09
9AC8
1BF4
28B7
29EE
2815
25FA
A443
2548
997A
A568
9C84
1E78
2AEB
A1DF
9849
2622
A91E
25A3
1D25
1D35
A88E
2932
ADEB
A6F4
1D9E
297F
16F7
AD35
ACAC
2438
2321
ACD1
A4D8
A5E8
AE38
A029
9F6B
A87A
A434
AFF9
2C25
AA51
AD68
A97D
AC2E
2784
2603
A951
9C24
1E6B
A831
A51F
1E3A
1555
1CB9
A532
A304
2497
A452
9842
22ED
1E79
2279
A8C4
A469
A71F
A700
9030
A668
A4A9
228C
A5A6
211F
A109
2594
A64E
2265
1FA1
A4E6
A838
0947
A06E
20F4
2877
1E06
27F1
249E
2607
2661
9EE7
A698
9F9D
9E26
A79C
225B
2634
26B4
A6C5
A500
A717
26D7
21D3
A601
A306
A959
9FD5
26E7
A6A0
269D
A20E
8F57
A3CD
252B
A1A3
A7D7
9849
284A
A217
A7DB
A503
0358
A72A
265E
A5E2
9F29
A439
27DA
2664
9EE3
A6DB
A41E
A2D7
A76C
A0CD
9CE6
A3D8
A782
24F9
9B89
A72A
A577
A081
A453
9559
2425
1FE7
A68E
1F65
A40D
20FB
A71F
A86F
A496
2384
A43E
2543
183B
A575
9E0E
17EC
A8C6
A6BB
2065
263D
9C76
A0CE
A43C
A92F
A1DD
23EF
A1E4
A18A
266D
24A2
A81D
A866
2128
9A0A
A4A4
A58B
A4CF
203A
21E3
A7D4
271A
20E7
2583
9E7B
21A6
9444
A854
A33C
A94E
2454
20CD
269B
A2BF
A621
2270
1EBD
A295
A386
A6B5
A812
A6F6
2680
9E3C
A169
9198
267E
9C24
25B0
23D8
2512
1E10
A549
A8E5
2100
986A
2467
A860
232A
154F
A52C
A8AA
2316
A5CA
1872
A905
A86F
241D
9932
A914
177F
A943
A8F8
A8E9
23E0
209B
A692
9DB7
9F84
A815
1CB8
A748
A8FC
A90B
221D
A739
166A
1DBE
209A
A355
A089
A94D
A572
A6A9
A4A2
A15F
1F6B
21AE
A0DE
A347
1DB4
242F
0E21
A625
9BDC
25A9
A802
A90E
A930
A532
9595
A691
156F
A7EF
A90F
A621
227E
A7B8
A4AC
A903
A4B2
A7C2
9C71
A7DF
2084
24E7
255A
A304
9F0D
983F
26A2
15D8
A65B
A43F
A94E
A79A
A207
A277
9C74
A68C
9FC2
2169
19B2
1EAF
A8CC
2265
A8C4
A4D7
A291
2411
174E
A85F
267A
A0D0
A8A8
18B6
20C0
11F7
9420
252B
A4C1
A1D9
A44B
A808
A442
A2A9
A0DD
A7FE
9BFD
24B3
2683
2696
242E
9BDF
A776
156F
226E
2203
2587
A106
A6F2
2591
251B
A305
23EA
186E
969D
22EE
A829
A6EF
A45E
A5A6
9F37
9933
A94F
242C
9CD2
9DE5
26B1
9D54
A8AC
265C
97D2
9AAA
21D2
2296
A105
1871
A8DD
A4F5
26FE
9EDF
08B8
2625
21C1
98A2
A0D8
A959
266F
A652
A80D
219A
9F5E
A7DB
2107
A81C
2120
250A
9F1F
A712
A8F2
A545
A4F3
A6E4
A910
267B
2277
A4BC
22C1
A2D5
8D4B
219E
9D18
18A5
99E1
A8D8
A4B6
A95B
2484
20C9
25C7
2436
1D47
A745
A6EC
A88E
A8BA
A949
A3C5
A07D
1E02
9E6B
1C4F
9D20
A73E
A6CD
2336
26F3
234C
1E64
A421
A428
A8CE
25C1
A758
26AD
A8CD
21EF
A03A
252D
A654
A775
A6E4
2696
A842
9F78
A0EC
A42B
A758
23A3
A230
27D9
2790
27AA
A1DE
A1B0
A147
A854
9C0C
A40C
9C5D
8E60
1DCF
24BB
223C
2863
26C1
9C9B
270E
21E0
A6A1
A844
A830
A51F
A64B
1C0D
1DCF
A794
246F
A7CD
2738
A6D8
A613
A767
21A5
9ED1
20D7
265D
A4BD
A5AE
A922
A17B
A716
20E7
9A82
1804
2447
A53E
2650
214E
26D0
268E
A762
A731
204C
1FDA
2095
A39F
2367
27A0
A2FE
9EEE
1552
A13F
A3D1
237F
24E1
2523
1FA3
A1B0
A891
2336
A901
9CA8
A2DF
A537
9794
1272
A768
2056
9F23
A8B6
A863
A597
A85F
252C
A17F
A8A0
A829
2057
2640
A837
2647
A638
A0CE
1234
99C6
8EF7
A525
9C55
2477
21B6
A551
2713
1D29
98D6
134A
A52F
2763
2095
27F2
27A2
9025
A61A
A471
225C
9BCB
A49F
9A3F
236A
A438
A540
2459
0CD1
A52E
222D
1B83
1FD1
A376
25D8
A854
2725
A52C
A8B7
24EE
A6C4
20B7
A453
A0AC
A7E6
A0BA
A4C8
26E8
20EC
A4F0
A8D1
99EE
1F62
9C49
A59F
A8BC
1C06
A57A
A883
1A52
A895
2341
A6E9
A50C
A549
A65D
A857
25C4
A89C
9E60
A534
2481
162D
A756
A875
A7E3
2082
A466
181B
1879
A3CF
A156
A80D
2657
26CD
2118
1C79
9C81
9F52
A90E
9E6F
26F8
9C9F
A77F
2722
A187
A0C9
9C41
A830
A604
99DC
19F4
270D
247C
266F
0AFB
A455
2180
2608
A930
269F
A1B9
A502
24E0
A205
13DB
96E4
A4E8
23D3
20A4
13FD
9B75
258C
2600
23E4
26A5
238B
2668
A90B
A538
9884
A395
A950
255F
2742
9985
9454
A90B
9DA3
A815
9965
A843
A2BE
23EC
9DA0
242A
A942
251E
A575
A59C
A14E
A728
A0AF
98B7
1FF1
A5F3
9F9C
2709
A8CE
A65F
A750
A796
A4E1
26D4
A8BA
A779
A85E
2197
998E
9E8C
9BD2
9C6C
A767
2494
A4ED
26F6
A4CC
22B3
A81E
2850
2073
A544
1FA5
A874
9694
9E67
25BD
9CC5
260D
A379
2412
A859
26D3
25E5
A6BA
A69F
941B
A846
8C8A
A884
9E55
A84C
17B3
2688
A48B
20F0
A404
83FF
A8D6
A8E6
A883
A744
A052
2382
237A
2435
9E56
26F9
A03F
A149
A12A
1E87
9E25
A680
A1C5
9BC4
24A8
A868
1DBE
A8E0
2628
A624
1EF6
A778
A4A0
A688
A6DF
2016
23C9
1BD7
1E1A
212E
2364
A95B
A964
A43E
A777
1C0A
A809
1D7E
A48F
A7CF
A304
97B0
9E42
2286
2556
1ED9
A06E
1934
2100
A0D1
1D26
285C
2302
A84F
2814
A62F
25A1
2885
2406
A6E9
A1E6
8DD5
2369
2666
2120
9866
9E4B
253E
23F5
9F12
2474
A7AA
9E53
A846
A83B
9B44
2719
A594
A84A
24F3
A41A
A217
2377
A03B
A890
A4FF
A44E
28D0
A79E
28CA
2537
AF58
AD33
A84D
29F9
2B03
2F73
A854
1FB2
AD2D
AC50
2CCC
28A8
A657
ACA3
9F04
AD48
2B53
28A1
285B
290F
9A42
A43D
1F87
24F6
A592
23F8
24CF
A693
25C7
2164
A41E
21E5
2367
26A9
1173
A29E
27F8
2145
26F2
1E80
A2A6
28B8
2282
A05C
2919
B15A
AD4D
ADB6
AAFB
AAB4
AE59
A812
AC16
A818
B098
AF34
AD27
A077
2864
2F37
26C1
9E8B
2B3F
3054
3200
2DD4
2D6D
9C07
2E11
2D52
291A
2CC0
2B81
266E
23EF
9CF6
1EDF
26C4
2B15
21F0
21F6
2558
2903
24DA
23DD
AB91
ACCF
A11E
A51D
25C5
24A6
9D2A
A850
A14F
AA3F
AF75
AB5F
AA2D
27E9
AE94
2E29
2CA7
8A9E
A27E
ACAA
3129
2C96
2352
AC72
301F
2FDE
2A8F
23F4
29DA
31DE
2F2F
2C72
2DA6
2D8A
2E7C
2F55
27EE
2B0B
2C91
280F
2875
2CF5
9E9A
AC17
28B7
2833
2BEF
AEE7
AC64
310D
307C
2877
AFD3
A20F
326B
AC55
AE27
B10C
2A42
2D61
2FA1
2E95
A7AD
2D7E
34A0
2C82
A435
A3A3
2169
326C
22F9
A846
2549
200D
3120
307E
2CF4
2D70
30D1
3040
2E59
30B9
3024
2D7C
2EE5
30F6
2C5E
29FC
2639
2EFD
2D4B
2C5E
2099
B215
A6CA
B038
A1D3
A891
AC74
2489
2DB3
2C1C
B253
B385
ACA8
1ACB
AA8F
AD4E
B3D2
AD0D
18F7
2035
A85A
2AA8
3012
A727
2892
2DC4
230D
AD39
AD7A
AC73
19FB
AD53
AA2A
B1B9
298B
A886
B055
AA4F
1931
2C04
A9CF
979B
A77F
2520
B15B
B13C
AC26
2D08
2E8F
2743
A4DD
21EE
2FDE
31B2
28C7
AE74
A404
30B9
3169
255B
AF0C
28F2
3127
2A99
2E3C
A386
2CDD
3034
B042
2250
26A1
29E9
ABD2
AEB1
3161
2DF1
26AB
AF12
AC53
3015
A835
A9E6
2932
A851
216E
A41D
29F7
2A87
AD11
121F
A401
1692
A4E3
ADAB
B229
B0CA
AB53
26F0
AC5C
B074
B0EE
AB37
A4C8
B0B4
AD32
A893
AC21
AD25
AEE1
ACB5
2CDB
2659
2C46
A9F6
1C04
A5E8
2B97
AB61
AE47
ABB0
AC20
AC04
AA73
1D25
26E5
23C7
30B1
30CC
209A
2A1D
A4F6
2BB2
2B6D
317A
2968
2CAC
2D83
2CC7
301A
2839
2BDE
2E0C
2DE8
ACD4
A983
AC18
24F2
9F54
A836
A387
2564
2E11
2C45
AEE7
299F
2D6E
2D1B
A06C
AA8F
190E
A8C3
2834
2A6C
2929
26EE
2255
A3FA
2289
B074
AB75
A984
A256
A50B
ADE1
9678
A76E
246A
AB3B
27D4
2C40
1C2E
9E1A
2AA3
26C9
ACE4
ADF8
A2DA
AB07
247B
ACBF
AC1B
A870
A8D5
ABD3
A00C
258D
A65C
2A35
AF33
AC11
A661
A8DC
AB11
1BEA
2BE1
2111
AB57
AEEF
AC7E
2517
2A71
A31D
ACD0
AB21
A906
AA0C
A959
B04E
A7EC
A2FD
A97B
A9D9
1F02
A4AD
9BEC
A094
A965
A472
A9C0
A26B
A015
A60F
AA2B
A91E
1DB2
9872
A83E
A74B
A3C1
A8E1
AC0E
9090
A626
20CA
2772
ABE4
23D2
A9BD
2417
AD63
A941
209D
AF60
1F33
2B12
A968
26D2
2433
9FBE
A5C2
AF3D
2CC2
2827
A763
AB68
AB78
A8E8
2A40
A57C
A695
AC5C
AD21
AF5B
1E75
26BD
A98B
AE58
B2A7
AD66
AD0D
AF6E
2651
ACED
22BD
AE0E
ADEF
A34E
B00D
AAAE
AD95
A027
ABB6
A3CD
3094
2ACF
2D68
2F9D
1EB9
2EBA
2F62
2D52
2E4C
AF20
2CE2
28B8
2A57
30D5
2228
266A
29E3
2DB6
2D13
A4D5
2E2E
2EF3
2F04
2D69
3034
222D
A75D
A74E
2301
A4D0
218D
A8F1
1E3A
A18F
A533
A303
A8C6
9D3E
2249
1D98
A8EF
A092
A533
A466
2BEF
A446
97EC
1E30
1C1B
A33F
22FB
29AC
21F7
274E
2D3C
2CE3
2939
AC72
AAEE
29E6
251E
ABDF
B065
AC10
2EF9
303B
2953
2AD0
A0F9
1CB2
A984
A52B
AC36
B025
ADB0
30A7
2A5E
3016
2D56
2167
218B
24B5
3045
2E01
2849
AA5B
9A90
2C19
2B70
2C28
AFA9
AD7C
AC64
B01C
B091
B2F6
AE41
AF10
ADD8
B08C
A775
A6BA
A972
B009
B057
AC54
9C96
A665
A5F6
A00C
A9F4
A642
9DB2
1DF6
2899
AC71
1B96
28E1
2908
25BB
2834
9D0D
2425
2AC6
2C2E
244B
248B
27E5
A8FB
A585
2F34
3004
2B82
2BEC
2E47
3052
2F53
2FAD
2DDB
2B5C
2F4B
2CF1
2102
2806
25D8
A7B9
AAE8
20C3
2991
2853
2961
2C72
2C59
A6E5
30F3
3053
A8A4
2CD9
2DAC
31CD
303D
AA4B
20DE
2ADE
303C
22C5
2B9C
2D10
ACD0
A359
2E28
2E6C
2D95
283D
3318
AF79
B045
AD55
B045
AF11
AE09
B12F
B199
A99F
AFE8
AEB3
AFE2
AD57
AD26
A909
126A
AC5F
A2AB
1534
27AE
2722
2A47
22D0
2DAB
267E
AA66
A7A0
A954
AC77
2623
2030
AC30
A500
A462
24DD
A4DD
22FD
18FB
9B5B
29ED
AA7A
AB79
9F59
2479
9D4C
AC2A
ADA2
AD98
A44D
8D1D
2816
2F2F
AF83
A7D1
A49E
2902
300A
202A
311B
3010
2E89
2E95
3168
30B1
301B
B1BD
2B7B
314A
2A24
2D4C
A6B8
3075
30B9
2CA5
327D
AE09
26E5
2561
AD0B
2C8B
B235
AA43
A53A
A455
8D29
B03E
92A7
270D
A97A
AA33
AC3A
AD5E
209F
A861
A727
2BB0
260F
285E
22FC
2F9D
A597
ACAC
A62B
ACA0
A69E
263A
A23B
1B7B
A3BA
A626
956B
2639
2096
A856
AADB
A749
2C39
2867
2448
15D7
A5E5
A964
242E
1A0E
A4FD
2DD2
267C
A9B7
ABA4
AB12
A89F
AC42
AAD1
AF3E
B252
A2E0
AF71
AAA1
AC01
B278
9D7D
2F35
829F
ACF1
A461
ADCC
2B0D
9D0E
230B
AAD6
B53B
2CD4
32B8
3493
35AD
B09A
B311
B34B
AB6D
ADD7
2CBA
AACD
B1EB
A7DC
A8CE
AA8A
ADE5
A1E7
1EBF
AB23
A0AB
2AF6
24D3
AA1C
2BC2
A597
A6C4
A044
1E79
A265
20CB
281D
25D5
A715
974D
AA0A
28F4
2596
24F9
A45F
2220
283A
2946
2680
1AD2
A698
261F
25EF
A82F
2297
A964
ACFA
B0B6
AD6D
1F93
2EC7
1E62
2916
24B9
2D6E
315B
300C
321D
3084
A4E9
2ABC
A8C6
2E6F
28A5
B045
2B43
28A5
2D05
2CE5
AEF6
213E
A5E7
26C6
29FF
1A2F
926A
28CB
95ED
23A3
2786
969A
9A01
2586
9E23
28E0
A0FD
246C
218A
AA5C
2371
1D7A
2AE8
A16E
2688
9E4D
B07E
AD79
AF7D
AE81
AED3
ACEA
AA86
A5D3
9F2B
B402
B30A
B11D
1A32
ABBB
B2F2
B24A
B234
A89A
B08C
AD5D
AC10
AB8A
ACFD
228C
22F7
9116
3063
312F
2ED2
A974
20DE
3022
32A1
33D1
2DE3
A536
1F9B
344B
31DD
267F
AF93
2FC8
3078
2D72
23EC
B116
2EF0
33AE
3003
A45B
ADCD
286B
AFD5
B09E
B378
2D0F
29C1
A901
B319
B406
294E
3116
A9AE
A5D6
AE5D
B16D
9E5E
B03B
B436
B33F
B122
B11A
ADD6
B349
B1DB
AAC9
2575
2B8B
B413
B1FC
A91E
2D3D
2DD0
A479
AE01
2C07
2A88
32E8
2EBB
2754
2C43
2F7A
AEEB
B03F
B1F3
A657
2DE5
AB2B
AD6A
2762
31E6
31A8
A73D
AE0D
B089
2775
2F7C
AE1C
B052
28F3
2B9C
2D61
AF9A
AF78
2878
AB17
2EF4
AC6D
A995
2DA8
ACA0
2539
A80B
ACBB
2909
B55C
B186
9FD3
1F5A
A83C
B4DE
B4D8
B3A2
93E6
ACAC
B483
B055
326A
2DA7
B51C
B631
B350
AD38
B354
B5BD
AFF8
B32B
29E8
A838
ACF4
2A64
A572
AC27
AE5C
2EBA
AC3C
AFD2
AF09
A8D8
30EB
AA50
9B24
A901
3113
319E
AC65
AB14
25E6
A495
2EAF
3165
ACFE
B44B
326F
30B0
2B37
A9C2
AF23
B3F6
ACF8
B1FD
AD73
AEC2
28E6
2427
2A40
2E18
A11D
AAB6
AC0B
3026
A84D
B515
25F6
A000
3072
A2DC
A58A
2C20
2C6B
2E4D
2594
B145
B03F
AD4C
2AE5
AA5E
ADB7
9CFD
A87D
A9C6
2C1C
30F9
2DE0
2C34
AC31
2AD8
288B
2FA6
2E2B
2975
2890
3126
2E17
262D
33D5
2F5D
2A60
9612
A071
1E28
A01E
AC5B
B4C3
B180
9A43
A36B
AC15
B211
10B0
257D
2DF3
31D4
3109
2B49
A6DA
2C18
288E
298B
ADD0
2402
30A1
307D
A77B
AF46
A944
2F90
26B4
2BB5
258C
AE18
AC44
2812
AB17
AC7A
AF97
A3FC
2A79
A7C5
A884
AD95
2839
22D5
27C7
AE5B
31DD
2E46
9EB6
A92C
A249
2DAC
2BB0
AC50
B1AC
A941
2704
A826
AC25
B12F
B062
22A3
AFA3
ACB3
AE77
AAC6
2E00
A826
A970
9D28
2CC2
9DB2
A9D1
A944
23C8
A232
1D95
24DC
233E
2C0E
20AC
2580
29C6
24AB
2AFF
A70A
21B1
2878
9BFA
2597
A9AA
1BA5
A5FE
A651
2598
A35E
AD87
B0A4
AA05
9712
2857
3248
2C2D
2B35
3459
28A8
25C1
2352
2FC2
3171
A953
AAB2
2CC9
2F99
258B
2AF8
A68D
29A6
30D0
263F
269D
2982
2E17
2EA2
A997
A87E
2CEB
A377
2D3A
2AE1
2C0C
A7A8
A044
28D8
AA12
22CD
AD2D
9831
2A46
267B
2A1D
AA72
ABDB
AA88
2846
9AB5
B014
2C0A
300B
3191
2DF7
A977
B083
AC83
2AE6
9A85
AA70
ADCF
B437
B030
2420
AFD1
282C
2C98
30C8
A223
A896
2727
2180
2B3E
A5DD
A76D
9D3F
2851
A2C0
A0F0
22AA
A2B9
1BAB
A9F3
2429
27A3
288E
AADD
A4DC
1F23
2091
1D3F
9CDB
2018
2520
2437
996C
A6A9
9B02
20FD
B1DC
B01E
293C
AE7D
B1CC
AB6D
A714
B030
A416
A952
B146
2C0B
2160
2FEA
2F03
28CF
A9C2
ADBC
1CAE
2DD4
2C47
2F4A
301B
A5D2
A6BD
B065
B08B
A814
AB92
2BE4
AEF9
B005
9198
A79A
2D5B
27E5
A8D5
2878
25D6
2BB9
227B
2A5F
A467
2551
2AB7
AEDE
A4E7
9A62
2653
2B13
2127
2E5A
A8DE
2E22
24DA
2D37
306A
3069
26AE
2415
247D
AB16
2BED
AA43
AEB6
A88A
ABD6
28FE
261F
AF08
22EF
1AA8
2CE1
25FC
A751
B433
3050
31D2
2D8C
211E
B461
B00D
A456
2A76
B586
2C09
2F53
2FF9
2AA2
27F6
ACF2
2AFD
296B
A828
2586
A533
AC94
2962
A3FB
AFA1
B34E
2A1E
2E82
236C
AEB4
2E0B
20D3
343A
2E61
A47E
264D
2D82
2D9E
A479
A48F
B02F
AE92
AAF4
ADD4
AC43
9743
AF8A
2DF3
AAE0
B06D
31A6
3014
2795
AF7A
A8CD
996D
277B
29F2
A8DA
ACAE
2947
2A08
2B98
2BAD
2980
2C85
ACE3
A77C
2E35
2839
A803
AC47
AD6B
2C13
9C9F
2C78
9FA0
22FA
25FE
1EC2
A2B1
1B5F
2A34
98F2
A029
28A2
9C1F
29CF
25E7
A137
A61A
AA13
251A
A667
A631
A94D
2902
1541
AD2C
AC2B
3027
26E7
1617
2944
A8D8
AD38
AADA
2690
2C0D
A5C5
B262
A4BC
2AFF
AC34
AC17
2D6C
23CA
2D44
21C0
A4C3
2805
AE5E
A99F
2503
2A74
A577
A43D
2C7C
A4E6
21A0
B043
263D
2F83
2E84
A633
B33A
2BC9
31A5
2D48
AE34
B34C
B374
2EC4
2469
AC1D
AF35
A0CA
26DA
ACE2
ABB4
2A47
A922
1883
1D28
2A6C
A0F0
1DB0
A5B6
2013
2826
A905
A3A4
9A6D
A0E8
AAAB
A140
AA6D
A77F
2290
A7C7
25F0
A82D
9F60
25E7
285F
AE24
9CB8
A4E3
2F22
344F
9DE1
2B09
B09C
B393
B536
B450
25BD
3189
2C80
A6EF
AE0F
2688
2008
2613
AFCE
ADEA
29AD
AC7F
B0C8
ACD9
A2F0
A862
2579
A556
A758
A833
A551
A879
A784
A6B4
A7A1
A7A1
A8AC
A535
A589
A54D
9D3C
A620
A816
254D
9E00
274C
A8CB
A330
A635
16D0
A6C8
A17E
1CB9
A8B6
A4CF
A01C
1CDB
2649
1FA6
A4BC
2389
A84F
A6E2
A4AD
A879
A852
A133
24BB
273C
A7F8
2676
1DD5
2425
A658
1F72
9D06
277A
1452
235A
A84E
A533
1294
2547
12E2
A86E
A70B
A394
201B
957A
A5D2
A4FA
A80A
A39B
22FA
A792
A464
A80B
2141
A550
A8D6
9DC1
23C3
A026
2512
251B
2452
A521
A4D9
A281
9F76
2719
25D6
A3F3
A42D
A244
8D14
2083
9C88
A889
A445
A825
0C32
19A6
2643
A037
2616
2785
2327
203C
A37A
A275
A361
1D15
A26E
A70F
A5F5
A44E
9891
9CE0
A4D4
A864
A6F7
A94C
1DC3
A707
A003
211D
A953
A9FD
A912
9807
94AD
9692
A883
1D8B
941A
982F
A5B2
A814
2030
23F9
271E
A27C
92C8
A819
9C10
A44D
A800
A8DD
A079
A038
9359
25EF
A1DB
A8EC
A173
A920
231E
1C83
A189
A321
A76C
9E66
240A
20C3
1C24
A8A1
21D8
AA62
A4A5
A908
A4AF
A327
248D
90FD
24EB
A90F
A9E2
A56C
25F7
269D
219B
A1AC
A219
A7E9
A47E
2585
A26C
A4C5
0BBC
A35A
A96E
A2CC
A941
9ECC
A180
200A
9E76
A8C3
A7E9
2551
A040
21F7
A4AC
21A4
A76B
A51F
9DD5
1406
A4C5
26A3
1A29
9F50
24F0
9A5A
9646
250B
A114
23B0
1436
2676
A0CF
1E71
A357
A3C1
2153
A56F
A664
A596
151F
26C7
A93B
19F2
1835
9F7D
24C3
A093
A4D0
2254
A706
A143
992B
1138
A701
A6EC
A1BE
A8C9
A593
A763
A9F1
9D3C
996A
A62F
A6B8
A6E0
A843
A561
245D
25C9
A46D
9FC0
2415
A650
2049
A23C
2240
A89C
A4FB
251A
A216
A824
A640
2545
A342
A835
A65A
A85C
8D25
207F
9F0B
A84E
24AA
9EF9
25B6
A1BF
20C3
9CDA
A188
A89E
269A
A5EC
A6E0
A73C
A627
93C2
A0FC
A8D2
A745
A2AC
A76E
261B
14B2
A632
A461
AA35
A4D5
2081
A25F
95A5
24BA
1390
A6EA
A5E0
180A
1CB6
24A8
2536
242A
A7D1
A889
A40F
A740
A810
A829
A97D
23A8
A433
8AFB
A47D
19B7
A205
A143
A466
A419
9E2B
A842
A956
1F35
21B1
2410
A681
2731
22DD
1D24
A29F
A20F
9F89
A047
A960
2102
A4DA
9266
9513
A693
23D1
2484
9F17
2226
A0F5
A5CE
A364
2543
A8A3
20C4
2496
A85E
9A72
A7FC
A88C
A5A7
A1F0
AB36
9ECA
1D40
9DFB
A798
A800
A855
1A27
27B3
18CA
A108
A825
A8C4
A939
25A0
26C4
A6C3
A837
1FCE
1808
9654
A779
14FE
A912
A6C5
2644
A5C4
234C
2606
94C0
9D85
9FF5
2157
1F3F
2452
2103
1ED2
A784
94DD
A719
2777
A7A1
A424
A126
9B55
A0CD
A833
230A
A2CE
2474
A3FA
9F01
13F6
A623
9414
190A
261D
24A4
9B66
A297
1CAB
1DE3
25AA
259C
A92E
A4DF
A913
2742
A535
A891
9F3C
A7CA
A8E7
231D
24C0
A312
AAAC
A525
A916
A5A3
A30E
9DAF
258F
1813
20B2
1AFD
9805
9EF6
A4C4
A547
A509
A55E
261E
247C
A274
9A96
2165
A4C4
9D44
A8AE
9CA1
0C5C
A91E
9C24
2438
1EB8
A672
1926
250E
A58F
271D
A0E5
948B
A44A
A889
21EE
245F
2506
22B1
2330
A6EB
22C7
A51F
A26E
A953
1142
A344
2719
A2FF
A58F
A069
A93F
A8EB
1CAD
294D
28CA
2934
A174
95AA
21C1
2735
25D6
256D
1A23
A25A
1DDE
A438
A745
A74F
268C
1B3D
A1F5
2541
A5BC
27EC
280B
A75A
A154
A894
8C9B
A4BB
A846
24C8
AA05
A8B8
9CD7
A65F
A479
2324
A6F6
255F
A5DE
2688
22CB
2392
2271
8DB8
25DF
24BA
2099
A03D
2266
25AC
237F
A8A2
A800
9EBB
2480
A42F
1D97
2628
22B6
A2C5
9F03
A02A
2265
A1A5
9C9A
8D1D
A439
A075
204F
2462
A550
A194
A69F
9CCC
1D75
238B
1D50
A06F
216A
A4E5
0325
A2F9
A431
1CAA
A85B
A7D6
A7DB
24B3
8E36
A641
A19C
A4F0
198E
A854
26BE
A784
2661
9C15
A870
9E20
146B
A248
A7DB
2434
A8AD
1E6E
A88A
0C8E
1A6F
A8FC
A43D
23F0
26AE
A85B
266F
0FFB
A7D2
9EC1
268B
A98B
9F7B
1D51
2361
23B4
1F68
A1C5
A29D
A875
A65B
2026
A5D1
A767
9064
A90C
2554
A834
2410
1C03
A38C
A308
1978
A2D9
25F9
A135
A752
A92C
2430
22D9
10F3
A09F
25C0
25FB
A5EB
A92C
A1C9
851D
211D
A7BB
A603
A488
24FB
A46A
A3C8
24F5
A374
1FEF
2611
258D
9C44
985A
A64D
2576
1957
1781
06E2
A474
20A9
A035
A483
164A
1EB3
24A8
A603
25D8
A640
A089
A6A9
A2E8
A7D2
277A
1C75
9E29
A5C3
25A3
23F8
A099
A609
A569
21C4
A4E0
A4DA
2353
210C
246A
1979
A256
2577
A841
2145
2537
A247
A14E
A3FB
1D7B
A790
1AA6
A855
A92E
25F3
1533
26C8
9E45
2281
22E2
25D0
A5AB
1F35
25F2
A5F0
22D3
1FC8
A938
9D03
267C
A731
A90C
2683
24CA
A8C9
A909
A79E
A57B
A5CF
A649
1D32
A490
A5C0
A624
1AD6
1E37
96D7
2640
2351
2341
9DAC
9D22
A08E
A2F7
24A6
A076
1CAD
A316
26B1
A221
26CD
2409
9E53
A801
A749
2235
1E73
9BD7
A2F6
26DF
A5AC
9EFA
1C7D
A68A
A083
9A7D
A85E
A8AD
A361
A698
2593
9EA3
A839
1713
A20F
A806
1A2F
A2F5
2464
9AA4
A017
17BC
997B
A6C4
247B
A964
AD0E
B061
AD27
AF1C
AB52
3099
A051
9CDD
B011
AE95
2EEE
3037
AD3B
A9A0
28E7
30DE
2BC2
B416
ADAA
A6A6
9E69
AF1F
B1CD
B2F2
9BE9
27D7
21A9
A803
A6B8
213E
19C7
25A1
2621
27C6
A8CD
A593
26BE
226C
A6EB
22F5
9FD6
A219
A0F6
A760
9DC9
252E
A900
A896
2AE4
2896
B032
26B8
A4C7
227E
AD65
A8B4
292E
2C60
A996
ACA3
A27D
2863
27CF
AC37
ADAA
AE05
26CE
2A17
AE40
B406
B0FE
A655
2CCB
2476
AD6D
2533
A8ED
1487
9F5E
1860
196B
A560
A6A3
279D
29AA
A8AB
AA7B
A4C7
A9CE
A58A
A9FE
A80E
A90A
1F64
A59B
2C0A
2703
25B0
27D4
2923
2929
28A6
2CB2
2E1A
2C23
2CE1
A0C9
22EE
2C18
AE85
221F
240B
A897
2788
993E
A802
A6E9
2CEB
2CCF
2C01
2E05
1E10
AEE1
A9CE
9CFC
1EA3
2A99
2DC4
2DD7
A9B6
2A51
9517
A511
A54A
B0CD
29BD
ADB2
AC0E
14EC
23E0
2456
1E83
A566
A4E6
2A7D
3182
2C9B
23F3
2CB5
2AD7
2CB4
2B74
2EBD
28F0
A904
25D7
27DC
2C61
2E8E
16DE
282E
990C
0D3E
2BC4
2C30
15D9
AD06
B036
9AC2
3058
31C9
AB3F
A81D
2E3C
3381
A80B
9DD3
2DD6
A896
A8E2
145E
AE21
28A3
AA0B
A271
AAD6
AB8B
1D18
2EB8
2E3D
1AF6
2F3A
AF7A
A9C2
AEE0
AAA3
A4E2
B376
23C4
A507
B519
B44B
AA2D
A59A
319E
B252
A54D
AC31
2568
317C
B018
9BC9
2FC6
306A
2CBF
2884
28C4
2C86
2F10
AF86
3265
2683
3221
2ECB
B0BB
3077
2BBD
2C4D
2BA2
3065
2F00
2C13
2E72
2911
302E
2F64
0DAF
AE24
A513
326D
2F98
B240
B4B1
ACE9
348E
2E4B
AB93
B042
ADB3
2D39
2C8E
AF05
ADDD
9DFE
2633
AC16
AEED
A0A4
A945
2D65
28B7
AD08
A170
B0B7
A71D
2561
B2B7
B1AC
AF46
AA4E
1EED
B24B
B0FF
AD30
B077
B003
9B3E
A579
2717
2B2C
AE38
AAFE
1B24
AAE8
320D
A73A
A84A
28D3
2941
3421
ACD1
241F
AAAA
A73A
30CA
A91E
A690
B113
2196
AA89
3187
275B
9F2B
A74D
31A5
AD68
A5CF
A3CD
A7D0
2E12
B15D
2873
91A1
998F
1A2B
A5D8
1A99
2D20
27B9
AF5A
2D52
2AC9
288C
297A
A673
2318
A828
ABAA
1F17
2D6B
A999
21D6
280D
2612
A8BF
AB6E
987F
A4EE
1D9B
2BDE
B07E
22FF
AC63
AA17
314C
AE4A
B289
B3EC
AB8B
AD40
A912
AAE9
AF0B
2E6C
32B9
ADDD
A7FE
963F
A859
2601
A062
96FC
2537
2406
AC74
A86B
9FE7
2CFE
2DA6
A807
A847
AED3
B295
B21B
B489
ADB4
ADC1
9C47
2BB9
2D3A
A8CF
AA14
A333
2857
2CB4
A02C
AD9D
A672
2AFE
2ED4
1CEC
ABAE
A7D9
ABA8
1D99
303E
2F6D
28AC
27ED
2D16
A219
269B
A8CA
1B1A
A8FD
A193
9F8A
A2AD
A0C7
1140
A638
A953
A9D0
A74D
A90B
22A5
9D90
A7FA
250F
1D86
A1E0
1EFA
A9C3
960E
9F97
2835
ADEE
A5C4
2E0A
3258
2FBA
2DA0
AC11
2CE4
332F
A988
ADE1
AE3E
AB6A
AA43
B530
B09A
ACFD
AE1F
AF0C
B4F7
B134
B22D
B35A
AF31
ACB8
AA64
A8CC
98F2
B329
2466
A6C5
AA82
A51B
AC99
2C74
2BB1
9A90
245D
ABD6
A9D0
A4D0
2470
A30C
B0A7
AE79
1D52
A53A
A607
2AC3
2D51
266C
2CBB
3228
AA9A
268D
ACDA
2310
1EB7
AC3E
2995
2C41
2E02
1FED
18DF
AA4C
A749
2EEC
2E4C
24CF
A8C1
2797
A5F7
AC5B
28FA
A6ED
A2E1
2B06
9F30
A5CA
A74E
9CAC
27F2
9E51
285D
9DF9
1EEE
A2AD
A03D
2A96
8CEA
AB01
A492
AAAA
A7AD
24EF
A8AB
1CC5
9E6D
A185
AC67
AC6F
A9C9
30BF
2B70
ADE9
2B46
2CB5
272D
AB66
22F7
AC1D
2E5B
3023
2CB6
2ECB
2B88
2D13
2AC8
21EB
2FF4
A326
1E37
2E82
3105
AE7F
AD9A
A917
17C3
A3AC
ACAC
AD89
B040
B091
AFE0
AB30
AE6A
AE25
B08D
B23F
AD10
9FBC
08B8
A26D
ADB6
B360
2147
A79B
2EBE
A4A3
AF27
AE89
A8E8
B0E9
B40B
A4FB
261D
2883
24A7
AF03
2675
2932
300C
29AA
AC8E
2770
2D71
2F35
2184
8F9E
B015
2C00
2E74
B096
2CE6
287C
2B55
A6C1
24DD
281E
3202
3115
2D49
26C8
2D8C
3149
3015
2DE1
9A29
2E74
2FDD
9D0B
B203
ABB2
301A
AD35
ADAB
B1C1
AED1
2806
2A10
20CF
280E
31CD
2A35
2E4B
2ECB
2F13
3194
1E71
0DC0
2FD3
A914
A280
319A
A747
2ADC
2EFA
2C5C
31B7
ACFE
AC2F
AE0B
A84C
3120
2D94
2EA2
3016
2CDE
2D16
2C18
2E16
3098
2E13
2D43
2D1A
2E42
2F2B
2FC9
2D84
A7C0
2A37
2A80
A826
22FB
AF3F
A753
1C90
AA6E
A5DF
238B
A5E0
A364
A777
28B1
2478
A384
A5BC
ACFF
2C00
20B9
A72F
A4B9
1C14
2545
2752
261B
2101
A1FA
81E7
295D
9C1A
A298
A538
99C8
23B6
2E7A
2AE9
2541
28B2
AF91
A922
A814
AC19
2B98
AAE2
A917
2ECA
2B44
2F11
ADED
1DF6
3276
292A
2EAD
A1D6
2CCD
24EC
2C06
2D3E
AEAA
A75D
A0BD
AC39
202C
AD05
ADAD
A8CF
AC57
A023
2998
1C02
28BE
2653
AE97
28E3
8464
2022
250F
AE62
282E
2819
1CCC
2A5C
AFED
1A60
AA5C
A1F8
2635
2424
27D9
28F5
A11D
18A8
8C14
27D0
A51E
298D
9E27
1D94
2AE6
2100
2810
1AFD
21A6
232B
27AB
9019
2849
A4A0
30E0
2A44
31A6
2F55
2C54
2F26
11C4
2489
A4DB
2C72
2CED
2B0C
A670
2842
2C10
29A2
AD6E
AF95
A8B0
975A
306B
AFEE
B2FB
AD4D
AFEA
A6A6
AC54
1BBC
A93D
AD3D
A863
A6B0
AB35
19D7
AD72
A636
A887
266C
2671
A512
AA4C
A929
2541
A221
A4C8
AB80
ABB8
A8D9
A885
A0C0
A61D
99D8
A2C7
9DC4
1E40
2187
24D6
A1D9
A13E
9BBC
9CC7
9978
A59D
A636
A588
252B
265D
A7F1
254F
A0DD
A642
22D5
9C68
9F08
25C3
AC8A
A978
A744
A846
9E03
A941
AA01
AC20
A863
A938
A94F
AB72
A93B
AA53
A93D
A5CC
AC92
AC46
A3B6
16A1
ACC5
A854
AD39
AAFD
A96C
A6F5
964B
A72E
218A
A848
A70F
2601
25EC
A1BD
2097
27A7
9325
27B8
A495
11F3
A610
1806
A489
A6AA
26A0
28FB
9E50
A8E1
A546
2159
A45F
AC28
ACBE
A9FF
AC89
AA87
A6B3
A091
AAF0
AB33
AA19
A8BF
A5D3
A1BD
A5B1
0CB8
AA7D
A963
A471
1DF8
ABAC
A602
A491
A38E
AA64
AB23
AB99
AB84
ACB7
AD0F
ADCD
ABD8
2428
A6BB
A6AB
AE5F
A704
216F
24A2
A2AE
AB4E
A4C1
A7D6
A226
AC2D
ACF6
AD47
08C9
A9BD
AB05
ABD2
A72C
A032
210B
A54E
ADCF
ACBE
A74D
AA6B
A5E7
AC97
ACBB
A97E
A1B1
A85F
A554
AA7A
AACA
A878
A68A
AD34
A7C1
AC2A
A09C
A3AF
A7EF
AA79
ABC0
A9DB
A77D
A653
AA2E
AA0D
AB08
A402
A6AB
A953
A948
AACB
A63B
9D64
2126
A820
ABB6
AD76
21A8
A433
A93E
AD2F
A95A
9D54
AC77
A976
AD1A
AD6E
AD54
AE92
ACD7
A714
A382
ACE0
ADAB
A75C
AC88
AA82
AE1E
A980
AAAF
A596
A419
AF60
ABD3
A955
A86D
A9AF
AA83
AB5E
A95E
27DC
20FB
AA1D
A405
A85A
0EAF
AA5C
AC79
ADEB
ACA5
A120
9F5D
AC37
AA22
AC41
A7EB
1C44
ACD3
A002
AC0D
A50D
AB48
A835
AA87
AB36
AC80
2704
AC84
AD69
A81D
0FE1
9476
AB81
AC9B
A826
A715
AB16
ABC1
ACC3
AAF4
A855
A7AD
A8B4
AB0E
A92B
ABF8
A2A0
9314
2487
2513
A38F
ABE2
A9BF
AC4A
A857
A274
ABC1
AA7D
AC2F
A833
A1EA
99FC
1C64
2483
A647
2889
2650
28EE
A4AC
2631
A884
99CC
A47B
A179
A7D7
27F2
ABFA
2715
AD40
AB90
AD60
1937
AD02
AB9A
A82E
A357
2235
ADD5
AD11
AC00
AB98
AB08
A988
A4C5
A183
9043
1C46
A89F
A9C6
A659
A3D7
9C31
A7A0
A6FB
A81D
A82D
A63E
AB70
AF6D
AB82
9E66
1957
A88B
A823
A3AF
A2B6
ACC3
AAF8
A7E5
A4E1
A8CB
260B
A6EC
AD1A
AAB1
A11D
265C
A938
A6CC
A9E2
A105
2239
AA35
A029
A784
A7D9
2609
25F6
A95B
A8BB
A023
2511
AA09
ACEC
A4A6
A2CE
295B
ABE4
ABC5
A225
AAD5
AC3D
ADB6
AC24
A431
2119
0CB0
A7DB
9D74
A923
A769
A8C9
AA56
AD30
A4F0
AB0B
ABD2
AD26
A126
ABC5
A8F3
AC5B
2905
A300
258D
229E
9AC2
A8E0
A91B
A492
1E61
26C9
228C
9160
A4F1
9BBE
2496
2872
25B4
25F1
9C46
9C14
27C6
A4FD
A788
1F30
A43C
AA1B
A585
A6D0
A130
A855
AC37
24CA
AA4B
9D1F
A27E
A33C
A8EF
9770
A7C2
AA43
9B50
18F9
A87F
ACBC
989B
AC1F
A274
AA90
1725
A818
A8B9
A853
192B
1E16
AA9C
A7FB
A4B2
A9B0
10D5
A8F2
A767
A406
A18D
A01B
A905
961B
A5A4
9487
ACCB
A41F
A920
AB16
21A0
1859
A8F2
A637
2248
9FA5
A7F5
A02C
2873
AA17
A1B0
A76B
A010
A4EE
A9E5
A029
A09B
AA2F
A0C8
A9ED
A2B0
1DB1
A83E
A9B1
AD71
9B9B
AA91
A834
A0C4
2125
27E7
27A4
A0E4
236B
A885
24DA
2806
A113
14AD
1415
26A0
2807
A2C5
2487
24F3
A0BD
9563
15D0
A831
A833
A77F
2013
A1F3
AAEB
A694
A24F
A6BC
A7BA
A805
2AEC
9C35
9ED4
25DC
A199
2853
1E63
A32F
A8D1
2837
2A4A
9FAB
A8A7
A89B
ABFE
A8CE
A8BF
AA73
AC27
AC0B
A8B7
2427
A9C4
ABCE
A810
A655
9177
ABD7
ADD8
A3A5
ABAA
A657
A9B6
A4EB
A905
024B
2139
A94F
A9B0
A842
213E
292F
230A
9EB0
AB4B
AE79
AD89
A79F
AC33
16F0
ACF4
AB2E
AD6A
AC7B
AB98
A4BA
A8DD
A621
9805
1FB5
AAC5
22D5
9316
AA7B
AAED
A062
A70F
A13A
ACD6
A799
A2DB
9E2E
A518
A874
A40F
9B46
940D
152E
2547
AA07
9953
A909
273F
A8AE
9E90
A020
A2FB
1B43
22A2
9686
98B2
9A66
A301
A8A6
A1A7
AC6A
A808
A7CA
A6B7
A56C
AABC
A6FC
219C
A52C
A4B9
A841
A979
25AD
19D0
268F
24BA
1BE0
A876
A9F5
AD08
ACEF
2135
A497
A2AA
1C73
A9AA
AEC2
A96E
AB4B
AACC
A97C
A936
AD01
AA0D
AD5B
AB12
A5C6
AAF8
AE16
A9B1
A74B
AC31
ADCA
ADE2
ADC1
ABD8
AA63
A7C8
AC7E
A592
A5F5
9469
A47C
A831
14D0
95B8
9E85
A2FA
A856
A261
A186
A49D
A5C5
A809
2809
067D
9CDE
9FCE
1EF9
1EB5
23D2
A47A
A76E
A7BD
A65B
AADD
2482
2BC0
AA29
22AB
2B43
A8B5
A6BD
226B
2678
ADE8
A8DA
A593
AD81
A693
A82F
A92B
ABF1
AC37
AC1B
A0D7
A315
2038
A64E
ABDC
A952
9A43
1459
1410
AA94
AD80
A72B
A315
A877
AC66
A865
A4F2
A9B6
A510
AC49
A640
A844
AB61
9F08
ADCE
A8F4
AC98
91D5
A772
A5B9
2144
9F88
A22F
A88C
2870
2762
26DF
27DA
A707
A231
9AB8
9C74
A548
2283
2698
1EAE
9CB3
2425
969D
2828
27A9
A071
A2A6
A5C4
AC10
AB35
A456
9D7B
9F46
AD6B
A6D1
ACD4
ACC2
AC60
AD89
A49A
A5D7
A7FC
A9DD
A9C9
25A9
A96A
A949
AB62
A8DB
A854
9FA2
AAB1
A590
149F
A6ED
A192
242F
9E2B
20EB
2102
A7DD
A880
A1E5
21F5
27C1
253F
9E94
1EB8
A508
A6E3
A94A
1AAD
9E15
9EF9
2480
A892
A82D
A54B
A36E
9AE7
2132
A308
A440
24BA
208C
218E
A85B
1D8E
8D14
229D
99FC
A854
989B
1704
2638
9BC3
2662
1A22
A128
2421
A591
2813
A538
A039
249F
245A
A7CD
A223
A2B1
A228
9E3E
A1A9
A27B
A748
A854
1E10
2479
157F
A2EF
18C2
9259
A8FA
A7C1
2685
A83E
A6F2
A407
A700
22DE
298C
26D0
1338
2086
A79F
22C7
A587
1CC1
2082
249E
96E4
A847
A5CE
258D
282C
9A96
A37A
24A0
20AA
9CE5
A1DE
A722
25ED
A50E
2013
1CC2
A8FA
2122
19BB
99B7
A832
A85C
24BE
A2B8
A87D
1F55
1EF1
2394
A80C
A3DB
A700
1E24
A8D0
A86C
A301
2452
A290
A968
A825
2642
A86D
A793
25CA
A04F
1CAF
2074
AA69
A0DA
A5F1
9603
A181
A871
A5C2
A48F
A556
2739
A434
A456
24A5
26B3
2715
1A4C
23BE
25CE
A660
1DBB
1F02
A3CF
A3CE
9D32
95F4
A4C5
1FE1
A970
20EA
A2CE
27A4
17E1
9A61
247D
A3CE
231A
2553
9FFF
A538
A5CA
A1E8
A707
A421
A7BD
1902
A30A
A89C
2672
A46F
983B
A4A7
A813
A3EA
9C25
9E2B
AA49
AB2C
A602
A15C
A333
A639
AA57
A6AA
A5F8
08C9
A408
9ED0
2652
AA27
9F5F
233D
97E5
2326
A5C4
A886
A03C
1E50
A60F
A310
AB11
A490
9D53
A9A5
1C91
A4D2
9FE4
A6DD
1AFC
2861
A5E9
A81F
A1A7
A945
A110
2084
9404
9896
1C9F
9F6C
9D55
25AB
A73A
A703
A58A
A4B0
98D3
A866
A999
A3D8
A935
A565
1C98
9D70
A329
28B0
16DE
A6C7
1ED9
9DD7
A798
A142
A742
2361
1EFA
8971
26D8
240B
A74C
A994
1198
A8E3
2121
273D
A655
2453
A8CD
1BDF
2664
A7A5
24B6
A2E3
260D
131A
9A02
A47C
A15A
A4C1
0FC4
2642
A7A1
2793
278C
A0FF
1DE8
A0B8
9E1E
9A0C
A972
20D2
1DF0
A931
9C11
1C78
1D43
A85C
9EB5
1DFF
A4C4
A755
9C22
1FEB
AA93
2006
A125
A138
A286
1916
20B9
A719
A044
A491
2538
9171
A175
2420
21C9
8F18
AA0B
A3F3
A4D7
A181
9FC6
A36B
A858
A457
18B6
2687
A82C
A4E4
A6C4
A095
24A6
A1DB
A821
A90D
A825
A709
94A9
A575
1C14
A5D5
A935
A1CE
A5A8
A0A8
1E60
2145
9FAE
2149
224E
A781
A2E3
1EF3
14B0
A3EF
9610
1D77
1D50
1F63
A855
A278
25A1
A056
A8D0
24ED
209F
9C0E
9FFB
208E
A688
2584
A55C
1F19
1D37
A72F
A8ED
A831
A482
A45C
A33C
1F22
9641
1385
A602
A8FF
A397
A992
A8E1
A54C
9F76
A944
939C
A88B
144D
A8C1
23EC
A6BD
A3DA
A784
234C
A70D
A81F
A546
98D5
2425
96C2
1E4B
24D4
A62E
A4BE
A76A
A665
A55A
224A
A194
A71A
A3AC
168D
25CE
1F7A
A36E
2899
A705
2118
2299
1FF1
A73D
1672
27E0
24F4
A26F
26E2
8E85
252F
2515
0703
A33D
21D1
2513
2187
A739
A846
220B
A642
9FBA
220D
9947
A6D2
20F9
2172
A47F
9F19
A70F
2617
A786
1487
2402
A6A3
9CB3
90BC
24DC
9DB9
9F6D
AA8A
A56E
1043
8EF7
9CFC
1729
A9CC
A77F
A478
1CC5
A2A1
A86B
24F1
A230
27FF
22F3
1EE6
2747
A951
2326
18E5
1A97
A205
27BA
20F1
A5AF
AAEF
A00B
A851
1C27
A791
A655
25B8
A00E
A52F
A721
28C1
228B
976A
238A
A6F9
A86A
A965
A3EB
29D9
A0F1
26DE
1342
27B6
2844
1DCD
9B80
A883
A940
A751
28E2
98BD
1995
A8B4
9DC2
A925
99B5
A8C2
A1E8
26CB
1983
A74E
2662
24E2
2620
9A16
A6DA
A08E
A4DC
A865
1D28
9F8A
A45D
22CD
A510
A8FE
0B57
A247
A7A7
A51D
A7D4
A771
A5DD
9D50
A4A2
A812
A977
1945
A8B8
A9A8
2554
A800
25DB
A876
A672
A837
9929
1D0F
1E23
228A
1D5D
961A
A98D
A917
1C6C
A843
1750
1D5F
1C23
A2FA
86E2
A6C3
2761
A1F3
A7EC
9B92
A06D
2065
A4F6
A5F3
264D
A11A
A7AC
A604
A60D
A2C2
1E69
A82E
2290
A043
2617
265E
227B
A55D
A24E
A55D
14C9
A846
A4CA
A816
1D03
A5E6
A8B4
97F4
A37A
1D61
2436
A8A0
A77E
1642
14E3
22C6
272D
20A6
A63C
24A9
A1D5
A718
A654
24E5
2633
A5FD
A782
A5AA
268F
2188
24BE
A504
9A6F
A7FB
1C25
A689
A636
A1B9
A6D6
2167
A950
A8AC
1E5A
A61D
A52A
271B
A8B5
A720
0E25
254E
A786
2600
253A
21B9
A500
A18B
A818
2378
255B
A933
A5A9
26D3
27BC
20D6
26AB
A927
9138
A580
241C
A611
0A10
A5DD
24FF
280E
2663
2580
A538
A21E
A5A5
A8A9
220C
A1E5
A4CD
A8B6
A269
A950
16FC
A83E
2403
A7EB
2586
A71D
A76D
151B
AA5E
A996
AA97
A7B3
26C4
96F7
1A2D
9F20
A6A8
9D8B
A594
A064
A47E
2214
A01B
248C
AA88
A4AA
A5CC
A8A6
9831
9DC7
241B
A8EB
0B92
A129
A70C
A552
9E5C
2280
A6F7
9E8F
A167
A29F
2100
A621
A37A
A730
A318
9F31
A065
9AC8
A8CF
26FE
1D05
2499
A5F5
26A7
1EC2
2464
2639
1827
22ED
2558
A54D
25D4
A244
93B1
27F0
20CD
28C0
A423
26C4
A0D4
A79C
1E49
2494
1C04
2084
A6F9
A547
A429
2818
A06C
2511
A7FE
A601
27F3
A5D9
23F7
1859
9E62
1C05
1C94
A16C
A9C3
2214
25F4
A81D
253B
A62C
9DAF
21A4
A956
9E51
1C1C
22C0
A824
A436
2397
A1A5
2100
A298
2112
98F3
A886
A922
A633
1F3E
AAB8
A8C7
A91F
A466
A7A2
9D0C
AB8D
AA67
A878
9DD5
A8F9
A94A
A823
A646
A883
A9CD
A04A
A0DE
25A0
A274
1A55
A629
213F
95B5
A89E
22F0
9E65
2479
9EAB
9B70
1E06
9C24
A30F
A503
A858
275F
A897
95F0
2661
2328
A7A2
1F38
A9DF
9A4B
25ED
9BE2
93BE
A31C
22ED
A536
9C0C
1B30
24EB
257D
1855
A2C5
A833
1CF4
A4F6
A912
A8C3
A3F3
9F7B
283E
0347
20DD
A351
A230
202D
2813
28B9
25DE
284B
2192
2222
1F9F
990B
A5A8
9C08
94F2
1BB6
25E4
A36B
286A
261B
28CE
A52C
A69E
1967
A671
9D63
24AC
24E8
A7FB
A33F
261D
2A68
165A
A942
9DB7
A49E
9CC1
A4C7
A31E
9E67
A3F5
28EB
A856
A284
AA9C
A16E
285A
28CC
98C7
2775
1D27
1D13
A49A
A6FF
A854
1B15
A58B
2127
234C
9AB0
AC5D
23B6
84DA
A783
A655
ACCF
A712
A917
1CDF
A1EF
A9E0
A1E3
22A7
A33B
A980
A755
A8BF
A0D1
A3D9
205B
26E4
A87F
A817
AA18
9BB1
993A
A857
A596
21D8
AA04
AAE1
2515
A44B
A01F
A719
A8B6
9DCC
2809
A581
1FCC
A755
A4E5
1BD6
A7D8
A74B
A288
230B
A463
A927
A6A4
8819
2575
26BF
2261
185E
A286
9CD7
8E9E
238B
A82D
A628
AA1F
A923
217A
9D75
A48E
A94F
244C
A0CB
1B20
9D6A
A6C1
A89C
A78B
9B53
9DA3
A519
A8EE
282C
A482
A5E3
A433
A11D
A9AE
21ED
261A
A76A
A4D8
A146
AA91
A188
2462
1E7D
A440
213C
A2BB
185E
AA0F
1BF1
A94D
A9FA
A6C3
A8E0
A6F8
A53A
A6ED
A276
A955
AA8B
AB1C
AA58
A421
A4E6
A596
AB53
ABC1
23BC
A735
A822
A2F2
A92D
A964
A85B
A92B
20FD
A347
161E
9C22
AB99
A5FF
A3D5
22A3
A73D
A89F
A38A
A8BA
A4CE
21C3
A6D9
A430
ABBC
A053
A572
A007
A755
AA45
1BF2
A8EE
A70A
1685
A6F4
A910
9AB5
AABF
2882
9A0D
AC9A
AC29
A9C0
9820
1977
235F
AC9A
A8EE
2857
A3F5
AAF2
038A
AA76
A28F
AB29
AAC9
A452
A8A7
A1E7
2447
A6D6
AA1B
A9C8
23CC
229F
A154
28BE
A504
A803
A00F
9E04
9F7F
28AD
A401
A673
9566
A871
A04A
9A1B
1F52
A7EF
AA6E
A9F6
AC0A
A41B
9C9F
A7CC
AAD9
1B0A
9FA3
A9D6
AAA8
AC53
AA83
A9EF
A68D
1488
AA71
AA16
A94C
A8BE
9C38
25BC
1173
9A59
24F6
261A
9F28
AA8C
AACD
9CAE
AA14
1FCC
AA44
9F86
A721
A169
A593
A99A
9D20
A2D5
A9CF
A3D6
AADB
A557
24AF
2482
2220
A4BE
2499
A81C
9806
27C7
A806
10E6
2135
2133
A5D2
A8F3
26A2
A238
1F3C
9952
1C09
A1A5
A9AD
A947
A656
A188
9E2F
1DC8
1F1A
230C
2750
95B7
2690
243A
A215
2598
2115
267E
8486
2445
26F4
A758
1CAE
A3EA
A07C
A680
A6FA
A24A
23FF
29D7
A5D5
A813
9CC9
A961
1795
A6FB
1E48
20F5
A45D
A6BE
A238
21CE
2207
20A9
A639
A768
8EC0
205F
A52F
29B1
26B4
25F4
A0FD
2A49
2027
28E5
A710
AAAE
A28D
2234
A4C9
AA6B
A833
A5AF
A814
A6AB
A9DA
A725
AAB8
A930
A872
A8DF
25D8
28F4
2421
98E8
A4F1
989E
9E05
A583
196C
A870
A023
1CD8
A809
24E6
959E
A976
A41D
229C
A957
A732
A458
25F6
A9C8
9FBF
A414
9F38
A174
9700
AAA2
AACE
A688
2511
A79F
A48D
A4AE
2547
2023
2851
A849
1F8F
A2C9
9D45
2853
2356
A885
A91A
A306
1E96
23CC
A103
198B
A104
A677
A22E
24D5
A2A8
A0CF
A5E6
A836
2607
AA2F
AABC
A860
A32D
A864
9DBD
A4B2
A918
A90B
AB21
9867
A8D1
AC60
ACBC
AB2C
217C
A457
AB74
A323
1E30
289C
9E1F
A6B6
A72F
2639
A982
27CE
23C7
AC49
AA4D
227C
208C
A0B5
A688
A66F
AA7F
282A
A7A8
996C
AB4B
9C0D
2418
AA38
A47C
200C
A170
2119
A53C
A833
25B3
9987
20C1
A89A
A93E
1D4C
19F9
A579
A221
2478
A837
2166
2748
A1FF
A5C8
A607
2088
25AA
A642
9EFB
A663
2663
2268
1B1B
ABB7
A85A
A774
9A91
A48C
A9C4
A79E
99DD
A77E
A8C8
A0E3
20E5
9BDD
A8D4
A955
94FB
9B5F
ABF2
A452
ACDE
A305
A8E3
A8E9
A81D
2172
2690
A56B
AB9F
A56F
91FB
A641
A528
A133
2648
A129
A283
24C1
2263
23B0
9EF6
A0A7
AB13
A8CB
A840
9B00
A363
AAE7
276A
291A
A065
2852
A0A7
A5B6
A8F5
AA62
A169
A48A
A43B
9C39
A8C4
9893
8FAB
A758
A439
1824
A453
252F
A7DD
2473
2147
A8A0
2485
9A55
A909
25ED
A008
185B
A79D
23F6
20F0
2829
A750
0ED1
1F06
24FB
A470
A806
A8D8
A082
1CE0
A529
A65F
1496
A83C
220F
A3AE
2422
A894
1FDF
24F4
2382
2514
9CF5
A856
2125
A06D
A4C5
2656
A073
2627
A817
1A30
27E6
288B
2191
2B12
A64E
28D9
A590
A862
A603
2104
A441
A9EF
2213
1CA5
27F2
1CD8
A814
2091
2445
A221
A53C
A939
A139
A9D0
200E
97FA
A87F
1114
A247
A2FA
1FC6
265D
A92E
09CD
A873
A912
275B
A34F
A982
A792
2272
262B
A8EE
2412
259C
A76F
A8A9
271B
A345
9EF1
247B
A665
9B42
25AB
27B8
21CE
232F
A77F
A347
25AA
A508
A4F3
26B2
A61D
259F
A8E9
09FF
A7BC
9270
2031
9E9A
A84B
A969
A55B
A9B4
A941
A331
1CE4
20CC
AC02
A28D
A94A
A8F4
AC18
AA22
9F7F
A814
AA53
A870
A86F
256A
A52A
24A5
A04F
A3F8
1E4D
9F77
A8F9
14F3
A6A9
A876
A2F1
98E1
24CB
26EC
A59B
26CB
A53C
A008
11A7
1904
2464
A941
A0F0
9DB3
A5D6
A501
A2FE
A885
25D7
2740
A65C
253B
A344
0DD5
23DA
A548
251B
A7F7
9F11
A8D1
A2A9
2427
8E53
A43D
A81F
2468
9C89
20C0
1ED5
A4C5
2392
A807
20C8
224F
1BC1
9268
2684
A617
9DD3
A7B3
97B2
A75A
219A
2588
A668
1D4C
A6F7
A290
2745
0FA3
26EC
24BD
2443
A918
A8B4
0032
A099
A133
1C4B
A76B
A51A
A6D3
1E1F
26B7
1A61
1E62
200C
A02E
A5BB
2064
23BB
2616
24F7
2445
A906
A8E9
A948
20CF
9CD1
A7FB
276F
026D
1E96
0F68
268B
A6D4
A158
A7B6
24C1
A338
25B9
2494
2028
A6F5
A495
1B03
A8C3
1E78
1F5F
A378
242B
93EE
A635
A7B5
A4EB
A82D
A81C
A6D6
2738
A582
25FD
A5ED
A6E2
9F35
A7B8
A92E
A2EB
1E1E
2578
A506
A7CF
A417
2714
1F4E
A688
2041
25E8
A4AD
255E
2197
226F
A637
A482
1DAA
247D
A815
19F5
2584
A5F7
9F0B
A6C1
9770
A8CB
A6FC
1C70
9BD3
A888
A59F
20DA
2259
A852
A2F2
2709
2712
2527
24AF
A8D1
2352
240E
2587
9403
A418
9D49
A597
1F99
1B8F
A419
1860
1C6E
A0CE
956D
A533
2251
A580
A0C8
25FE
1EF1
A8BA
1353
A51D
A667
22D8
2489
A8F4
A23E
2618
A34A
26FE
2637
26E0
1560
1432
A02D
A8D2
A8DA
A503
9F87
A830
213B
A626
A0AC
A6DA
A64E
9913
267E
A8B1
2673
A51F
A1A7
9E75
210F
A412
9D98
A92C
1404
1EF4
A54E
A7B4
8C3E
A7E4
A182
A682
258A
A4D8
A4A6
A6FF
A200
1A16
2064
A20A
A873
A70A
A0FE
A776
9D57
A80F
A6C1
A0BD
22E4
25A1
2676
2440
267C
A86F
A71B
8F10
A8F2
9B89
A8B0
9FCD
A49D
A5E6
A8AA
A271
A311
1CCE
237C
2729
244A
2430
A918
98BB
2157
A8EB
A1D3
98B1
197D
A939
263C
26FD
1E74
A77A
2081
1EAB
A43B
22FC
204C
2531
1CE4
A2B3
23C9
1F10
181E
9B7B
A8E1
9D90
20E2
A85C
A1D9
9E26
A90B
A4EC
9457
18AE
276C
26F9
2561
A4E8
A6FC
2290
A8D7
A710
9F4C
2297
2767
A928
A920
2275
A4BD
9348
A0D3
A735
25D4
A76C
A66A
A797
25C2
A883
A461
A6EF
2214
A316
A7A4
26A6
9AF0
9FF7
A04E
A91D
249F
A683
1AF3
A230
9F69
249D
A043
A6EF
A3A8
2327
2355
A654
A823
A420
25E9
A73C
A3DC
A0CB
A8C8
247C
A402
A941
A847
A5CE
1F3F
23F9
21E1
A8DB
A66C
1A11
25D3
26D2
9FFE
A6C3
A92B
900E
246F
99C1
9008
25AA
A93A
A0D2
24CF
2535
A075
9E6F
1D3A
2682
2385
A76C
A539
225C
25EF
2290
24CE
9612
26D4
2766
1F06
A820
A7C9
26B7
24A6
24A8
25A8
242E
1ECC
A812
1EE5
2418
25CB
99DE
A83B
24D9
A4C3
2746
2310
23CA
A080
A406
A8F4
9567
2462
A4E2
A86E
A341
A6EA
A5E8
A14F
A1A8
A0E8
A531
A70A
A650
A8EC
2782
A674
A800
2027
A2A6
225A
2780
A815
A600
1FAB
A149
274B
A6CB
A1C9
245E
A84F
93CA
A586
248B
A58A
A37B
9E97
2341
A908
8D21
A637
A855
24D0
A900
A115
251B
A8FF
247D
A86A
11BA
9B13
A6D5
A422
A7E7
A1F5
A395
A8CC
2321
A707
258F
A0FB
2655
A528
9E73
9E16
2217
9905
A7CB
21A1
22F9
1B5C
20C1
2707
A6A0
2602
A898
029F
A87E
A826
A461
2171
96FB
1EA0
20EC
A136
A86A
14AD
2797
2867
0410
2712
A901
A63D
25A5
9DFA
A512
1813
A87B
2681
A550
A87C
A8DF
21CD
1DFD
A698
A8BC
A633
26E4
A60F
147D
A8E0
A4C2
A4C1
A535
A900
A5E6
9950
251E
15E1
A4F7
262E
26A4
A56F
1818
A69F
1488
A4EA
A669
20BF
2683
20A2
1FCE
9EC8
26B0
98A0
2230
A53D
A815
96FB
A533
26E0
9911
A73D
9A4A
256A
A47C
1D31
22D9
0F64
A72E
16FC
9D41
A560
223E
A17B
A5B9
A937
A64C
A8B5
A706
A8B6
A497
26D8
A5E4
0E92
25F2
A228
A42D
A510
A4FF
A654
A8C3
A046
2322
A875
1188
1EF8
24E4
26CD
9AB5
9E88
1D00
977F
19A8
9E53
2636
A8F6
2651
2732
2147
98A5
0AC0
24B0
A1FB
A7B6
9E0E
2657
A6EA
258B
A35B
2408
A42A
A601
A478
2670
24B5
A549
943F
97A8
A8CD
A635
A209
2367
210A
A6A5
2759
25DE
A817
1EB3
A4D2
25B0
22EE
A84F
2420
A604
A858
A88B
A4B7
A878
2650
25D2
A86F
A8E1
257A
25CE
A30C
A48C
214C
2078
A5D0
A68D
20B8
1AC8
A43A
2425
A068
A131
9650
2727
1943
24EA
A316
A54C
A869
A8D5
A528
23A3
2309
12EA
8B1C
A4B7
A8D4
24A4
9EED
A445
A750
9D5F
263D
A46E
268A
24AE
22EF
A822
2528
23A2
25E2
A89E
1144
20F9
A4F3
1FF3
A929
A8DC
A919
A575
2268
8D79
A585
A848
2412
2063
A000
A43C
251C
2735
9EC1
1D8B
A8FD
8789
9FF3
2483
A6CF
A761
02D1
A0F6
26A4
9ABC
1DB8
240D
039B
A373
A8F9
A43A
21E8
A861
A466
A745
22F2
1914
20A8
16C9
228A
24BC
A4DA
23C9
A4D5
A4AA
230C
2326
A8C6
2042
24D4
2565
24DE
1C05
20F3
9712
2042
89B4
26B1
2610
25B7
118E
267D
237A
2400
A421
245C
9C47
A6AC
240C
A8D1
204B
A8E0
26C9
A565
25CF
A72C
20D5
25BA
1D86
A385
2726
25A7
9F11
A915
25E2
96A4
9AF9
259B
2716
AD7D
A338
3101
2C95
2D7F
91E4
A9F1
AFD2
A106
306B
156E
9964
AAC6
A289
27D3
1FBB
2ED9
A648
295E
ADBE
2976
2F6D
27DE
AC72
B1F6
A7B3
A771
258C
A55B
A306
9C2B
A174
A629
A81D
A4A9
A091
A386
2406
2717
18CC
A4E4
2076
23BC
A84C
1C35
A58C
A8BA
2055
A8E0
27B3
2A3D
B136
B165
A19D
AB78
26DC
AEDC
AFA9
1A22
AFE5
A751
A7FD
9F5C
2403
2A6A
2C4C
A9DD
2D6A
2DE3
31C5
206B
233F
2B1B
23B1
2E49
A809
231D
25AF
29D3
2D1E
1FBB
9E04
2133
2334
181D
23D5
A5C7
A664
A49F
264D
2665
A579
9415
2592
A085
AAD5
A658
AD22
9B27
AD4F
24D1
297D
2CB8
28A3
AC69
95EA
2A31
2D43
2C68
2204
27FD
2DFF
31B7
3017
2CA5
AB9E
28F6
251E
2405
273C
2D2D
2E8B
2D45
2CB6
2EDA
2F6A
296F
2DF7
A968
28DF
A9B4
A72F
25B8
AEDE
AC2A
AD1F
B016
2CF0
2525
AC62
AE81
AB1A
2A50
287B
A657
B1FA
2A82
2FD1
2A69
AE92
2BF5
2CBC
2C17
22EE
A50A
26A5
2886
2C58
2755
2715
ACC9
A4AC
A962
AB7A
B030
A858
AC81
280D
2862
AD81
B2CE
ACC9
98DC
1BF8
28C2
AEDB
B0AE
2817
2F3E
327B
2820
2C17
288B
2F60
310E
B105
B03F
AD27
259F
29C7
B06F
ADCF
AEF2
A1C5
A758
AF33
B081
AC18
1E60
A913
3106
2937
ADA9
AF4A
2ABA
A497
2610
9ED5
2B7B
2D09
27E7
2BB5
A8D9
284B
2BCE
AC23
A119
AD7F
A2D4
25F0
B103
B335
AAA2
A5E7
AB43
B535
AD1A
2422
A224
B3BF
B051
A61D
9E29
2D69
B044
B362
ABD4
A989
2C06
B042
B2A9
A481
2923
2AA8
B30D
AD8A
AD1D
A811
2C75
AE5A
9C87
2DDB
2D3B
2E81
2DF1
9ED0
A8C9
AF88
A831
2BF7
A645
A805
A954
27AE
AC3A
AAF7
A35D
2CBE
2D40
201A
9D70
AFE7
9C1D
219A
A285
AD8A
B150
B2DD
B0D3
ACA0
21EA
ACB7
B383
AD0B
A2B0
B0F0
B099
AFB5
AE13
ABA4
B2F1
ACAA
1FB1
9C2B
AB1A
A9ED
2904
2DAF
3159
2FC0
990E
9E16
ACAA
A9AF
AC6A
2663
ABAA
AC0E
AB44
A8B2
215C
AE6A
AA85
A742
A967
2EEC
2514
ABD5
29B4
3161
2D70
2CB6
2F52
2B61
2FBE
323F
312A
3105
A98E
ACF3
288D
27BD
2421
A805
24DB
2B35
274B
17FB
2471
2D19
A56F
A637
2855
2D9B
A842
2F60
2EA0
9410
9591
ACCB
25E6
23EF
2E47
A6AE
AF30
AA6F
AB22
28FB
9C88
2B59
24A4
2A2F
2EA5
1EB2
3004
A8B6
2D49
3096
2577
2D28
AFF2
2994
2707
2739
30E1
26CF
2102
293C
A9A6
AAC6
A547
2CF8
30EC
30AD
A452
A8DC
3298
31E5
2F52
9FBA
9E46
2ECB
2DDA
2AC5
ACEA
AF4A
AD68
AD4C
AF91
AE8A
2693
9E71
95D2
9F80
2C98
8421
1F1D
20DB
231A
235B
2460
A2E5
22D6
9E33
2556
A4F3
2061
2C09
283F
A348
29C0
2721
2BDC
27AE
2875
ACA5
B0A7
B1A7
B2E3
B02A
242A
AF64
AEC2
B170
AE1D
A8A3
AE38
A47E
A9C2
988D
3028
2DCA
2DCA
282A
2DA5
31E6
2A2A
2BF0
2CE3
2F7D
B0D6
ACA7
A134
2CCA
2E62
A81A
ADA7
AC74
ACC6
AB2C
A930
AF77
AE8C
A4A3
AFCB
2FD6
9DF6
2917
2693
A908
2A0A
2A16
A2A8
ADB2
ADA5
ABDC
2B75
2E16
2F84
AC3D
29A7
2FF7
281A
A131
A6A3
A93C
AC52
2BF2
2962
A56A
AC33
A9F7
A94E
A443
AF0C
30F7
A59A
A90C
9FA2
AB9F
9DC5
245A
A917
A60C
A8EF
0E18
A28B
A052
A68E
AA35
221D
A49A
2189
185F
9A14
A583
114B
285F
A2D5
9B4A
226B
A5A7
A2A1
A6A9
269F
2FBC
A38E
A93D
ACE7
A5B5
B356
B505
B30B
B54C
B18B
B4C8
B190
AE64
B236
B114
B612
B408
AF65
AEC0
B0A5
B32B
B045
AAAB
AC91
B279
303C
B2D9
B0A6
AB1E
265D
2D4B
AE55
28CB
A40F
2D8D
A09A
AD42
2650
2104
2B3D
A668
A770
AE7C
ADF9
20A0
AD6C
ADBA
AE6F
AAB9
90EE
A158
301F
2EEC
303B
2285
A66E
25D1
29D2
A98D
9D8C
A94D
2680
AC02
A059
2DD5
AC22
2517
A47B
A78D
233F
1BF4
2A87
A732
153D
AC47
AFD1
AACE
26D6
28D2
ACC3
AD6E
A1BD
AC19
A9A3
A928
27F2
B121
AF3B
B10B
AC53
A7D5
AA2E
AC4B
2C28
AC17
A910
9932
A9C8
A156
A7FF
AEB2
1B4A
1D94
28F1
ACF1
A624
A30C
25A3
A203
AC5E
B000
B148
AC1A
2835
2389
B2DD
AF0C
B2B9
AE6D
A7B0
AF32
AFAA
B224
AF21
B16F
A6E3
ABC0
ADD5
A876
A7A0
9AFF
A159
A80F
9BD6
26C3
2835
1BC8
AB31
240D
284F
2DAA
2A39
AADC
2890
2F7B
2C71
2D5B
2BAD
3024
2714
29A5
2BE2
2D31
2813
2029
2676
250F
2C33
256C
A20B
276F
2D54
2B33
2D10
1DC6
24C0
2916
294D
2724
28D3
27CF
25BD
2B96
2C1F
281E
B12A
B057
ADFE
B1AD
AFF7
28B4
298A
2EB5
2C96
A8FA
ADA9
2CAB
3335
3038
A7F7
AAFD
A543
AF9D
AF88
AF23
ADA0
B325
B07B
B28C
B01C
26B0
2C03
29A8
29E4
A977
2786
A044
A640
20C5
A7E2
A1CE
9AD3
AC37
A512
24FF
2C4C
2037
2C7B
2E02
2D5F
A875
275A
3109
29FC
260B
2634
297F
274C
2228
1251
A1DD
A954
1EE5
2806
9FC9
A26F
99BE
A82A
9E46
14F6
A291
21F2
A856
22A7
A4B1
A74A
A826
25C8
26D8
A1FB
B05D
AE3E
AC18
2612
31EA
B02C
AF8B
AD81
A98E
AEBE
B034
B106
AC2A
983B
9236
A670
1887
A6FD
2D36
2C0F
2844
2DDE
30D4
2E12
AC50
22AD
249D
172C
2598
1EF9
9AB1
A92B
1FA0
97F9
A83E
A93F
1B56
A5DF
A908
1B2D
21E8
A041
2533
A5E7
1F96
225A
245C
A442
9802
9FAD
24F6
264E
2631
A6BA
A604
A983
2668
257A
A807
A89A
27ED
8C79
A31E
A4F4
1E9C
A926
271F
A24F
A873
2282
A667
A30F
A435
2675
2418
228E
26A3
A94A
2472
9FFE
2843
A85E
269F
A905
250A
9891
22F3
2600
A6DA
A5A2
A583
8DBC
A8C6
A8FD
0C10
9E4C
1240
24F7
2695
A41B
9C7B
A515
0347
2310
A2F8
A8EA
2559
24CD
203E
1EFF
2515
2455
A608
26C0
A41C
A826
2038
A14E
A4C1
A850
256E
948C
2496
A82E
9D42
1D5B
244F
A8D9
1D13
9EC4
2434
A57A
1C92
A6E8
A46E
A939
A0CE
2625
A557
0DAB
A88B
A8D6
A192
1D2E
2519
2668
280B
A7BF
982F
A2CA
26E7
24A6
9B06
2564
9D4B
A1D7
9858
A764
A80F
A8BC
A8EF
27F4
A520
A3A8
A959
A727
2810
20F8
9F37
9BF9
1C3A
A5AE
289F
A905
210E
A53C
205F
A31B
2669
25D6
A2AB
1A81
A872
207A
A2E5
A656
A233
A3E6
A43A
A8DE
1AB8
A66F
1CC8
A4AB
1E50
8581
A8CD
A4D9
A275
01E7
A02B
A814
98F1
A5BA
216D
A4F5
A959
2400
25B9
A2D6
A581
2212
2639
A812
A853
9C0B
2579
226D
A415
9B3A
1EE2
A80C
A30B
A1BC
A717
9E8A
A469
21F9
1DFB
9CED
2635
A25E
1C44
2124
A6E2
A97F
A878
9CF1
223C
2267
A447
23F6
A0B3
9D88
A8B0
94CE
A7D0
A90F
A96A
A1FB
1F1F
2641
2301
A1F0
A865
2569
21F3
267E
A6B7
A837
A801
A522
9BB5
A3B3
2047
2581
A81E
A440
26CC
A257
1B1C
1F45
1606
9D18
A162
A67B
9F4D
2365
A89D
A840
22A8
2549
A776
24CB
9F4C
1B11
186E
A4B5
9D1F
A801
A971
A60E
A288
A8C5
A4F8
23B3
A618
9DA2
1C9C
2494
9D68
A8D8
1E27
A8EF
1A9A
234A
9EA1
A335
A7E8
98E2
A678
9FFA
A4A6
2010
A719
24D5
1D27
A770
1FBA
A93D
A829
A7DA
A698
246B
A3B5
221F
24BB
A264
1F6C
A936
25D3
A6B1
2433
A720
285F
1EA1
2445
A8B8
1C76
A257
A3CA
A005
AB75
9939
A95C
167F
A9C3
ABAC
9C38
A9CB
26BC
251E
192A
244B
20CE
1C39
A457
26C2
2660
256F
2678
A893
229A
96E1
A858
1CA2
2257
A8CB
A7C0
A454
A7B0
200B
A8B0
A25D
A70B
AA26
A395
9335
A9D4
9AB6
2538
A26F
AB2A
A18B
988C
A9EA
24BD
9096
2030
9E26
A946
22C6
2651
1A0E
A66A
1F47
A594
A73F
9E26
27A6
A2E5
1D8B
2482
A10B
25B2
1B74
215A
A5E4
A829
9A1B
A09E
20DA
2499
91D3
A58F
1B39
A4FB
A002
A199
A831
214C
24A6
A8AF
A67D
A19D
A764
A6A7
9D2C
A1F2
A3FB
26E7
1C21
9B8A
22C9
9C21
A8B6
9C42
24C0
230E
9AEC
18A9
2438
A1B7
A869
1EAC
A456
26A4
A4B0
A916
204C
9275
A3CE
A569
9F00
23E9
A982
2579
A609
9BDF
A0C6
1A0A
A5AD
A510
18B3
A94B
A81D
9C59
A8FB
178F
1E78
A8AA
2252
A259
2026
A5C5
9F04
A5ED
A53D
A2F3
24E4
23C0
2500
A4DD
246A
A459
A7B3
9F8A
A431
2622
A48F
A97C
25F8
26BE
250B
9D8B
9A6F
A877
A247
1D80
12E6
223D
2311
A751
206F
A676
A651
2594
A299
A914
9EA0
2456
885C
1F58
9C45
A4EB
22AD
A6A7
A8FA
A82C
258C
25A3
A0CF
A78F
256F
A2D8
281A
A8A5
2473
9909
2885
21D3
A297
205D
A509
1924
9F76
A520
20F0
24F6
2496
285C
291E
13BC
A7A3
A7AC
A29E
25A8
A2E7
A64D
253A
992D
1DC1
2592
A8F8
A831
2160
24CB
A7B4
A542
16D4
A948
9DB7
A9CE
14F2
A4C5
A8AC
214A
A796
A8D4
24D3
2539
A008
179B
A567
A53C
9C85
A8E3
1D6F
9F8A
A437
98A7
A01E
2677
A975
A090
A665
1D3A
1821
20D4
2560
A4FD
2190
A833
99BD
A731
A876
A50B
2271
23FE
A1D1
A675
A1B5
9C36
2227
A8B1
A52A
A5C1
A907
A979
9963
23B9
A920
A099
A6B5
1ECB
A290
9F57
A080
A5CC
A757
A1AD
2471
20C8
A62E
A8DE
15F0
A241
2419
A7F9
9457
A87F
A6F0
9909
A8CD
A66C
94C6
A78A
A88B
18AF
9B87
A704
A844
0336
98F2
A7C0
2232
A194
A70F
9F75
207E
A83F
9D92
24ED
20AE
A24C
258A
A8C8
22A8
9C2A
A2F0
21BB
A383
13FD
A219
A6E8
2248
A0C8
A825
20EC
A380
A119
20FB
2475
1DEE
A486
2182
176D
A79A
A8BC
A8F1
A51F
A93C
A3C2
A776
25B2
9EE6
A66E
A0EF
A913
2588
A4BA
1E25
2544
2616
A1FE
A96C
1D94
A191
A7E3
A6D0
9F0D
A599
9B32
A8AD
21BA
9229
A6C2
9FCA
A62B
A944
9894
25C9
A0A3
24DB
A6EF
240F
A2B3
167F
A82C
2557
A2C4
2888
A898
27A7
A8D9
A4F9
A86D
A79C
24E2
2106
261D
1C9D
24A7
A5A2
A33E
234C
A4DA
9CB8
A922
A5E0
2570
1E53
A9BB
A7CA
259E
A3C3
9C9B
A38B
A2D8
A6A1
1EC5
1F99
A20B
A198
2594
A8A5
A5A3
A726
259E
A9D6
2461
A31C
9E52
1210
24CB
9D53
A6B0
A741
255C
1E8C
A98D
2351
A55A
A8B2
A92F
24B4
22E0
229D
262A
25C7
165B
234A
A220
A942
A5E7
A1FA
A218
A86F
212D
2606
A562
A7FF
232D
1F16
23A1
1FCD
A91D
8E75
1A32
9F1D
9CA6
A4F9
A8F4
A90E
2590
26B1
9F3B
9A89
2717
255D
2164
258D
A862
A5AC
A4F7
A86B
1FBF
1D2B
A805
2414
2486
1CAC
2084
A3A0
26B7
A8F6
A0F5
1B20
A45A
9F22
25A0
A868
A8FA
A915
A8DC
2483
2437
A677
A73C
A730
A804
A109
A16E
AAED
A614
A928
219F
AAC5
20CB
1D86
9C1D
A79A
A654
A820
A057
A34B
A49B
2517
16A8
A83D
A68D
A822
260D
A82F
A7BE
26C7
A266
A675
2573
A6B4
A5EB
25CE
1A79
22AE
A42B
A91A
A5D2
A8D5
A23B
241D
A61A
20E0
1855
A67E
24E8
A610
A562
A43F
1A42
1421
A96E
A0A3
A4B6
9F1E
1C16
A9AD
A8C2
1383
A0AA
A44B
2881
25EC
2639
23B5
235D
9F81
A380
263D
26B8
A2CF
232E
2298
A6B4
92F7
A74A
2630
218A
2509
276F
A909
A6D9
1D5E
19E5
242E
96B6
A02B
A78D
22E7
2409
A91F
9FA0
A3FE
A927
A48E
14EC
225D
A90B
1C59
A8B8
24D5
2458
A8EF
A5FC
24B5
A8DE
2645
94E8
A346
A714
248F
2458
21AC
9EB9
15B8
A017
A11D
A7D3
1626
A1B5
921F
19E9
A665
0E2D
9CB6
A9CD
2584
A573
AC27
9FA6
A96B
98ED
A9D6
A42C
A940
17B0
A86F
23A2
A180
27BA
9E65
A2F4
A6D2
A4FF
A782
2391
A8A8
A46D
1D07
A2D0
A4FF
A8D5
2567
A8F5
2733
24E2
A7DD
A115
A87A
9DE3
2755
20CF
A8EB
A911
1E73
9E99
A231
A536
239D
A443
A10A
A7D4
A253
95A6
25E3
A8DA
A197
A866
21FE
A537
A6A1
23F9
A1BD
1E47
A1E7
A7D9
A7C0
1AFB
2501
A71A
A660
A8D9
236E
A8AC
A2D0
1D66
A058
9D90
A157
2436
A916
A0D6
1A4F
1E7F
2269
A82F
1AF7
A937
2548
A6D6
1025
2507
24D8
AB0F
14AD
A48E
A141
255C
2516
A5A0
258A
A86E
A82C
20A8
A2C5
A635
245B
A7A4
A6C7
A3B2
1CA4
9E6F
9EC4
2531
2365
23DD
21C5
1562
A881
A5AB
A3D2
AA79
9D32
2357
A8F0
A8BA
2517
A04C
A464
2751
996C
A3C7
A7FA
A5E6
851D
9415
250E
253E
A8BD
A487
2237
A823
A88A
9BFC
A844
9EF1
A805
18F4
A258
2293
A5C1
A21E
A44E
A647
A54B
A4FF
A56B
A94B
A67B
2708
979D
2194
A6F8
A0BE
14F8
2539
A9C2
AAEB
A70A
A4AC
A8DE
A741
A7BA
1E69
2747
A857
A352
24A2
A67C
A74C
A8A7
934A
A9DA
A830
219F
9F42
A546
AAAA
238A
9D01
AA40
2072
A687
A5A7
A296
A496
9DFE
A83E
227D
A419
1114
26D2
2386
A8E6
A728
A577
1E66
2755
A7B4
A46D
A32E
A144
2265
0CF3
A815
22F1
A825
A0A2
A833
24A5
ABEF
A61C
A25C
A7FC
A61E
A106
A63D
96A5
A037
A85F
9F00
A8A6
2477
24DE
A444
A82A
A25D
A09F
A6A5
2320
A40F
211A
2721
A653
A648
2676
A83A
A771
A43C
262E
A4F7
2580
A89F
A474
1D8C
A3F2
2596
25AB
A82E
A8F9
1B23
A365
A81B
925D
2344
A88D
2536
2759
1879
2231
A63E
1B15
202E
25CB
A815
A6C3
20FB
15CE
A6DF
200E
1DCF
266A
A7E4
209A
2213
A832
A807
1E14
A6AA
A17D
A0E3
A6D7
20DA
267F
A145
A650
26B9
A461
1E9B
A2DE
A575
A366
A958
253E
A595
A45E
9D71
1F16
A47D
2462
9F6D
2469
A97E
9164
249E
A254
A898
A83F
A90A
21C7
A907
22C7
0AC8
AA00
A887
A484
A996
A949
241E
A6FE
A21F
0E75
ABA7
A97D
AA1C
A1E5
A864
A5F6
1CF7
1FDE
A8F1
A2AF
A85D
24C3
10EA
24A7
A952
229C
269F
2799
A57F
A11F
252F
275E
A8C7
2767
9EF8
A17E
A1D4
26BF
1F69
A8DE
2525
A8C7
A29E
A441
15FD
228A
A174
26A4
2774
1DB9
A342
24FA
9F68
A423
2731
8DC0
A58A
A806
A7FD
99BC
21DC
253B
A86E
9E8D
A7D0
2648
1DE1
27C4
22E6
18A2
9CB3
16DA
A98A
245C
A813
A50B
A5BD
AA38
A7A2
A83E
A626
A54C
A824
0AB8
A4B9
24E3
A997
26D4
A8EB
9E7B
A00D
A9C9
276E
A86D
1433
1E7D
20C2
247F
A835
A5AB
2016
A35B
9F8A
9C8C
A46C
A964
A722
A087
A346
A696
A360
222C
A8A5
1CC3
A9CF
A186
9A1A
A53C
1DB6
A8DA
1BE0
A866
A734
A55D
1DA7
9B46
9EE9
248B
A4DA
A975
1EDE
A73D
A601
25DE
24C2
A91C
2069
A342
21A7
1BC0
271C
A80C
A79C
26B5
A6BB
A522
A124
9B3D
200E
993C
2152
2732
A5EB
A624
A8E8
A2EF
2129
A7D6
26F8
A891
1F98
A647
25F3
9A89
AA8C
A66A
963E
A7E2
25D8
A910
229B
1D5A
A896
22EB
A20E
A8FA
1C5A
1DFE
24D4
A75B
A859
A4CD
A54F
A947
A5DF
A21A
A8F4
244A
A677
2609
A44C
1AD0
25FC
2141
24A9
A8F3
A3C4
9E72
A885
A0E3
A86A
A35E
A55D
24B9
A90A
9C3E
A0F3
A6B0
A569
A98B
A725
21F7
2777
A7BA
A42B
25C4
201D
1F69
A569
A68E
20BB
A6FE
A7B3
1F6D
2636
24CF
A590
274B
A809
A05A
9F84
230B
9F35
A4E5
A6E9
2581
A83D
26BD
273F
23D2
A527
A5F5
234E
24A7
9809
AA1F
A93B
19D6
9D68
9C86
955A
9726
203A
A530
2859
A197
AB73
AA4D
9CAF
A4A3
990D
A418
1489
2051
A153
22EA
A0C2
23F1
2636
984C
A879
A3B0
A2D4
9BAF
2066
99AA
9F7C
A6D7
AA13
2543
1A98
A685
233A
1DFA
A470
A8C2
262F
2118
A523
212C
A7EE
A6AF
A9A7
A84C
2276
A449
A933
26F1
99B1
1C80
9A1A
1AB7
A6E1
A623
A894
22A2
A638
A8F7
A0B8
A43C
A746
26AD
214F
A79A
A91E
24C4
2786
253B
2700
1C60
216B
1F97
9775
A7E7
A4F5
A686
954C
24BD
9A80
2661
232B
A403
A91D
2025
24B8
25B3
0AE2
2290
A7DA
A8FA
9E99
A5D1
97D9
A91F
2EFF
2EB8
30BE
2270
2862
A521
9DA9
2AEE
2C4B
AEB9
2A8C
3098
2D01
A7FA
ACE2
A130
3032
AD4B
A965
AB98
AF7D
A946
2D70
B033
B3E6
20FA
9F8F
A6C9
A729
2194
9912
217E
A831
193F
200D
8D0C
A20E
27AC
26DB
A626
20F7
2696
A0FE
A5B1
99B8
1FE6
946F
A3F4
19BA
21DC
AE4C
A285
2C12
2A80
AD0F
A992
A5AF
AB23
9D8F
AE21
AD8B
AB0D
B079
AD19
2929
AA6C
A14D
B05C
ACE7
A003
975A
2C37
AE74
1ED8
2BA2
2816
283B
2ABC
2696
AC6F
218E
A252
A9A3
2919
2716
272E
2942
293E
2C55
28B5
2AA7
9C9C
21D9
25E4
200C
2010
2350
A675
A162
245A
A8F1
A46A
AEB2
ACCD
AB95
26AD
A965
AE33
A48F
A63A
32CE
25E1
2935
2B48
2E2D
2EC7
3096
2AF4
2121
2CA0
2D26
2C5A
27A1
2E41
2E0E
2E1A
288E
2AD6
2451
9DAC
2AEA
2D01
1F00
1D9C
ACD2
284A
30F4
2CC1
2056
24D1
2E54
3157
30C4
2FC9
304C
A092
30D4
2F8D
2C80
2B60
24D0
2D72
249D
A275
A640
A3E4
A88F
2679
22F9
83BC
A035
21A8
A57C
25A9
2D67
29C7
305A
3089
32A0
33BF
A729
2FF9
2F38
2E41
3430
2B3B
290C
1159
2C8C
33F0
2D50
24ED
2C03
2C1A
24CF
274A
AC7B
AA37
B075
AF46
A440
AD28
AEB1
B098
B273
311E
3279
29FA
B1E4
B425
30C0
30C1
29CD
2A8C
331E
2A39
2E20
2ED2
264C
9EB0
A590
29E3
AD5C
AA64
B0B1
2973
B068
B324
B128
B277
27E1
A66E
ABDC
9FB3
B309
AF19
2574
9F3F
A6C1
B3B1
2560
3096
2FB0
2AD2
AA0B
307D
A0C3
A0D3
AB38
276E
3071
AC10
AF70
B168
283A
2FD2
A9C0
AFD2
ADF2
AA98
ADC3
2ED2
2C7C
3294
2D8F
AAEF
1CA6
AC3F
2979
2CE7
246A
AD9C
AC73
2C0A
ADB4
292C
AED5
ACE2
2D00
AFAA
ABCC
B263
B1CB
B1D6
B519
A589
A5B3
A499
A6BC
AEA5
273C
2C60
A8B6
299B
8AB8
A938
2697
2F43
297B
A84A
AD29
2D72
AC29
AFB4
B14C
B171
AF23
AF65
B39A
B4A6
ADDC
973E
2E56
AD9D
25F8
AA61
AA1E
2EFD
271D
A77B
ACE2
A596
A680
AE14
AD3B
9CBE
B022
B21A
B2E4
B2B0
3434
2FDD
2C74
2B9D
2B99
2B18
2DC4
2DCE
986B
2CF5
ABD4
29C2
2CB9
2B99
2EE9
2145
260B
2BE9
28AD
2DDB
AC06
AB1E
AB3E
2B87
30F0
B0BE
B091
ADA8
1C49
2981
A8DA
AA9C
2AB1
28CB
2992
2AB3
AEC9
A843
9F1D
2A12
2CD0
9C43
2910
A710
AAC4
2BAD
2EE1
28CD
2CD5
AA80
335F
3328
2E48
2CA0
B017
AECB
AA67
2BA7
24AD
2530
AB37
AEB0
A666
24F9
93B5
1FC4
292C
2B11
A4BC
AF58
17F9
2E19
2C5B
2D2A
AD8D
2ED2
2C50
A04C
2FA7
2DEA
21E6
A4E9
A072
A9D4
A96D
987A
2301
21BD
A846
9DB2
277E
99FE
A81A
9A72
AB20
A820
2494
A43B
A0B8
AB37
AC28
23B0
A6F5
24C7
2056
2D4C
24BF
A352
2956
24E6
211F
AE24
AC52
AE72
272E
1CD5
A948
A6EC
A04D
2AFF
ACF8
296D
AACD
A93E
2827
272C
2D96
A759
2D41
3048
2E2C
2CC8
29E9
2A57
2A3A
1E4D
A641
AC11
20C9
9BE4
ABEC
2C5F
A9ED
A8E2
AC07
2115
2614
9EBD
AB6C
AD91
A8D6
B0C6
B0A7
ADC0
AA06
225D
1557
2C8D
2849
2890
3011
A856
2258
2D84
2C93
2F7A
2D38
29B5
2A98
A40D
A869
A741
A8A5
2C28
9F2A
2425
1A88
A29C
2325
A510
9FBF
26FB
2820
992B
2863
9A70
288F
290C
16DA
A507
1EA5
A455
2523
282C
12AD
AA0C
9EAA
21A0
A0A2
1E00
21A8
A759
AAB1
9DF2
2880
2BB1
2BD6
27DD
2C63
2A57
AD4F
A9CE
139A
2E23
2D84
9DC4
230A
2D22
2B0A
AAA2
2379
2BB2
3344
2FC0
AB2F
AD71
B0C6
B0A0
AB1D
B001
2E98
200A
A86D
AC72
2EAE
2F0F
3213
3073
2E6A
313F
AA8C
2B01
2BF8
2E66
2E22
B41C
B17F
B0C2
B39C
B0EC
B58C
B1A3
B265
B08A
B46A
2371
3051
31B1
3038
283C
B205
AA91
AB1F
ADA3
A8D3
AB5E
A4D0
A542
2858
2AA5
AC78
2B1B
2D79
1D68
2E9A
B102
A5DF
256C
300D
3111
22D0
25E3
3092
262B
AB46
28AA
2B4B
A66E
29E3
A172
2FC1
A370
1F98
2C0A
2D1C
2F22
AB68
A9CB
20A0
A836
26E7
1697
AB4E
A4D9
A93E
2ECB
2986
2210
AA26
AC98
2E14
28A0
25AC
28BE
2C12
3140
2BAC
2E27
2D12
246D
2B85
26A4
2C5E
A9C1
B0E6
1FF2
AC34
AD92
AAB2
AE1D
AD73
A882
236F
2999
ACC9
B275
ACDB
B0AC
AB7C
A599
B3AA
B0E0
AE39
ACB9
A225
ACB9
AC53
1898
A51B
A80E
2FCE
3048
2D4B
2BEA
3088
A507
A915
244E
24C3
2401
A419
2314
A9DE
A8B9
2794
A543
A9A1
AC9B
A571
A851
A74B
AAA2
A13A
A9E3
A9B3
973B
ACFB
A504
26B7
A85B
3126
27A7
24B8
2F70
AF2C
3138
2F40
2D9D
2D0C
3031
308E
31EA
3068
2F12
2EAC
AC01
ABAC
AD5B
B0FB
B1E7
B378
AC16
AA1E
A82F
ACD0
2C32
2574
1D1C
274F
29EE
AD70
A72A
ADA8
2830
2F66
AAB8
A944
AD23
A0D0
A78E
2C11
9654
2BB9
2769
9D98
3141
3090
2DC4
2B7A
28D8
229C
19F1
214D
291F
A434
2AF2
2473
AB0A
A40C
A11E
2838
2B9B
29E0
9C67
27F9
2581
28C8
273A
2B75
2865
A725
216A
26C4
2A2B
9E56
2C83
2F01
2FE7
320F
3129
AD2A
A98C
3130
3082
AD95
AD9B
B164
3086
325E
ACCF
AB34
ADFA
A5D2
3181
9E81
2AE2
A6A9
2381
1C11
B136
AB9C
2256
A637
9079
A86F
A40C
21B0
2437
235A
9DD0
182B
A1BF
A9E0
A437
9DBC
9E25
9551
A9C0
A14A
A409
A42E
A4D8
A4FD
9C91
9E50
2854
A235
21AC
2901
26C7
259C
A6EE
A38C
A61F
973A
A764
A463
A898
2222
A352
2489
2228
2106
92C8
A4BC
261C
1D0D
A851
2741
17FC
26CA
25C6
2572
ABD1
9E1E
8EEE
2158
A54C
A2A8
A6F8
24A8
A2C2
A229
A6DA
A341
24A1
A82F
A863
1CA8
25E2
111D
A937
206C
A60C
224C
22F9
27C0
A6DE
0CD5
9D11
A8C2
9DB0
2723
2073
238F
A812
A28C
9918
24D4
12AF
2753
A922
A58F
A2F5
A2FB
214E
A929
273A
2072
A923
23E0
A8E7
AC42
A6DB
9A02
A69C
A764
A0C2
22D5
9814
A73C
2548
1650
A59E
A7DB
A2AB
2937
18A5
A8C0
1E83
A635
9641
1804
A016
A4A1
A626
A077
A89C
A75A
ABDC
A37B
A63F
A84D
95C6
212C
A5C2
25A1
2065
257C
2466
20FC
1C17
A81F
A85C
A7F9
2216
18A3
1D26
A7A6
2000
A4A8
20AA
A7C8
A8D9
A279
236F
245F
21F2
2362
1A40
A837
267D
A774
22A6
25F2
A3BE
26D9
A91C
A0D0
1C5B
A8A4
A91B
A6DE
2175
28B1
A65B
A817
1C84
25FB
9D16
9C15
A2C0
2528
25E4
1E6A
A766
22A0
2229
247E
2198
2130
2084
25F8
2726
A72E
167C
9C2A
1E38
269E
A7CB
9FAC
1D8F
A9D9
052D
9D82
A007
986B
A5AC
A454
2411
A885
9A62
AB60
A546
A1E9
1A21
A835
2402
A2C0
1E3A
A486
A22D
22F4
A7CE
2491
A2F4
A8FC
AABE
A886
A7CE
AB1C
A775
9F4A
A261
2099
A91C
A8D8
A8D7
A119
91AB
A97E
A4ED
A9B3
1FFF
A931
AB0D
A65E
1DFB
A80F
A45D
A899
A805
A5D4
1B1E
9C90
1C60
1F0C
1D55
2197
A823
A7CE
A6F3
261E
9FBB
A51D
1C43
25D9
1DCE
9E13
2229
2738
258D
A92A
0A9E
24ED
1D95
A593
A867
A5D9
9DC4
A434
2130
A5F4
2007
A7BE
A719
2360
A86D
9532
ABBA
18B1
9BB3
9D0C
A6F1
A7F8
A484
206D
221A
9EBD
A4F3
27A0
A213
A102
2239
27DD
2843
A7DC
9E74
A7F3
2848
A146
1E51
AA9A
A8FB
A598
A8CC
A7AF
18EA
A46B
A2CB
9698
AABF
9D7A
A0BB
9F92
A305
A895
A53C
2436
A47D
9AC6
A850
2007
2606
A572
A503
A7AA
A5DD
A880
A91B
A1CB
A607
A531
9F9E
1CE2
A464
1F90
A648
A995
23DC
A6CF
A906
A46F
2086
A34E
ABAA
A8BB
A9CB
AAE1
A6DD
AB6D
915E
A400
2216
A563
2541
A8BC
200A
A5A7
A45F
0D9A
A52D
274D
A406
A1A4
A62E
83AC
A58B
A56D
10CD
19DC
A937
A41D
AAD3
1DE1
A9A0
9AD7
2237
A6A6
A907
9E36
A74E
A97A
AA82
A900
A4B3
A540
21E8
AB48
A31B
A6AA
A64D
A8A2
2458
9CDC
1A61
A84B
1BF4
24A8
9EF2
A560
A5DA
A892
276A
A701
1FFB
A738
1EFC
2648
2494
26B1
A17C
1F90
A7A1
2048
A877
254A
A14B
A959
9389
2768
9B85
9FC5
9643
24C9
A504
A47E
9BB7
9B02
A614
08F3
A441
20DA
9877
A9D4
A492
A56B
2653
A578
1D05
AC19
997E
9F8A
A56A
9EC6
23F5
1479
A49F
957E
23DE
A43A
1C2B
9F38
A63D
2217
A8AB
2106
A814
26C1
99F9
23E2
A80F
2573
A7B0
A685
A118
A069
AAD1
2693
A896
9E6C
A6ED
20D0
2233
A644
A8C3
A5E8
A943
A40D
1441
9B94
A137
1A2D
26F7
A30E
A823
A673
2653
A6B1
94E5
2510
A5D2
9C10
2690
1EEB
2420
1D1D
2105
218B
A7EE
A806
26AC
A4BD
A612
A018
A074
0BEE
26DB
2514
A83A
2719
98F6
A4F5
A1ED
2658
A39B
A5EC
A4C1
22CC
1451
A84B
19D4
2716
9F50
239F
A561
AB14
A3BC
A2BE
A025
A50C
20BA
A128
AA5A
A994
A7C1
A8D2
A44B
A595
AB2F
A89A
2473
1DB4
2303
A8FF
A9DD
A4EE
A502
2439
A3E4
A554
A983
A880
A73E
A246
9B7D
A9D2
A75F
2710
A85F
AA53
A666
9C85
9C36
255F
A639
920C
A2EA
A101
A911
A60C
A895
2274
9FC1
AB20
A4F2
222B
A886
201E
A7E1
A862
25CE
A935
A7F6
20CD
9A01
2179
A48B
A568
A4BA
1C9C
9691
A34A
258A
1E42
A828
231A
A137
A418
2161
1400
2269
A82E
A695
221D
20DA
A86B
1BF8
AA7F
A5AE
9C20
AB5C
2024
1E45
A990
A8DA
1F6C
1C2F
A316
2654
A6E8
1CE9
A091
20D4
8A75
A749
A114
A900
118E
A689
A485
25C7
A38B
240A
2648
A804
28A4
2459
A8CE
20FE
A854
A913
A829
A7E8
A961
93DB
9B29
A977
A910
9F7E
A838
A90F
A034
A417
A76C
233B
A51A
25BB
A8BF
1E20
A81B
25B4
A389
A8DB
A599
A261
2426
A2DB
2001
A2A2
A870
273D
9A23
99C8
1A93
264A
A63B
A766
23BE
274E
1999
A786
223C
271E
9A20
A453
9A57
273C
A5AA
A01D
2038
A2A0
0F9A
19AB
A8F0
26D5
A6EB
21D1
907F
18E6
9851
9749
A560
1C6A
0F4A
270F
27A3
A6DC
259E
22FF
A99C
A41D
2540
A21B
20D2
A806
1E28
A268
9ECE
A1F0
AA74
A9D8
A423
24CF
AB76
228F
A8C6
A49F
A028
A3C3
A80D
2458
A4F9
24F9
A91E
2325
A338
26C7
9FFF
A6FB
2283
A3A7
25CE
265C
A893
A886
A6CE
2435
2395
21F1
2739
20C5
20D7
A401
A4B5
25BC
9BAC
9F75
A42D
208F
A114
A3CF
2226
A621
A77B
1CF5
A0BE
21F3
240B
A6FD
25B1
194A
A73E
A5C7
1F25
259F
1FE3
9D52
2707
A7B6
8714
A50D
25DE
26B7
245D
24B0
9F92
A134
A745
A404
2A50
1DFB
AD08
A85B
AE4A
A456
2609
20F9
AF1A
A5B7
AF96
B1FC
AFBC
B1CA
23EB
AE2E
ACF2
1E8D
21FA
AB81
2B37
2C0A
2BA2
ACB3
B27B
A199
1F24
A73F
24A1
A378
A486
A1EE
195C
253C
277B
98AC
A3EC
2549
2843
9C2A
1F63
2768
1895
93F6
A367
245A
2C0D
2610
9CA6
A151
3243
30A2
315E
2636
32ED
A6A4
2C31
3214
AAE0
A676
2C90
AC8C
AA87
B20E
B48B
B027
B43D
ACC9
B292
B0D8
1FDD
2CB7
2D17
ABB5
2E35
A6BE
AA58
A47D
A468
9652
28CE
2457
2857
2B5B
AC30
1580
05F7
A943
AA55
AA17
ABF3
9290
219A
AA9E
A431
A400
23A4
2B68
A5DC
A41F
A928
A33E
2797
AB89
90D5
2A99
AAB1
AF31
A5AB
A194
2A20
A1CC
28CB
289E
2B8F
2359
A5F4
2762
2371
2C78
A4E5
2E77
2E77
2448
2B6C
3088
2FDD
2DCF
3082
33F5
2D61
1C0D
2933
2C5D
3164
A47C
B0F3
94FA
2C29
2D6B
B102
B0A1
A8B2
ACC9
B086
A9B7
ACDB
A901
A8FF
B115
2E64
280A
2BCD
2CBC
3362
AB57
AB4F
1C94
1D0D
A271
2B64
2A9C
2F17
2C67
A823
2CD9
2CA9
308B
2149
A8CC
281A
2957
303F
3013
ABE7
2492
2968
28BC
AA4B
2C49
A809
AEAD
2E0E
238E
298A
A2AB
B087
1D63
A07E
2FCE
258B
9155
A562
2C02
3027
9A73
ADD3
26DA
2E97
2DBB
ABB5
ABBC
AC18
A64E
A7A1
AF17
B3B9
B148
B169
AD0C
B242
B19A
B628
B602
B0E0
B378
ADF2
B045
2CC8
A178
AD43
AD4F
960D
2DDC
2A65
2309
AFFC
9EB4
A9B8
30F4
A430
A5FE
2F59
12B8
190B
A998
2E8B
30CD
2E08
2B25
ACC9
3242
3254
3198
9C42
AE3B
2CA9
3147
2ED7
AB4A
2E5F
ACA0
A622
A82A
AF83
2614
A7DA
2DE5
2847
B268
93A0
27B1
2F8D
30AC
ACEA
AD94
A9A3
A092
278D
AA9E
AEFD
2D45
2F6C
3099
311B
AE6E
AA0A
15C0
B03D
30E6
A7D0
2E9C
9F2C
AE29
248A
1D82
2D0F
AC6B
A858
A915
305C
A174
27C0
AA04
B079
24A2
A94D
AACF
AA56
280E
98C9
AC42
A6CD
A7F4
2E27
28DA
2F6C
2F47
3108
3176
2AF6
2C7A
2DAF
2071
28AC
AFB1
2444
2561
1B03
284E
A677
B04D
AEA7
B06C
AF38
B20E
B216
AA8F
27DD
1C69
A740
B1C9
AF4B
A21F
28D6
AF3F
AC64
261C
2B85
ADE8
2087
2724
2642
1F23
AB89
3076
2B4C
2AC0
240C
2061
A7A4
2DA0
ACCC
AE32
B2A4
A5F7
2BE1
AD2B
A7F6
A8D7
9323
A432
A84F
22FB
2F58
B0B7
A962
1E4E
A936
2B46
B361
B052
A9E9
9B0E
3421
29BC
2702
A702
A8B3
9D5A
9B90
2D5E
A549
A822
9913
AEBC
1A98
2F7E
284B
2808
AC99
92B6
2CB0
2E61
9C61
B1CF
AE39
AF51
AE35
AD81
2407
A020
23FD
A167
A7D6
2457
A46C
2263
A9CF
A87C
A936
9DE4
A559
239E
A9C9
2494
A9D1
A851
25E8
998A
A021
AADA
A9B0
A87A
A828
A3F3
A8A2
A863
226A
310B
AE32
2ED1
2903
2C0E
A596
1CDD
2CD1
22F5
ACFF
A561
30DD
AC65
25A3
AC24
AD87
AC4A
266D
2BB2
2DF1
2135
A336
1D8A
2A54
2F12
28DF
B1FF
20D6
AD9A
A9EA
AC23
B192
B1BC
B1AD
B004
AFD8
B2AC
B27A
B1C1
AE8E
AF20
AC1C
A175
AC69
26CF
ACA2
2A36
2C0B
B045
A8F1
B136
B195
A7E9
B176
ABC7
B191
275C
A904
ACF9
A9FC
AED5
30DC
2FE5
2D84
9E2E
29C1
3163
2F34
2FD0
28A8
2E15
99EC
22C7
276A
283C
22F1
1D66
2869
29A1
25C1
2384
A60A
A43F
A41D
AA10
9773
9C25
275E
A553
A3AB
261D
26F2
99C2
1CE6
24A7
A8A3
30F9
24B6
A9E7
ABBB
28DD
3473
2C3E
28B9
24DA
2B6D
32FD
2C5B
262D
2916
2FFC
A246
A12F
ADEC
26D3
22D8
B42B
AA0D
230D
A402
AF65
A478
2A5E
AA27
2CE4
1AC0
B19F
B488
B425
A9D0
AE9F
B101
B576
B6EA
B64C
B4C6
AB16
B311
B48E
B00D
B236
3025
AD1B
ACF1
AB79
A966
ACB2
AD83
A3BA
A1AF
AC1B
AAD1
AD8F
2960
2C43
2B41
2DC6
2CD7
9374
A9ED
28FA
2ED3
A6F5
A85D
2C10
2B3A
2E43
1C26
1FF0
ACA0
ACB7
284E
25E7
2420
28F2
2145
2CE4
2BA5
2F4C
1FDC
27B3
AB55
265C
2F87
2C22
2392
28E0
2E19
308B
2EC2
29EB
A970
2E0F
2C4C
2C7E
AE4F
2E1C
2A97
2E93
2E0D
2E88
1EAE
A1D9
A9F9
A3D6
A0D8
2955
258E
AD07
A88E
AAC8
2CD7
2FEF
26C8
A4B8
2834
2C05
2FC7
2EBB
3180
2D4E
32AF
2BB3
27F0
2F07
30A4
33AF
2DCB
A5FB
2F9B
3118
2BF7
282E
ACE4
AFFD
2CE3
1B1D
B0CF
AC8B
AC5F
A8D9
A1D1
AD49
A51B
AD6D
AD83
AC39
AA35
A1E6
AA5F
A7E2
AD83
AC47
AC0C
ACA6
A565
AD10
2A1A
AC43
201A
2616
A19E
2399
AC3F
259B
2D91
9816
9964
289C
A808
A049
B24C
A966
A428
B04C
B263
B0BE
228A
99EF
2C02
B0E9
AAA3
AD87
B1F0
AC4F
B320
A814
2D1A
ADDC
1F4F
AD27
2FAD
A392
A4CC
A7A2
AE5D
2D11
2E1A
2B87
1A98
A989
29A9
24A6
2D7C
B35B
B242
286E
A56B
B1C8
B08C
27E5
AE5A
AE1D
A39A
0E64
26E1
ADDA
A950
A3B8
A311
2E10
2805
A734
A81E
9E52
A879
A858
A440
0BC4
9C66
9D8E
0EC0
15AD
A41B
A802
A87F
8E79
2895
26AD
A956
20BB
A326
1BB4
28C2
231B
23C2
AC05
8FE6
ABDA
AC74
AA8C
2994
24D9
A269
A5F6
2C1D
2CF9
2F50
2076
AFE7
14B4
32C5
2F5D
2BB0
257A
2A33
24FC
2C39
A4CC
2BA1
A5E9
9E06
26F1
265F
134D
9AFF
A836
1FEF
24B1
A837
A4CD
A005
A6C7
11A9
1E28
262E
A6E0
A12B
A17F
22AF
A36F
10DC
1E0E
A294
9DF9
24F1
A8DE
A407
2358
2719
9C98
283D
A408
2572
A0EA
17D2
1CEC
A293
9C51
A594
9FAB
A5AF
2419
A51A
2477
2784
24CC
207B
A06E
243B
209C
265F
A271
2241
A8AD
A4C7
244B
24E1
A14E
A948
259B
A406
A61C
206C
25B7
184A
2031
2054
241B
25A3
2387
A6D5
A713
A04E
A58C
A5E2
A746
1764
22D7
997D
A875
A402
A85A
A396
A047
A192
A4D1
103C
A5B4
A83B
2467
A88A
A817
985F
1088
21A3
A280
A11F
1FA9
2454
A6C6
23C6
A6F3
A098
9F8D
9BC0
A60D
15C3
9F51
20F1
9512
A4A2
A712
27EA
2175
26DD
A058
A886
A407
A91E
9E3D
97DB
A08F
A671
2207
A6FD
A704
A48C
A6C1
A8F5
2563
259D
A83D
2348
206B
1CCC
9C1D
9FDA
241D
A91B
282F
2444
A91B
A8A8
A6A2
A681
A4DF
A808
A2D3
9969
A8CC
20B8
9663
15EF
9E1B
A550
A329
20AC
A42D
25C6
215D
24E5
A294
2031
A6B5
A0D3
A1C4
1C15
28B7
26D6
A719
A6C2
0AFB
2248
22B9
A81B
265E
2043
1863
1CC6
A1C6
A957
2633
1A8F
220F
25EE
2824
A8AC
22B0
2069
A5A0
124B
A75C
A2E1
1FC1
2330
26E4
9F90
A189
247F
26BC
A439
A35C
9D5A
247F
A0DE
22EF
A5D2
25AE
23AE
9F5F
25C5
A373
1C26
A650
996D
A85E
A8E8
A9AF
2588
25D1
2880
237F
A89A
0ED1
25DB
9DE3
1F22
964F
196F
9C9D
2574
981F
247F
A82C
18F4
A1DA
A15B
9D69
A91F
2445
A6C7
A19B
2320
9E2F
2114
253B
A8CD
A913
A872
1CC3
A8FA
24FE
2463
AA5D
A835
A63D
A436
1C1F
A1DE
A584
A4B9
1FE1
A85B
1F9A
240A
A92E
A890
183D
A05F
A661
A3B0
9ED5
A838
A598
A890
1084
A4D7
2410
10D7
242C
A689
2625
197E
A8A4
244D
269D
A818
24B4
A4C4
A529
99BC
26D6
988E
A53E
1412
A82F
2716
A80D
A55A
A663
A78C
2556
2216
9E66
9E70
A069
243C
26B5
9DC0
A565
230A
A8FC
197C
2335
A54F
A4E6
14A5
A107
9D10
2196
A8C2
2132
A7D8
A0E3
2551
2407
A9D0
1F2D
A99D
A900
94A7
A3D0
A769
27F6
9C64
1BF7
2372
255C
9E81
21BA
2807
A8A1
A433
A83B
A72C
A49C
2133
261E
1ADB
2043
246A
2037
2818
1C92
A25C
2191
AA39
A74B
A470
2007
A701
A212
A08C
1DCE
A8C3
96D9
28EA
24CC
2828
1CF2
A8A2
A814
206A
A654
A7B7
268F
A846
A5A8
A543
A5E6
1C17
245C
2589
A5C7
218B
A403
1F17
A91D
1C3D
A831
A482
2134
A01E
9CEA
9E68
A65C
A91A
1E5C
97E0
A2EB
A6BD
A553
16DC
A93B
2571
9C2C
9ECB
22AF
202B
A85C
2640
A8A5
1D7D
9981
20A4
A3B2
A957
A5A6
9D8D
2644
1C7B
25AC
264D
268A
8F9E
2510
A010
A801
A8C7
2118
20D9
A855
A60B
2231
A493
A841
2477
9E1A
97DF
20D7
2409
A938
9AB5
2353
A7B4
249E
264E
A5FB
A811
264C
A713
A6FF
A1BA
1BFD
A884
A552
2695
2369
A36B
A2A8
A49B
98B5
2177
A8D1
1563
A7FB
A619
A944
A7B1
9FF4
A082
A8F7
A844
20DE
A7BE
237D
18DC
A438
A58A
A83E
2898
200B
A88C
A867
9F7E
9D07
A83B
A8CA
A752
9760
A689
A6B9
277E
2739
242F
268C
A334
27A2
A837
A0EC
241E
21FF
2662
9C5E
981C
21D9
242C
A18E
A5A0
A320
A27F
2517
2137
16CD
21D7
9CAD
A00D
A54C
A18D
279F
1564
A4FE
2610
A495
A459
2518
9555
26E4
1CBD
2455
A102
A768
20AF
A41C
25A1
A840
A6F5
A96F
18CF
2699
A689
A535
A372
A7AF
A3F9
9E20
252F
1AB9
A137
2566
2189
A297
25B8
2368
A900
A29E
A825
20BD
A464
2436
A90D
9800
A9C4
255F
A643
A6F9
A988
A134
24B9
A69C
A98F
A367
1D1E
A2DE
A8B8
25D8
2659
A8E1
A5A8
A042
A5BA
A94A
9FBC
2458
240B
24AF
A908
99F8
A754
A615
A9F0
1E23
A9DA
A729
1227
A718
A9F0
A9B0
A502
A5B6
A299
A8B0
23D3
9931
1EE8
255E
A49C
A943
1DF8
9C08
A5E2
271A
9BD7
1DCF
A32D
A0D2
253A
2440
275D
A809
A526
24F5
2407
2508
1754
A5DD
2128
1F8B
240E
A518
9385
1CFD
A62E
A418
A7B9
2197
2407
A846
A03A
2044
A896
A062
9809
A05A
9D07
A8D8
A4C0
A54B
2332
A8DD
2352
A18D
A6B7
A871
A08F
A61A
1FC0
2648
1CF4
A5E4
24B0
A71F
A6F9
2378
21FD
A12C
9897
2314
A732
A1F9
A888
257C
A4B9
8914
97A4
2909
1848
2826
17E6
8368
267A
22ED
A028
18E2
1F98
2517
1BDE
200D
1EC5
A5B8
A352
1E3F
A8DE
A6F3
1A9D
A90B
A37A
2108
A2A7
21EF
A753
A795
1019
A8EE
2562
9D4A
2656
A7E4
9A57
2364
9B64
1E02
A04D
8A9E
A892
A646
2189
A68F
A859
A5EE
A898
26DD
A410
9DE2
255B
A610
A723
2513
A9C9
A54A
2509
A965
AA69
A8B0
23CF
2368
A47C
A1D3
1390
A394
A540
A87A
9F21
A827
2529
A33E
2400
A71A
A816
25D9
24F1
A6B1
1D20
A139
A293
A373
19A8
2493
24DE
2871
9D67
1612
2542
25D8
A60A
21F9
A89D
20BE
26F5
9FA9
A52E
26A5
A518
A000
9CED
A72F
A584
2559
A3AC
A7CA
A44C
9C45
A352
A729
2469
1F9A
1A2D
A8B6
A8F6
20B5
21C4
99D9
2053
9D57
258A
A30E
9C6A
A876
A98D
A475
AB9C
B00E
1EB3
A968
2711
28B4
2CC1
293F
2B7C
29FF
A482
2EE5
A80A
A78F
AB40
2D86
2AD3
1A08
AD1D
AEF8
AC26
B1E9
B196
AEEF
B095
A828
2810
2141
A0C6
A811
2091
A578
9AB0
A583
27FC
A3F8
9D19
1CEF
9E38
8EF7
2642
2884
A44D
A30B
0E08
970B
2700
187B
282A
AA0E
AEFF
3027
ABD3
2A64
A006
AD88
27A7
26C9
96FD
195C
AF9B
26F9
2D2C
258C
AA5F
AEC9
A959
2173
9134
AFC7
B10E
B1D5
B080
980D
B16D
A54B
ACAE
2867
2484
A1BB
267E
A0E8
A31F
A210
2583
A4B5
A6D7
2147
28D8
248A
A5B1
A2A2
A3A9
ACBF
A7D2
2516
24D3
9EF0
AA0D
A868
ADCC
AE45
A89C
AC72
B139
ABE0
A9F6
A894
203E
A9BD
2F16
2A40
2BCA
2EE0
304E
308E
2D5E
2CF6
2D51
2F21
2E9D
249D
27B8
2B57
2E8D
292D
32B5
2D03
2B2C
2521
A098
298E
AC3D
AC26
2DEA
A4DA
2690
B274
AA43
3246
2C48
2EA2
A9A7
ACF3
2960
312A
2BC8
B2AA
27AF
28CA
B0B8
AB07
AA98
A98A
AFA0
2598
ADB1
AB34
2B64
1A52
A792
A1AC
2715
21C3
2F7B
2CE7
2C79
2A6C
337D
2D6A
3228
3030
2C33
25F8
2E40
A83E
29E5
2A7E
2F37
28B6
1DFF
AD2B
ACF0
9264
131C
B13D
AE94
A94B
A61D
2913
AF24
1927
A976
2CAB
ADF3
B2B8
A237
B022
ADCD
B440
31DA
2975
2D72
22FD
2889
3002
304E
2D56
2249
25A5
2DC1
AC04
2F1E
AC09
AA67
2868
2B9A
29BC
AB30
AD4F
312A
3073
2C68
A970
B199
AF25
AC1F
B234
B028
ACED
243E
A41F
ACC3
2E20
2D9B
2006
AC9F
8E2D
2E21
AC1E
28B7
A5CA
A49C
2B14
2ED4
2E08
A9E5
AF08
AD1F
25EF
2F6D
ACAB
A625
2C63
AD9A
2D86
B02A
2D2B
A932
9E7E
B0EB
ACC7
A83A
A15C
304D
B043
B1B3
B186
A8FB
A5D5
AF56
B49E
B172
B0E6
B343
AC19
18DC
9A17
2F52
29C6
AF4C
A845
2DFB
2D6D
31B2
B269
ACCC
30A8
3162
2B6C
AE17
2D42
2A86
2C6D
2EDB
2B04
AC52
AD88
AE04
B505
B188
B017
AF19
B3EF
A816
B19C
AD07
AC30
2EAF
290C
B2FE
AC59
1CBB
2FD0
AAE9
2660
2971
1CC4
2E9E
A5B4
2CAA
1F3E
ABE6
1160
AEB1
252C
307A
2D0E
24F6
A8F6
AC35
3179
301F
22FF
AB18
B108
21C3
263C
AF4D
B056
B30F
A984
2DE8
2B69
9C1B
B1D3
ACD7
2CCA
2E0B
AA8C
2E66
2A28
9D9E
A750
B19F
A10D
A5E4
A99F
B139
B2E3
2394
2D66
A7D0
AF42
AEF1
2ED0
2A80
2A9B
A1A7
AD32
261F
30CF
ACD1
B1A1
B65C
2F5A
A5D0
A995
9C47
2D0E
25B0
A49D
A010
A6F0
2D65
308C
215D
A76E
2805
2ADA
3134
2FFC
21CB
2C86
3081
3097
210F
A1AA
2A8F
3095
9F5A
297A
2A90
2A93
9DDF
2295
284C
1DDE
24B6
A661
240D
A550
23C5
29C4
A82D
2A19
A3CE
2B2F
208A
A911
2AEE
2520
0608
2BB0
1DF9
ACB8
AB93
A9A4
A71E
AFB9
ABA6
2C7C
2EF3
2E7A
A5E9
2A22
2C60
A5DC
2CAE
2DAA
A8B1
257C
AD9D
AC8D
2D52
B14A
A969
B457
B280
A953
B2F9
A7B2
AC41
AF82
AE9B
A711
2E3F
2D84
A894
B0E3
AF97
AC02
1F0E
2A0B
AD4F
AF09
ABF6
AEA7
A8D7
B0ED
B02B
2656
AE5B
AFE4
AD90
B2E1
A92B
9556
B12E
B297
A3D7
2805
AE8E
ACD6
B0AC
ACC4
ABAC
AFD2
ACFF
246C
2BD5
2852
AF99
B100
A8A4
9FC8
9E6B
AE38
B2CF
B124
96FA
2463
2729
2984
99F8
A45F
27E3
2988
A057
29A3
A1BE
282E
9D7E
28FA
A331
A44E
9F0B
9C67
2392
28A4
2823
9FC5
8757
A707
29E5
A4C0
2CAE
A94F
2915
2263
2CA2
A5E5
B44F
B0F5
30AE
2EBA
247B
B1B2
1F3D
2F74
3109
A04F
A9E4
AAE0
AA7D
30F1
2888
B034
A939
22AE
AB6B
2502
255E
AC0D
2D59
2C09
305D
2C42
21E9
314E
26F3
2ED0
2D3C
AC69
29A2
AD32
2E82
2E0B
A473
B123
AC32
2995
305A
2E7E
B1C6
ADCB
25CF
31A7
2CDE
ACB7
AD2A
0F10
295E
2CAD
AAA3
B1F7
A00F
2E37
2D33
B073
B3BA
A738
280B
2AF9
B023
B15C
24E0
270D
AF13
B01C
2A82
2FE8
280F
2803
B015
AC16
298A
2F1E
1553
A7E6
27ED
2D8B
2E21
A6DB
B2F2
2CBE
2FCA
2B05
2A4F
1C65
20E3
1D34
282D
2BFC
3462
ACBE
AA87
AD9D
9D87
295F
A90B
B085
ACD1
B106
AC8F
2BBC
1E59
AC72
ADA9
300E
241A
2ED3
2DFA
1F6F
A82B
1E27
2C39
A8BF
B003
2CED
A23C
27A2
2AC2
2DE3
2727
9EEE
A050
2F3C
2C30
A0D9
9C16
3048
2CDB
301E
2F93
22AB
2D1F
2B2A
2279
2AEF
2F4D
2CB8
218E
2E8A
31EE
AC18
A78A
AC23
ABE4
9F8D
989D
A933
ABD0
A819
202B
AA52
A8E3
156B
ABBA
9F40
A1BB
ADF0
AA3B
A8AC
AB71
AE37
A91E
AC6C
ADC4
2965
24B6
2DC7
202D
24CB
3077
A885
A90E
2CD6
305F
3475
91D5
99B2
0CEA
2E3E
2E30
B139
1F04
2C41
3022
9CE2
AB70
AE1C
0A96
29D9
28E4
B0E7
2F2B
31AE
A445
ADE3
ADFB
A431
2390
AA92
B246
B2C1
1DC6
1218
B1B5
B19D
AEAB
2864
A967
AF05
AFCA
2EDC
2728
14C8
ACD0
B165
9FBA
A388
240A
2543
2620
19A4
9739
21CE
2BC7
29DF
29A8
288E
1F45
1FAE
19D0
0ECD
2545
2983
A094
0CEA
A042
A7E5
AA17
A559
1DEF
2F54
29FE
30AF
2A0B
ACA5
299B
2DFF
2DF6
328D
AC7A
31C3
31BA
295D
2FAF
A62E
27E5
AAC5
1D30
A013
AC37
26F2
A0D5
B19E
ABA7
AF55
2995
21AD
A699
963E
A716
AEDA
A808
A875
AAE1
248A
2AFE
2952
2577
AF1F
28EA
A41B
AA83
A7AB
AA76
AA70
B1EC
B238
A6A2
AD18
ADFA
1A9C
A47E
249C
1F8A
2505
20F2
229E
25AF
27B9
A28C
2869
29B3
21E0
9136
28AA
2726
2174
A5EA
A683
1C2C
1FF0
A060
28C3
A60F
1E2A
AB1E
A953
2E67
A3D3
A5EF
AA3E
A2F4
2CBF
2471
22AE
9E65
2A49
2E5D
2E9C
309D
2F8F
2968
AC7D
2216
2437
2E58
2EE0
9DE0
A691
2CB0
A8FB
A939
AAB6
ACDB
AD67
26F2
2433
A547
2412
9F38
ADD6
A7F8
A38D
2694
AB80
2114
9E7A
A95E
A37F
9CC8
28E0
27AF
2A4C
2C2C
2D32
2AD9
A3CC
A6D2
A9C7
2E2A
2C45
A02F
ADCC
A465
A850
A79A
B18D
B0A9
B109
AC57
2706
A834
AB03
A816
2CB1
2802
A848
AB5B
2954
2804
A9CE
AD29
AE1E
A923
A9AA
2995
2A75
A42A
2E4F
283F
AC85
2D61
31CB
2EF8
A888
B0D2
ABEF
AAD7
2C5D
2D1C
2A0E
2902
A8A6
A800
3113
AB86
B016
AFE4
A8BE
2834
B09F
ACB9
B00C
AC0F
27C9
ADF4
AAE3
AA66
A99C
968D
AC59
2936
A5BA
9E1D
2C6F
ACB2
279D
20E3
A836
303A
2EE4
AC2A
98DB
A887
AA59
278F
A859
A37B
259A
AC73
3207
298A
ADD3
AF32
AFC5
2AE1
AAC7
2B55
25FD
224A
2B1B
9DFF
2D82
29F8
25B7
AD6F
2A7B
29CA
A8B5
2903
94E4
9DCA
A6E7
ADCE
AF0C
AA57
A04C
1CF1
295B
A9E9
2ECF
2ECF
2D38
30A7
A865
2E83
32EC
3057
300D
AB27
A0C3
ADD8
A81E
1D90
2CBF
2AE2
9A56
ABA4
AB67
2EBF
307E
2C66
9D37
A5FA
2AEC
310B
9C1B
AAFF
AC43
2918
3097
2FF7
25AA
2181
3095
9BEA
288B
2B4F
29A4
A8A9
290A
9CE7
B032
2C84
9EC5
A8F1
AE04
AEE2
2041
ACA2
A9AA
B142
B09F
A8B8
AEE3
ACB2
ABB5
A74A
B00D
B49B
2B62
2D2B
9D55
28BB
AED8
A19F
2D1B
26D5
2B20
B182
2615
1786
9552
AA6F
AAFC
2772
A9D0
B23A
B079
A7DD
AF29
AD2B
AADA
A5FC
2992
A8DB
26C3
2D8E
2E62
2EC2
2EA6
1837
2C97
AABE
AEF3
3192
2E83
288E
9C17
AC0F
2F53
2A86
294F
20C3
AC60
2FE5
2966
9DDF
2A44
2A9B
A844
23E7
280F
29D6
3193
A4FA
293C
2DDA
260F
28FB
2CA3
2DE4
29FD
2FF7
2D63
ADB6
16B3
246A
A471
29E1
AFD7
ACAD
A44E
A814
2EFB
1CC5
A6A2
1C52
28BE
29D7
3053
2E0C
2471
28C7
2BA3
2B27
23AE
A349
9809
2996
2ACB
2614
AECF
2415
AC79
326C
3306
2E01
2C22
2826
AB21
AB7C
A643
A10D
A6CD
A563
A56C
A86C
AA04
A96B
250C
1A64
1755
1A2C
A43E
AD92
9E69
2FA7
2D86
21C9
2B8A
2C6D
2BBA
2F5D
1B3E
21E1
94C1
1F79
ABA7
AB7E
A806
A5F0
0D5C
A3F1
20D0
9A70
2549
A2A1
247D
A9EF
ABF0
A679
A06C
AACB
9F84
A911
A0CB
AB23
0C4B
AA4C
0810
2980
2F5A
3192
2CA8
ABFC
262D
2800
2C15
22AC
A8E4
2B73
A6AA
2EED
2861
B087
1932
2790
A889
2701
2AAF
ACCB
2B96
31B3
30A0
2C00
2974
2248
2C6E
1E3A
2546
A67B
1B50
A026
99E2
2F56
2D49
2D80
26AC
2921
3089
3005
2E28
2E7F
28FF
2928
AC50
2AE1
2340
30BF
25FE
262B
1966
1D48
2CC7
2671
A87D
A882
2B89
2CA6
2D6F
2AFB
A9F6
2578
2DB2
2678
2DCF
28D0
2D54
2D17
3270
3412
32CB
3378
2F97
1978
270F
A430
265E
A08B
276C
23A2
27E2
24AE
26B0
A560
18DA
A023
1869
2850
A9CF
951B
25CD
A8E6
2482
A991
A83A
A9F1
A96E
A7ED
A774
A990
AF86
ADE7
AC50
ABCF
1AC9
A295
2D52
A789
AA96
2C10
2C7A
2FCD
ADF2
A17C
2AD5
2435
2C2D
29CE
AD1C
AE12
B0EC
AD91
A9F2
A3B3
29B5
A63E
2C2C
A2BF
AF66
22B0
25E3
A6F3
ABE4
AE32
A829
A814
AA60
AD38
AC71
AD00
A9E5
AB84
AB6B
2C37
28D0
259F
23C5
AC9A
A209
1EDB
A50E
A5A1
2DCB
A4B2
A955
A872
29FA
2E93
20EB
A547
ABB8
258C
2EBC
244B
2AC3
2674
2756
3161
AEA7
1C08
22D2
2AAC
2F9F
2E8D
A4A9
A717
A7FF
2980
3022
2D8E
28AF
2941
3142
3011
300D
2FDD
2F77
2EC0
2BC2
AAC4
3013
2D7B
25F6
9D7A
9469
A8D8
A7E4
2B09
2F6A
28F4
A04A
A1E2
2819
31B3
2AE5
2C82
33F7
2F37
2D80
309D
3299
3272
2853
2B08
2C7F
304C
3015
26F7
2430
2F11
29DB
309E
2D9D
A8A9
A5E7
2737
960D
AB4E
AB2E
AC4F
AD70
AC25
ADCF
AC39
AEAA
AA37
AC42
AA3E
18D6
A815
9BAC
2CD7
B04C
A8E3
AD80
A772
AED3
A7E0
2C1B
257A
223A
2176
287C
29A6
1F78
A0A7
A4C1
A4D8
A62C
A09B
2441
A970
2AB6
1F65
2487
A222
ABAF
2651
2296
22D7
246E
2A37
ACD2
AB48
A434
9F39
2C86
AD13
AABE
2874
B007
AADD
ADF5
2D64
A47C
B321
ADE1
2FF7
2EAF
2D17
2BAB
2ACA
28CF
2D3D
3327
334C
32D8
30D6
26CA
234C
23C5
2E19
251A
271A
2985
2C2B
2753
9F34
306D
2753
A25D
2BA0
2AB5
2C1E
27BB
A9AC
2578
AA16
2F52
2A10
AA80
ABA3
B04F
2A44
143E
2134
216E
2A84
2771
A604
A2DF
0F42
2864
A572
277C
A578
9A02
A5E0
2658
2ACE
20C2
A008
282C
2618
2653
9B4C
A097
26D6
2FDB
2FCA
2CBF
2998
2C76
A957
A11C
2DD8
2604
2689
A963
AC2D
1C46
1631
20EE
A4E1
A914
A276
AB85
A889
2E6C
AEC9
A73C
A477
A2AD
2553
A6E8
2893
2C93
1E29
A861
2F18
A403
A98C
24C8
1E2D
3007
2F58
A509
AC1A
B43B
A058
28D4
289E
AFCB
AFF5
26D6
2F85
2F1E
2946
A664
2457
A36B
2732
1B34
A255
274D
A4E9
20B6
2438
1F82
94C2
8C36
27F1
23F2
1ABF
2876
A14F
21F1
2089
A217
A461
A2F5
AC25
236F
A1A4
A800
9DF9
AF0C
B159
A81C
AEB5
AC83
AE58
B261
1709
AC99
2994
244F
2489
300C
2493
2FC9
27A0
2D83
2DEE
2E9A
31D0
2DCA
3291
20F4
9B4F
9F46
A92A
AD09
A4CE
98A2
A5AE
A43D
A13F
A240
90EA
1C23
2B1D
A135
A2AA
AA5F
A64A
9118
2318
A8E8
9D80
A5EA
AA93
A6F8
A839
A877
AE36
ABEF
AB50
2351
25EF
A842
A1DA
1CD1
A070
24AC
16BD
2B46
2D77
AD8F
94B2
AE8E
A45D
2C3C
B516
B431
B497
B21F
AF9E
2A0D
230B
2E70
29C5
A860
9F69
AC2E
A79D
AC42
AC36
B16E
AD15
A822
AE5D
ACFE
B07F
2A9E
2CC9
33BF
324A
B00B
AA8A
AEB0
271D
3426
ACEE
ABD4
A572
A8DD
213A
AD7E
2578
AA7F
AD04
B034
25F2
2648
2152
2210
A9E6
2C20
AC9F
A84B
28E5
2C79
B113
B112
AD62
2059
2398
2529
2BAE
2D70
2CC7
30E3
2C24
2C3F
AF71
AD9A
AE52
B0C7
AB33
B20D
AFC2
AE72
AFB0
9EF0
A3FE
2A59
B17F
B190
B178
B28E
AC36
B4F2
25EE
2CF5
1D34
ADAD
A9C8
AABC
ABA2
2C8A
21A3
AB27
AE40
85B4
AE0F
AD4B
AACB
24A2
2DA5
2E08
2749
AC3D
B023
292C
2850
A8E7
AFEE
AD62
A9C4
2357
27D4
22D6
2947
288F
A6F1
2996
A44F
29AD
291D
9CF8
23F3
283D
2E53
9D27
A1A6
22D7
293C
3424
345C
3133
32B6
3295
29DD
2E95
2A64
A6C7
ACF7
2296
1970
AACC
90C9
2DF8
AF6B
A5F5
AA98
2ABB
2BE3
A7E4
A8F7
AEE9
17AC
AC90
2E05
2ADA
2851
2B5B
2216
AA9E
243F
AFDC
B21D
B055
AEB9
3006
0AF2
2F9D
B225
B3AD
975D
2DAF
AF6C
B165
AF0F
A704
A6B9
AE50
AC71
2BF2
24B4
306B
2E42
3215
AC07
2A2C
AE5D
AD7A
2684
B234
ADC2
AD89
A98E
2801
AD0F
B0A6
ABF2
B43A
AF5F
306B
29F7
A9CA
1B33
2A3B
332D
3141
2FEB
2CA6
3415
2E32
9578
A46D
A12B
2EB9
2944
2C5C
286D
2E57
2FD6
2B8F
3012
2D88
2F77
16DB
ADA7
2524
A85B
A517
AE6C
B4A0
B5D8
B54D
B4A8
B38A
2A94
AA21
0A5B
A7E0
2DC7
A96A
AD77
AC6C
1D4A
2CDF
2C2F
2F68
9B99
2052
2FCD
2CA1
30A9
297B
2EDB
31A7
B17A
AA26
AC25
AEB4
2253
AA78
27CC
1CB1
26B8
A671
A5C2
2693
A46E
2E4A
A649
A3D3
2D7D
2F05
2F5F
28AB
A950
2CCC
3106
3073
2E1A
2BDA
29FD
306E
2D86
2BDC
24E3
0453
A6B9
A9BA
08A7
A6A6
A8A5
A95D
A87F
25E7
AA74
242A
AA46
1DE9
23E3
A6BB
A91F
AB2F
AA05
A632
A108
104B
A666
A98C
A794
AA16
A719
AFAF
9D0C
2A6E
AC62
2A60
A7D6
A4FE
AD38
2B0C
AD67
2C53
1F19
ADC3
3045
2F2C
29FE
2D97
2B60
A2B6
31EE
332D
33C3
3219
22FA
2C6F
2D87
2986
294C
A825
2D6E
2E30
A7B1
AC83
2D7C
A1F6
A8A1
ACB0
AD57
2E7C
2910
22DB
AC2A
AA3C
2238
2321
227A
AA15
AFBB
ADF6
299A
AD65
A881
A892
9201
28D0
2C7C
AD20
9F83
3025
28F1
2A17
1FB8
2E33
3044
2EED
2BEF
2F64
2E2C
AAE0
AF7B
AB10
A791
B174
286A
A4B9
AA0A
A72E
2448
2716
1502
A82F
9EC6
A595
203C
AB70
20C4
117D
A844
9FF1
94BA
A139
A7A3
1CC8
1F52
1D08
2690
285A
29A0
2A7A
ACE5
A5F2
ACDA
AAB3
AE9B
A98F
ADAA
B01C
A847
B4CD
A9E3
B22D
B047
B42E
B492
AAF8
B1BE
AD15
2738
B104
ADDE
AE45
A8DB
A5CE
27A1
A1C8
2E06
2533
28DB
B0AA
B1E2
221C
AC96
AF0B
B2D0
B158
B168
B299
B393
B3E0
B00B
B2C9
B3D0
B14A
9D66
309E
2AE1
AC83
2877
A39D
A591
ABD7
A86B
A2BE
1EDE
A021
ACB1
AD12
A1D3
2DFE
3059
1BE9
2BF1
305E
3003
2E7E
2D9A
21CC
30B0
AA46
AB3D
AC97
A0E9
AE3A
2CDD
252E
AACB
303B
28A4
312E
2ED5
2B00
2E66
2D92
1EF9
2833
A5FF
1F22
2D0E
2BFE
B0B3
B059
A9E2
AFE4
9CD0
AAE6
AFBB
A8ED
2D77
A5CC
2E3A
2AAE
A9FE
2901
2F7F
2EBF
AE4B
2A6D
2ED4
2130
2A17
AC68
2926
1D3F
AC71
2DE5
AEF9
3046
2832
2898
3083
ABFA
2896
2DCC
1994
ADE3
B205
B01A
A888
A94B
AC73
B1C5
B29A
ABDA
21EC
AB3E
252B
ADF4
ABC3
26A3
A989
2F7B
A95D
A951
2E48
AB97
A979
AC3E
279F
2062
1F70
2ACA
1EC6
9CC2
296C
2C00
2C89
1D35
21C5
27B4
287D
A3FD
23C6
2653
9EB7
2B45
2272
2A95
A85B
2C71
2A73
29BA
2C8F
2476
20B6
2E57
20A1
228D
AF7B
9C19
2D1B
AE4D
B144
B166
A768
306E
2EA9
2BFF
A9C4
282F
3194
2FE1
2590
AF7C
2650
2F4F
301F
3110
2D47
25A1
30B7
2D55
2B47
A641
21A9
AD42
A6B9
AF09
2A71
219A
AD6F
AD1A
AC2E
2B27
A167
AB35
26AC
AACA
29EC
AC8B
AD5A
B065
B167
B045
2B5F
A373
227E
17C1
A3B1
28C8
269F
290F
277D
A84C
2521
27D4
9C3F
9ADD
18B0
1DFC
2A15
9DBF
A448
2C12
25BA
11E0
A97B
A631
A32E
AC74
A6E7
AB43
A1E1
2ACB
2F00
21F5
AD7A
2ED8
1EFD
972C
253E
294C
2C66
2D87
3069
2E87
2BF0
2E54
288A
3270
2D7B
29AA
30F3
3172
2E53
A4F9
A300
B012
B037
A745
AF7D
A907
283F
2673
B0D7
B44A
B146
AE6F
AE30
B2AC
B3C2
AC17
2E22
09B4
AFC6
B0B0
3109
2ED6
2CC4
A72D
2658
961E
98E0
22C1
9E93
A3E1
1E5D
20E9
A08F
2583
26D6
A7AB
A5F4
A76E
A1D2
A73C
273F
A16E
2403
2244
A626
289E
2406
2BFB
AA7D
27F4
9A26
2DDD
A92E
A687
1E72
A5E3
A66A
B0DB
AEA6
AD92
AD17
AA27
2E63
2CF0
ACD3
ABBB
29F5
3133
2DE5
1F40
AC57
2BD0
2ACE
ACBF
A69F
A813
1C29
20B9
9D6E
A5E9
249D
AC43
A943
25AA
A864
1C2C
2706
1AC7
2977
A07A
AACA
AD26
A51C
AAED
AB3F
A79B
AB5D
A961
2D8F
2710
ABBC
AEC0
252C
2C6B
AF92
B3FC
AF2B
A4F8
3087
2BD4
2CE5
2AB9
3070
3120
3034
2F88
2940
2F15
3317
2E1F
2D82
2F39
2F07
2D16
AE2C
AD63
A272
A387
2528
AE7B
B256
ACE9
312A
24B5
A78E
A8F1
2D18
31D1
2C49
22CA
9C10
88A7
3437
AC0B
B1EC
B3A2
AC79
262A
3257
2CD2
A8BE
2AA6
3495
3010
AD4C
B0C4
A494
3490
A79E
B0D3
B220
ABDE
31FA
A711
ACB9
A794
A6E0
2074
2AF7
2F87
2CAE
A8B3
2424
2DE4
217E
2617
307A
30D7
A807
246E
AEC7
A33B
2432
B167
A897
B004
ADB5
A998
B139
AF48
B2E8
B3DC
B122
A693
B0BC
1D74
AFC4
2794
AEB1
2EF8
1325
2DF6
281E
2C01
2D9E
2F10
909B
B2E8
306D
128A
2886
AE99
AD26
A26F
AD0D
AE06
AFD1
B034
ACEF
A804
24CE
ABDC
AA5E
9A58
ADC7
B456
B091
2F4F
2F8E
B1DD
B556
B20B
3024
011D
B429
B432
B114
260F
2F0F
B060
B179
B0AD
2869
3007
2A80
26F3
9D92
2A8B
AD0A
ADA1
B11D
230A
A7FC
1E37
2D16
B1FC
B2DF
AEB9
A9E1
2194
B363
B21E
AE6E
2E3C
2C0D
AC5F
AFB4
A82F
1DBF
2969
28FB
AF7E
A4B1
AE27
AAE7
23E3
2E92
2B11
AABB
ADB0
B2E7
B01B
A2CC
AECE
B0EA
AD3D
AF18
B01B
B00B
A88E
306F
1FB1
B0DD
AF99
2B62
2E0F
25AD
B327
A9EC
2487
30DC
ADF3
B278
2D74
2D39
2D79
2C3E
B175
28AA
283B
AC50
2D35
B240
30A5
A806
A545
2CEF
2E01
2A1A
A68A
A546
218E
2278
27CC
2C84
2B12
2DE4
276B
2C8A
2C82
B12B
2CA3
AE83
A07A
2480
2BEB
A9F0
21DC
2745
AC99
B146
B033
A7C6
2E0F
A04D
ACBC
A90D
A6C8
A8AE
A4F9
A46E
AFA3
298A
A5AC
24A5
AEC6
A9E7
A21D
2B97
A588
3218
2D6F
AC79
2AAA
2220
2881
A27C
1806
3001
20E8
ADC9
9649
A959
AC62
2F7E
30D2
2820
A16C
B0F0
2CF6
2CC7
28A7
2339
AA33
29E6
29B3
2AEC
A516
A944
22CF
2AE2
2C7C
2CAA
AB69
1CBF
2B58
2D14
AE46
A86D
A89D
267B
A300
219F
A8CB
A9AA
A54F
2414
A9AA
A677
A5BF
98D7
272F
2986
AAD9
A2AD
1911
A1C0
9DE9
A805
19C9
83CD
9D90
9610
A46A
ABB4
25EA
2FEA
AAC6
AC11
B2F2
B266
AE23
B01C
158B
9D1A
AD7E
A6B6
A9D7
318E
3054
3078
3075
2DFA
24F1
2736
AD45
A779
2D6C
A708
2DBE
30C7
2AEA
A1EE
A9E2
2C78
3027
A244
AF34
AE28
A0AB
28A8
945A
B0F2
2DA2
A102
A76A
A64D
AEBD
243C
A474
AE34
A101
2D2D
32D5
2C2E
2C05
981A
2814
32D1
316F
2430
AC4C
A9A5
3084
304D
2E83
2B28
2F0D
2B25
A647
AA0A
A422
9AD5
2A51
99BC
AFEF
AC9C
2F6D
27BD
2436
A829
211E
2318
2573
A889
999F
9F9F
2909
A574
1DA4
A72D
0A08
2835
9DBB
A594
20EB
A259
A139
A366
A626
A4FA
27CD
2919
2A61
A5A7
B2A4
AB88
30AB
AA5A
B11D
B35E
ADA1
2D01
AA76
AF51
AEA4
A4F9
3011
2831
A82E
AC77
AE18
A59E
A7BA
AF4C
AFB9
B0E0
AD03
31E4
9A23
2EF1
28EE
26B8
30B8
3165
32E6
2E71
19DF
2E5F
30C8
2DCD
2F15
261A
AAB4
2200
AE59
AB1A
AB39
ACDC
A99E
B2C2
AC08
AE65
A959
1EB3
27AB
AA48
B08B
276C
A4CF
AE60
1CB5
157D
1794
AA9A
ACD0
2872
12D1
9969
29EE
281B
2C88
2935
284B
2F35
A211
2C36
299E
30C8
2C79
A7CC
A89F
9C53
2870
A865
AF69
AB4B
2DFF
3127
A7E8
B1A4
A845
2CF0
2954
B02C
B3E6
B03B
AB33
2B8A
1CE8
2A9F
2878
25A8
2F5E
A827
B18F
A9B9
3115
3190
167D
AF6E
AD87
2B5C
2C88
AD2D
AD1D
2819
2F42
9C7A
26F4
2E12
1E16
A87F
3078
2674
2C9E
25EB
2C4D
B1E3
AE98
2B79
2D82
AD3B
AE8E
AACC
14EC
2E0A
ADB4
A9A3
9A20
AA66
2C3C
29B5
A92E
29B6
2C5F
2C48
2792
2DE2
307D
305A
3123
3161
25DE
2BEE
2D6F
2898
2E79
2904
2DBE
AD5C
28A0
2AAE
2337
297E
ABF9
2229
2B8F
2BBD
1A2D
218B
2D63
1CDA
204D
9F47
2BE4
2D88
2CA2
B018
ADEF
AF81
2D57
9CEF
9DD6
2D1D
227F
2FCE
193F
2256
3024
2CBE
30B6
2081
2CE9
2A10
AFC7
2A19
A7DE
2E95
2EEC
AC5B
2DB1
AC74
A17F
300B
281E
AE0C
AB0E
AA5A
A70B
A717
ACE8
A805
AEC6
AD4D
AFB6
AB33
AAC7
16CC
A30E
9AA4
300B
298A
2DCE
2DDE
2B3C
309C
32D7
9E6C
230D
AB9B
A7A9
A5C3
2B74
A514
93C2
A976
1668
2662
A2EC
A2EF
2AB6
25A6
9780
A10B
A75E
2A77
2A1F
A63A
A0F1
29C5
2914
2164
2D2A
26FF
2DDB
2461
3286
ACCA
B00F
A862
28EF
9C03
AAE7
B1EB
B1D5
2C28
3219
AA43
270D
2517
A875
2338
B003
2EE8
30B4
A919
2156
2EE5
2CA1
28DC
2717
AC72
3036
2F38
2DDE
AD3E
AE99
2407
ABC0
ACEC
A9D4
ADB4
ABE1
A820
AF47
A858
221B
A89F
A748
ADDF
AFBA
2ABA
A845
A4CC
224F
854F
9C84
204F
A710
A1A1
2686
A97D
27BB
271E
A5B9
2639
9ED7
20A6
A708
A7E9
A79B
A855
1F69
98D4
2770
282A
A7F8
AEE2
B0AC
255F
B0C7
B1EE
235E
317E
2C8B
AF4E
B15D
A117
3001
2D5B
1FFE
AEC1
B2AD
AD84
2A94
AE4B
AD1F
B32F
9ECC
3082
B17C
B2E3
286A
18EE
26BD
A3D9
2498
8FF2
25EE
24EF
A205
9D51
A76D
A74A
A90E
A6BB
A373
A2A9
2869
1C55
25B3
1F3C
1DFF
2BF3
2B14
20EE
2CAC
2ECA
2C29
28D4
AD40
ADEB
A0E1
2CAB
186A
A6FB
28EC
2EEF
2A54
A995
AA0A
AD77
AD1A
2D10
2142
B50A
B4B9
B0CC
ADFB
B1CA
AE09
AD8E
AC48
B183
AFC0
B07A
AE4C
B0C0
2177
22D0
2787
AD20
B1DE
2ECA
2855
2655
A286
AC3A
AA8F
283C
1EA2
2566
3268
3132
344C
32C7
31C4
2CDA
29EF
A822
29F7
299B
1EC7
274E
2CFC
3048
2CEC
AB83
A4B9
1B96
2D17
2D3A
AE1D
AC01
AD59
AA96
A783
2C6D
9CB8
A7F8
2C0D
3132
B1CA
B41B
AF3E
2A71
27DD
AC2B
AC61
AF29
2553
B15E
AC14
299E
23DF
A488
A9CD
B3AF
AF80
B0A3
AB4A
AEB6
B03D
AFF1
ACFC
2825
22A3
B4C8
A338
31B4
A65A
A898
B206
AE51
2F58
AC61
B000
B0C6
B1F1
2E8B
B026
AB87
ABD5
2813
B02C
ABB0
B174
B061
B4E1
B017
AE0A
B200
ABBA
ACC5
A829
A700
27AF
A97F
B123
ADBC
AC3B
2EC9
2FB1
AC32
AB81
A2E1
3069
AA3D
ABEB
2BEA
2F54
2E99
28D6
22AC
313E
2CCB
2C46
288A
2C5E
3350
31E9
35C0
AE6D
AE4E
2E4F
2588
3126
B171
B0F0
235D
9D90
A294
AF8B
B14F
A404
2817
267A
26B9
2CF5
2EC4
2FE6
2EC6
ADDD
AB8F
2CBE
3123
2CE9
ADB6
AAD2
2893
19B2
2541
2181
9EA0
A064
A994
2BDC
A2A9
30FE
30B8
305C
31C0
2F42
30CE
3255
3093
3201
AF13
AE41
3208
3341
31A9
B0A9
A197
2BE7
AD76
AE74
AB0B
2F9E
2D11
A883
A08B
1FBD
2E50
9A7A
2CF2
3118
AEBD
A971
241A
AA1A
AA83
2DC6
2D04
2EBF
A1D0
307E
A505
2E69
2F50
2F37
2FE3
1D21
287D
A7D1
2A80
198F
AACA
AA99
2C20
A015
17AC
ADC9
AC2A
2AAE
2EAF
2AED
AE9D
A37E
245D
A6F2
29AA
AFF8
2B27
A501
AA7D
2E76
AB4B
11A9
AC52
2A21
2B62
A921
2AEC
9E37
B08D
B1B1
2734
A1FD
B011
2D7F
AD7A
B34E
B187
A5FB
B14C
B317
B024
27C6
2CC0
A745
ACC6
B22D
2690
B083
B239
B1A1
B4FC
AAC3
B044
B498
B50C
B55A
B481
B39B
B4D7
B5A2
24D3
19FA
A344
2501
1FC3
A84B
A39E
A3C1
26AE
A6C7
1F6E
A59B
9E6B
2968
A4FE
2680
1C25
A0B7
A149
A6A0
27D9
2237
97C3
2674
9D46
A481
2EAB
317A
2EAE
319A
314F
2D5A
2D76
3024
2D2D
AD9E
2FA4
2FFC
323C
A434
B01F
2A23
297A
254B
B047
B39B
3033
291F
24B3
B0BD
1F13
ADCB
B16A
2B0D
B09A
29DE
A89D
AD3E
A6CE
AB78
AA7D
2DAA
A607
A9E0
2394
B320
2D04
A17F
2698
2DCD
B364
AE18
2912
A79C
B0C6
33BE
2D37
9FB9
238F
AD63
29AA
2C09
A507
29A8
AD61
AB01
2606
A8C2
B105
AF4A
AFAB
AB22
B1AD
B328
B24A
1EC7
2F3B
AAF0
2553
A29D
A49E
A845
A061
9FF6
2658
27E6
2846
257C
A130
A45A
A73F
1E9A
A427
99A3
A21D
A2D3
2627
2586
2840
28AE
1AD2
21DB
26CB
A4B9
2643
2DBC
2CE2
284A
2E3C
28A2
A837
258C
9CB0
9C48
AB73
AEE6
25B0
2F47
2D8A
2928
1EBF
AD12
2DD4
2D32
2F25
3216
255E
2992
2E83
3015
AC19
252D
2C57
2EE3
1F8C
B015
A454
AADF
A3D3
AD59
AB7F
A3AB
A54A
285F
ABE7
297A
2623
1D4C
2C51
25F9
2C2A
2FF1
2D67
2EFA
285A
A94D
9FBA
2CBE
18B2
ADBA
A6A3
A2B7
A07E
2A71
ADDE
A4F1
AD94
2905
A11E
B11A
1D91
2E76
2701
B1A0
B19E
A4C2
24AD
1703
AC34
AA55
2B04
252F
2430
9CCC
2BB6
2C23
2C69
9CF9
2791
24C4
2C1F
2C78
29BE
2D0B
2688
AC89
AE42
27E8
27EA
2C4B
27D3
2B10
A2E3
AD2E
26A9
317A
2A73
B204
B15A
B02F
1CC8
A74C
A628
A431
AD78
AA53
AA74
ADBD
AA27
AB9B
B0CB
AEDA
B1B8
AE99
B0E6
ACEF
ACF2
B0AB
2095
2684
B16A
B267
B052
85C4
B526
B352
A9A3
17B5
AAD3
B415
B3F8
AF44
AE82
B2E0
B24E
B5B5
B1FA
B024
B2C0
B049
B27F
B0DA
B404
B05F
B030
280E
20CA
A94C
AA11
A583
266F
1AC5
25E7
948E
94F7
A7AD
A101
A087
25C2
A638
24F8
A70A
A411
1EDF
A402
1E3E
A697
A4A6
2436
A7E4
32DE
30F8
241A
313F
25F7
2455
3010
3077
32A1
A512
2CCC
B20E
A85E
2B94
ABF1
AE44
ADE3
2974
3215
2CBE
B421
B41D
B159
2EAF
2CC1
29D9
B113
A64B
AC32
2E48
A4A4
2D6B
2A11
289C
261E
AD6E
2E44
2354
AD52
AA59
291E
2DBA
9FF0
A92C
B39B
264F
AAE1
B1DD
B25E
B3BD
A752
A4F9
9538
A545
A6AE
23CA
9FA8
26BD
1F8A
A144
2429
1EB9
255F
9DA7
263B
A99C
AA35
A488
A453
A4DD
A291
AAA5
1AF4
A560
A889
AD5C
2505
AB72
A8AD
28F7
2C51
A987
AC86
2C83
2F29
30A6
A01D
1540
AE04
A726
A948
2DEC
A88E
2AAD
A7F4
2CFF
2DF2
2555
ABEA
2DD6
