AA51
A9B7
2914
2C3B
2EAB
AD3B
B056
AD5E
2C77
2E32
B12A
1945
AF9B
B36F
A4C3
AA6A
AB5D
A779
B3D9
B166
ACC9
AC0C
25D8
AA62
2FE0
B60B
A027
290F
28BF
2EE7
2AFC
AC04
AEAD
1A16
2D85
A917
B1DE
2825
B444
2F74
AD29
B1F1
A985
A970
B0A9
2FC0
AF6E
A7DA
2FB5
AC2A
B38C
2E6E
A51F
2463
AE0C
B21B
AD1B
AE0D
1CB2
2ADA
234D
2DBD
22E6
313F
AF04
28E8
A52D
3173
8A7D
2B9A
2C56
AFD9
2F3A
AD40
B0D6
B059
2D32
B28E
A2F9
B038
2812
AF72
A6B0
AA7D
9CD3
A72D
AD97
B22B
3058
B28B
2DB8
B30D
2DF4
3092
B2B5
1FC8
314B
2F92
1FF4
B1A8
AFD9
B248
B21C
A973
AE79
AD33
2CBE
B0BB
AEBC
AEBA
2D66
2D47
2864
B363
A64D
B465
A1BC
B04C
B055
A7C1
AE18
9E9E
272E
2EE5
2FB3
B32E
AADA
246B
AF90
B0E9
2FE6
A1A1
286A
A41C
B1EB
B193
2B76
3062
B5E3
B0E0
AC2E
B455
AC37
ABDC
3292
2E84
B318
ABA2
2D1C
2F05
2898
B04D
AD14
ADFD
A8A8
32D8
12BA
B437
2678
1665
B20E
B032
2D0E
B1A4
AAB6
2C1A
B091
1E05
1D34
B0E0
ADFF
32D6
AE76
2547
AD9E
B286
2C1D
AD26
2BC8
B46D
B133
2646
B188
2CD8
11BA
AD07
2EAE
28CC
9A7C
AE2C
AA6C
2AC2
245F
319F
AF01
AC5C
9F9E
218C
3003
A477
AD13
313B
1F49
2D23
B2AB
9E35
2C86
A749
2C59
3280
A529
2E08
A974
2CAE
3052
32E7
AD42
2F96
232E
AC6F
ABD2
2D39
317C
A7E8
2CB6
AD9B
ABF2
300D
B137
2F6D
2FC8
2DB2
A07D
2B2C
AEA8
AF46
A695
2C8F
2434
9A53
2312
2EF6
2F29
B00C
291B
AA17
B229
B03E
ADAE
B0D7
B082
A7F8
2B4B
2C71
A1E2
B078
ADDC
AE8E
2FAC
A5BF
B0CF
22BC
A52D
A7EE
AF0D
ABE3
2747
2C2D
2B51
308D
1A5B
278E
2D7C
244A
24E9
A9F6
AD3B
319F
B0D3
B323
2F0B
AC1E
9FEC
B054
0DAF
245C
3105
AF42
3008
A555
AA07
297A
2B68
2CC5
2205
ACBB
307A
28DC
A40E
AC6E
B0A3
A1D8
AA1B
B08A
2B67
2A9A
2D86
AC4D
A730
2D25
B2E6
2FAA
B0EC
B21D
1FB6
A790
29A1
A95E
ADE1
2B94
A9FF
A8BD
1D4A
26F6
ACF9
ABD2
AD02
3081
2F8E
B025
B2DE
2E9F
A84D
A80D
AFBC
30E9
2A1E
2E0D
B061
2A7F
AEF1
B0B5
2DAF
B026
A71E
ADBF
2D89
A1A2
AEE6
AC8E
2C4D
A5CA
A93F
2DAE
2113
B074
97A0
2AD9
B0A8
B442
1E83
2D91
2D50
AE85
2A70
3279
1443
B3E0
A5BA
A9F4
AFCC
A816
ADDC
2084
1C2A
B423
ABEC
B038
29BA
2A7B
2DD2
B080
B4E2
AC89
3123
3193
9B00
226E
B0CC
AFF0
2E16
A1CE
ADC6
A285
A3DD
29F7
3135
28D3
2F06
B2EB
AFB2
AA19
A84A
9E4A
A946
B3FD
2CF0
3148
B1AE
2C32
2C61
2F36
A6A1
32FA
B01E
32B2
ADB8
AFBD
A4F0
AFC2
AF20
2EDB
2BA0
AFA9
1E00
B33A
2DD4
B17F
B054
AC02
AA4E
B01D
B183
A39B
B2DA
3075
2CF9
2D89
A2B3
3065
2ABA
ABCD
2F90
2649
21EF
AD78
1EC5
B0B7
AB89
A844
2CFA
AED9
A998
AB00
B07D
A9EE
31DE
AD20
2FB9
AFF9
A69E
AADF
AC90
26CE
2F8E
AEF1
2CE8
AEFC
B1DB
AC8B
2C01
ACE2
AAB5
AC79
2F6D
3297
B288
1C82
2481
A151
29B4
B155
304D
285F
25FD
AF74
9B2E
AD08
A6BC
2DC0
2847
A559
AF2F
2A5E
ABB0
A42D
2175
AAD2
AF65
2A68
AC79
B180
A4F3
3044
AF6E
28DC
B056
A48E
B141
B356
B18C
2134
AF80
B2A2
2E47
AFC7
AD68
2F13
A703
2DC1
B007
2E0B
2EFE
3255
2CA7
A857
2E18
A466
B437
24FD
B263
B0CC
33C5
B073
B511
B413
AA9C
AB0E
AEBE
1502
2CBE
ACF7
30AF
2DEA
B019
2D99
29B5
A343
B198
2689
AED6
2FCE
AFE0
B14D
A2F4
ACCE
A45E
2FD1
A8EA
AF9C
AFB3
B184
B39B
ACFE
313F
A7A2
ABB6
29FD
AE96
AC10
AB9B
2BF5
2A44
B1D2
A58F
B1DA
AD25
30AC
30FC
2E6C
2F29
2DDF
9CA2
AEDD
ACC7
A976
B16C
B050
AD6F
2AE6
2CCA
B15A
B130
2DAA
B1F2
ADD7
B07B
3048
2E13
AAAF
AD80
B0FA
B218
9D76
2C17
2F2F
14D5
B25F
ADFC
192C
B1DA
B0AD
2BE9
AC3A
2E57
2E16
B4CC
2FE3
2859
B2DA
B392
ACB6
AFC8
B05C
A350
29D0
AC33
B023
B059
2B5F
A972
280A
290A
AFBF
2AFA
AD1C
B354
3019
2746
1C65
3174
B114
A9C5
3112
2520
AD32
3265
B1E3
ACE6
AFF2
B0AE
B2CC
2FAF
ADF8
1DDB
2BF8
291D
23C5
AAA0
A781
B047
2E37
A1E7
A457
2C44
ADF1
B23D
AB68
A40A
24E8
21CA
2C45
AD37
B4A7
3233
A86D
A0A2
B31D
112F
2616
2EEB
2F11
B079
2674
29EE
9D5E
3194
B26A
A8AB
B301
352F
B485
2980
AF90
B1F4
303E
AEB8
B135
2FA7
B2B5
ACAF
AEBC
AF55
2FD0
ADA2
A41E
AD67
A4F0
328E
A131
B3D9
2E18
B536
AC86
ACE8
B00B
AB33
307D
2729
2FA5
2E31
B340
B528
30CC
AC9E
1A63
B16F
2EE8
2E78
32E4
2A73
2980
A898
A638
2791
B403
AF4A
2DBE
AB9A
B430
A7EA
2976
24B4
B3B3
AD21
B287
B26C
2AB5
AC31
A930
9E8A
AEB6
2DE7
A8DB
2632
B1C2
2C12
AE3B
AF68
AA8E
2ED8
B405
AB00
B1FE
2A69
2CD2
B19E
2CBD
2D93
2D58
2E33
B29B
AAA6
AB08
A8EC
2CFC
ADAA
AD21
31AA
AE0B
B2D9
2238
AC6D
29D2
B06A
B2BB
B06A
218A
2F2D
2B4C
A81D
9594
B137
AC96
3019
2F10
A5D9
B148
2698
1DAB
26C1
AEA6
B0C2
B272
2D24
A676
9999
B132
AE86
2C2F
AF85
AF66
2F42
2EC5
317D
B413
B17B
AE28
B367
A3B6
2DE0
1E32
A6C6
2E15
AA59
2672
29D7
28DD
A5DA
2067
B405
B293
B4E0
B419
29F2
B316
A848
2822
ADFF
3048

