AA76
A857
2DB0
2BA0
30F7
1847
2CEC
2871
1775
9F3A
2C64
30D9
A8E8
A807
25CD
2D06
AE8E
B36C
B05E
2A2A
B179
AF3B
AD6D
AE72
AD58
B241
24A5
AF48
B03E
9F5D
B06E
AC4B
B180
B09D
B080
B055
A6BB
B00A
B07E
B052
B03A
2A52
2D6E
AEAF
AED7
2929
2F7A
30A9
A51C
2B24
AE4B
2D78
2E64
2E34
2B5D
2EB8
27A2
AB64
B0A9
9E0B
341D
2FFE
AEB3
AD90
2993
2945
9BDE
AAA6
2778
1C6A
ACB3
AD97
B015
B0D0
A501
B412
B0B7
AFB6
AE6C
B439
B4A4
B6BB
B4F0
B458
B576
AC9A
AFFB
B347
B40F
B561
24EA
292F
B226
B482
B5CF
AC25
A953
B06B
B3BA
B36A
A4F8
277E
A2D5
28AB
2779
AAA0
A9AA
9909
A537
2CD9
A9F4
AA27
AD09
A370
A9FC
291C
2608
2988
2650
2F25
30C8
30E0
21E1
A90A
A679
2EC1
3200
32E6
3404
2D6C
A880
156F
2A67
1F88
2D63
2E65
2A86
AE2B
A82D
9F1D
233C
AA77
ACCF
AD25
A9CF
AFB5
B024
AFFB
AEE6
AD77
2B52
21D8
A683
AD24
B073
2F8F
2A43
ADF4
AF2F
ADDF
30FD
2BE1
A730
AB7D
A6BB
2E1A
2B7A
20DB
A3DC
B02B
2292
278D
3051
A7D3
ACB9
AD1A
B2A8
B248
B405
B4D7
B0FE
B12B
B1A5
B0E2
B3C3
A703
243C
ABDD
AEBA
B3D2
2A75
2E44
AE30
AE59
B02C
209C
A8D5
A81B
2DE9
A54F
21CB
2894
2FB9
304A
3147
2EC6
2DB6
2E1F
A448
AE74
3188
2A6B
AFE8
B171
2878
2D10
AF7C
B140
A80E
2A0B
AD6B
AA4A
2BA3
A80C
AB6C
B099
A277
A5A2
A88E
AD21
9BA7
2C03
A0A8
A1F7
2B32
AC56
2CC8
2E09
2A4E
2F4D
1F6F
2A91
9DB4
A47B
260D
2F17
2CEA
A484
AD4B
2F86
304B
30B4
2FD9
312B
31A8
2D8B
A2E3
293C
2346
2D6E
2E85
2B9B
263F
A87A
2375
310F
2C9A
955A
2884
246B
309B
2904
2EFA
30CA
310D
2643
2A29
AAA7
A4D7
B004
304A
2921
292F
1233
2110
242E
2CA2
2D1C
2827
2EE5
2B24
2D34
2DE2
2EB3
2F05
2D64
2AC5
A61D
291B
2D50
B431
B22A
B162
AEAC
AFC8
B27D
B428
B31E
B23C
ABAF
B2EE
ACB2
B1F8
ADAC
AE53
AD48
AE47
AD13
B170
A875
24F4
AE5A
B08F
27EC
2A0A
319B
2DCE
30A6
269E
AC2F
30D9
3034
30CE
2D76
A7B7
310E
321C
2F6C
2A7D
9687
29D0
2417
1871
24DF
2A62
AE0F
B06F
2587
1883
2D6B
2828
3017
306D
2B6F
3067
2CF2
2FAF
2F71
2E0A
2D76
2C08
2B8E
2EFC
2DE2
2BD1
AC1E
2C68
2962
2DF1
2D3B
27C1
2CF7
2C12
A473
2DFC
2C01
225D
2AB9
2A37
3097
2D00
2463
A7A2
A935
AA46
2F17
1F88
AFFB
AE4D
A4F2
242A
AE84
B114
9F40
1EB5
A363
AE99
AE36
1E19
293A
ADB5
A430
21BA
A6C9
9B1D
A81F
1C44
AA67
ACC6
ABFB
1A7F
2833
11E7
27F6
A699
9D4A
2784
A037
A0A1
AA40
9FAC
A430
2892
A6A3
2979
A88E
2705
A9F6
287E
A9C5
AAA2
AAF8
A0F5
2900
A4B1
2500
28DF
AAA5
26BB
1E0E
1D03
A036
26D0
AA85
AB6F
98D7
1BC7
A388
1D69
27DE
A7FF
A573
AA5A
2516
291F
1C7F
A49E
A9BA
28BC
A7A8
A3C6
2161
A97D
2806
2719
A9D2
AB88
A89F
1D8A
A1A2
2652
A6D6
A223
AB80
A818
A857
252E
AD46
A1D5
AC92
AA41
AB26
A77D
AC83
1EA0
A8E6
2835
AA86
A846
281F
26DF
23D4
A994
A8FB
2813
A938
AAE4
2396
2248
A9F3
A852
8C8A
24E3
252B
A46E
1818
1CC9
AA88
A448
2830
A7C1
A172
22CB
A92B
A7A8
A83E
A518
211B
2789
202D
A740
A006
A972
1FCE
2192
285B
A4C1
A09D
A9D8
A47F
A709
2008
A92A
A8CC
1531
2731
A5E2
9836
2165
9A80
21B3
9F91
200D
2A04
2820
A967
1DEE
23D7
1EEC
A096
22EC
A88D
AA96
293E
2860
A72D
A7B4
2419
A463
293D
1695
2164
AAE2
A6F7
28C9
A4C9
A711
25B7
9CF1
A2A3
A837
2301
A408
A201
A7CF
A878
25D6
A170
992B
AB9B
9CAF
A9B3
A934
283B
A923
240E
A40B
A718
A842
9DDE
202A
25A0
A97C
A46B
A9B5
A7C9
A5F6
A4DA
A676
9F48
A69C
9F96
AD02
AB75
AD1A
1E57
A9A7
AAD7
AAFB
2521
1023
24F8
A9E0
AB05
2487
269F
266C
266E
A9C1
A8F7
20A7
24C9
2981
28C3
25E7
98E3
A609
2842
1A85
A105
2327
A5A6
A7B4
AA01
9897
24BC
2129
AC53
AC01
21CB
A752
A94F
24DC
A7C4
A9B7
1FCD
AC07
A851
A916
A8F5
A4F0
A81E
291E
28FF
ABFD
A4F8
AC3E
A872
9AFE
28A7
9833
1D07
A4EE
2697
ABB0
AADD
00CA
AABA
A91E
AAB4
9F8E
AC1B
2372
2501
A6A3
AC83
99DB
A16C
AB84
AB8B
AB10
2246
A84C
AADA
2511
AB5B
AB0C
1CEC
1D8F
1234
AA6C
AA8B
AA67
A831
2863
AC0C
9EBC
A681
9C8F
23C4
25C3
9E3D
2420
23B1
9DFE
A893
ABC6
A4C6
A0F4
A239
A5F1
A9C2
A2C2
ABD6
A4EB
AB6D
23A9
192E
A6F1
AD2A
AC99
AA31
ABE9
AC5F
9866
A082
A91C
AB3F
A662
AC21
A88A
A87A
AB5A
A386
AB25
A519
AC8B
A05E
A995
198B
A973
2572
24B4
AB8C
A972
A9F3
A72C
171E
A883
9D1F
A5A6
A700
A502
2644
A94C
2371
A448
8ECB
1DC8
A921
245F
A901
A885
AC21
AB54
A8E4
277B
9D18
AC33
A8C9
A855
A089
21B2
A81F
A570
2177
823E
A6ED
A17B
A877
1DC3
A77B
2822
222D
AADF
A572
A729
AB28
23D3
A09D
A5A7
A816
A517
22EE
AA47
A296
27CF
A59B
25CA
A9C9
28B2
2F9B
2F73
30F5
2DB5
0716
2B2C
3160
A420
B101
A929
94AE
2E7E
2880
AA06
283D
2B7D
179C
AD82
AF95
240A
AA61
B0AD
B18F
B1ED
A929
AC80
9A9B
AC42
B08A
A59A
1FC0
AD95
AFBF
ADCA
2BD7
2C4E
B10A
ADDD
B05A
A35D
3252
B039
A0AE
B098
A2F7
30D4
AEA5
ACE8
AA27
2A34
21C3
24D8
9CB2
1DA6
B00F
27EB
25D7
B0A6
9B44
AFDF
B0D7
ACC4
AFA8
AE70
ADAE
AC3F
AC6C
AF94
B45C
B61E
B414
B0BB
AFB8
B5FB
2548
9E43
2B23
A71E
A4AD
280C
A891
294F
2829
2BB9
2C24
AF44
29CF
3065
29E1
27B8
A90C
2D88
2E39
2D0D
AAED
B12C
AE12
A880
ADE9
30BE
29EE
2628
A960
AC6D
2B23
24F5
2C7B
AB01
A96B
2E88
A765
A826
B11F
ACF9
A6D2
A12D
AD8D
B1C7
AF40
AF26
AC22
A873
AECB
B0C4
3171
2F47
9911
ABD8
AD15
306F
25FE
ADE5
B10D
AEDA
2EBF
2B15
25AC
A95F
26EE
30DB
2E80
1AD8
AFE4
AEBE
AABB
AA1C
B173
B461
B21F
AE7C
B093
AF1D
B0C0
B213
AD8F
AE87
B00E
B4F1
B35E
AD9B
A9D4
AD48
B20D
B1EB
AF6A
AD6B
ACD0
AD5B
B18C
B238
AFB8
B0A3
B171
B307
9C5A
AAFD
2850
28AC
2E5C
A00C
A821
2D74
2E30
322F
9DC1
A4A9
2D41
28D0
2FE0
2A15
AA2F
2CD2
A786
AAE8
B16B
B3FF
A56F
B13C
B2EA
AB2C
AADA
A133
A856
AE26
AD09
A96C
2159
AEC4
B393
AF0B
AF89
A04D
B1B4
B232
A9FE
AEC2
B098
B2E8
B3C2
ABCC
AAC6
AD14
B043
B1FC
ABE0
A864
B030
A878
2B8C
A849
22E1
A8CE
271F
3005
AC40
AA55
24A0
2D23
2CD2
B0D0
2A95
2C23
2EC5
2C43
A8D3
19EC
A85C
2526
9EA1
A9B4
1166
2165
284C
2346
2FC5
3052
308A
2286
AFA4
3045
2E53
26CB
B04A
B32B
2DB8
2C17
1947
B170
B016
3001
306D
2105
AA4F
AEEE
2B3D
2920
A90F
B0A5
AEE5
24F8
A917
B0D0
B467
A992
AAA8
AE97
B24B
B245
AB59
ADB8
ACE0
AFF4
B047
293A
AE5C
B1C8
AE50
AD12
2A01
309E
2807
2DF0
2955
3146
2DBD
2DCB
3073
310D
3022
AD2C
292F
245E
2C5A
1E3E
A48F
2C1B
AE16
AAD1
A90F
A71A
A428
ABB1
AC09
A8AC
330D
3091
2F30
3032
3321
3011
2912
2DA5
209F
2E03
3126
30AC
2D4E
AE19
2A85
2CDE
27DF
2884
B0CB
A556
AA85
8C9B
AC9C
B45A
AD29
24DE
27F5
2D06
AC27
AFEB
ABFC
97DF
2464
A65D
29E4
28F5
2845
2E50
3049
2ECB
A4BF
3061
322E
3100
2FDB
28EB
A4DC
2376
24DC
2D84
AAAD
A618
A852
A884
B110
A266
A6E1
B293
B23E
AE55
25FC
A838
AD54
ADF0
2E46
2802
AD83
28DD
B178
289E
ADEE
B0BC
A70C
AFC1
25D3
AAB3
A1A5
AACA
AD11
9EF1
9F65
A785
AAD3
A485
A59E
A47A
AD14
AD2D
1F39
ABDD
ACB0
A43E
AA40
20C5
AA13
AB98
2794
2373
A6F1
19FD
A806
A897
A6B8
AD5D
ADB6
ADB5
AB55
9FE9
AD77
A8D1
AA45
A96F
9C76
1C81
1B68
A00C
A555
21F5
2092
AC92
1CF6
AA02
A8A6
A48E
A0D6
A447
A989
ACC4
ACA8
AC3F
959F
A3C3
AE00
AA94
AA1F
A47C
AACE
ACDD
1ECD
AC3C
ADCB
A659
A866
AAA0
9C67
A201
A4FF
17AF
A994
A46A
AA00
AD4D
A196
AC69
AD72
A447
AE75
ABAC
AEA7
A944
ADF5
ACC7
AEF9
AE62
AF0A
ABAD
A922
ADC5
AC2C
AC47
22D8
AAA6
AD13
A9FF
AC5E
24F2
A80F
A364
AA26
A80E
A62C
079F
A8E4
A7A3
23CD
A79C
AAB4
296E
292D
1CF5
ACB9
A5CC
22DE
AB2F
1A90
2612
AAE1
A8A6
259B
20A1
1906
1D21
A8A2
A408
A626
AB37
2046
25F9
9FF8
A0F5
AB83
A73C
A883
1E1F
1EE6
AB54
A7F2
A829
ACD8
1622
A760
A9FF
A3FE
24E4
A867
AC30
A235
AC1A
AF3F
AE5D
AD4B
AD35
A444
AC39
AC8C
A6CD
AA2D
AE28
AA55
AC81
A7A9
9F4D
A8AF
A99C
A96F
AC96
AC96
A96E
A958
1CC1
AE9D
A9C9
AD3F
AF57
ABF6
A296
AA01
A44E
AE23
AA6C
AB81
AE93
ADD9
AD6B
A893
A914
AF49
A839
AFB0
AF00
AAF1
A4FB
AEAE
AD6A
A98E
AD18
A8A5
AB66
AE01
AA65
AB35
A4B7
A9F6
AAD3
A5FF
AC2A
AF1A
A6A4
A70B
AF6B
A5EA
AAC2
AABF
AE3A
AC2D
275F
9E18
A613
AC34
9545
A96D
A3B4
AE9A
AE66
B014
A74D
ABAB
ACB6
A918
A8FA
AE10
A1DF
9F03
A903
A153
9B29
AC19
ACDB
ABEA
AAD0
A043
2499
296D
A792
2556
AA5E
A437
AAFA
A839
AE32
A8BC
AB0A
AC24
A7A7
AADC
A87E
9EAE
AA15
ADD0
A803
AC6C
AE14
ABA6
AB5C
AC7E
AC67
A067
AB09
AAFE
AD52
A8E4
20C2
211C
AA53
21A6
A1FA
AD7A
22BC
ACA3
A587
AC3E
A8AB
AC01
A7E1
AEB5
AC69
AB29
A47A
AC30
A281
A741
ACDE
968B
AC76
AC65
ABAF
A48A
AB8C
ADF4
AAE8
AE1D
AAB2
A63F
A4BE
ADF4
ADD6
AD4F
9013
A442
A65B
AC4F
A4A1
AB00
A7E7
A7BD
A963
2529
ABD9
A7CB
AD5F
A9C6
AC21
ACE6
A591
A4E0
AD1B
A75E
A937
AC9C
A9D2
AC91
AA06
A8EE
ADB6
A8BC
A8CB
A8C5
AA84
A148
AD7A
9524
A816
98F9
A58C
24C2
AAE5
AA15
AB86
AE9C
ABC1
AE39
AE4D
A3D4
A954
A998
AAF3
A4A6
ACBC
AB90
1646
A9D4
ADCC
AE01
AD19
A9F5
2441
2AEC
2B35
20ED
A6A1
AD40
A580
283B
A8C6
9B43
ABD0
9FBE
A27A
A819
A10C
AD41
A926
A8E0
9E08
AD20
AED6
0F96
28F3
ABF0
AC44
A99E
29E0
ADBC
A501
A979
AC12
B2AA
B075
B37C
AF8F
AB70
ABAE
AAFD
2D22
2DAF
2B65
2529
25C3
296E
2B7E
29E9
2CD2
30DE
306F
2E36
2C66
330C
32DE
31FB
2C58
1FB7
8F1D
2D74
2A34
2FB9
1C5E
A86F
26CC
2A3B
2BFD
AC88
AFAF
AAB9
ACDD
B023
B03B
B356
B34C
B512
B51B
B459
B55B
B491
B24A
B2AA
274A
AA2A
A7A0
AB7C
2285
2FF4
2CB8
1C4B
29DD
2F83
323B
31B7
303E
2DB3
3002
3268
34EF
33E0
2FE9
A7E7
34BA
3419
3318
3416
301E
ADC1
2059
20C7
2CCC
AC6D
29C8
AA01
A3D0
A6C0
AB8F
23B8
AA42
AC68
A938
A991
2A9E
2A25
1B76
ADAA
AB89
A93F
25B4
2F08
2D1C
A4D9
A3B5
A066
9E80
AD0C
ADB6
2BD8
2F8F
2D11
2A48
28B7
30C9
31CA
2D5E
29DB
AA46
2426
26A8
30B7
2DE8
2918
2E2E
3211
326F
2FBA
2059
9928
A321
9DD9
1688
2374
20EA
95CF
1DD6
256E
27E0
A31E
2BF2
3189
2E88
3187
231E
2472
30C1
2DC8
2D4D
AF83
AD83
B0F7
AA33
A16B
AA19
AD18
AC51
ACF8
A20F
AA6A
AA9F
A918
AC60
AA69
A690
2490
AC7E
2385
A8F4
ABA7
AA7B
A56B
1CDE
2968
AED3
AA83
ACEB
2B13
A037
312B
3094
2CCE
2EAE
2D17
269C
300E
290A
2C35
2A03
28A0
2964
250A
A598
29B9
ADB1
A985
ADB2
A93D
A01E
AD8B
AC70
AAC5
AC83
A744
B04D
ACF2
B025
ADA1
AC5E
ABB8
A07E
ADF9
A4D3
29CB
AB34
AD6B
2833
2CF6
2EFB
28AE
2C8C
2D90
2B4E
2B38
2C03
29C2
2FCE
2D6D
25B1
B0A8
B19A
B001
AF07
AE31
AD18
AF7B
AF49
A4A8
A4EA
AD60
ACCC
1E8C
A34C
9CE2
ACED
A89F
997C
250F
3167
A251
A366
2D3C
2E36
2E78
1EAE
9D0E
A802
A3C8
AB2F
A6E9
26DE
AABB
2289
2918
2885
2F13
2B33
276C
294C
22AD
A86B
2130
26DB
AAB5
A31C
2413
A78D
A9A9
A837
AAA2
ACDA
AAEA
AAB2
AD0D
A609
9DCE
A9D5
282E
A4E0
ACF2
1F3C
2A13
2828
A719
2A67
28EE
2989
8DC7
ACC6
AB66
25AC
AD41
AF06
A8D2
AB35
AD53
9E2C
A5AA
2C0D
2811
AAF3
AC0D
A9F4
2601
9CCE
9CB0
2785
A90C
29F9
AD3D
AC2A
9CDD
2E42
2956
AC49
20FB
2D85
2818
2F2B
2AC9
2584
A131
AA73
AC79
1EC5
A7D4
AE40
AD9A
29D6
AC05
A9D1
A297
AA47
231A
AA1B
A08D
AC34
AF4A
A9C8
302A
28EF
9AE4
AA7A
AF38
9C69
A55B
AC05
AD66
A69F
A190
9AC7
A77D
A90E
AB64
2891
22AF
A572
AE1F
A8C7
2DEA
A838
22F8
AEB8
AE10
2F97
2CF9
9E67
280C
2887
20B1
A84F
22A5
AC9E
A5CA
8B31
AB2C
AAC5
AF0B
A173
B079
B147
ADE9
9EBA
1CEE
AD8E
ADC1
9AC3
AF49
AB61
AA9E
ACDA
9FA7
B080
B159
B213
B235
B030
AEAA
AD9A
30AB
2B84
30F7
2F22
2D4D
3161
3045
31CD
342C
3183
320A
30A9
2F7E
2EC4
3086
29AE
2DD2
A8EB
2AF6
2DE5
25D3
2CE5
2091
1F5E
968F
A65D
9CC2
9C93
A803
AEAE
90F0
2885
AD11
AFE0
AD9D
A064
276A
AB0D
AFB2
B040
2B63
A8FB
A586
A70D
131E
B196
B135
B1F1
B1C3
B088
ACB3
ACB7
2983
211B
2CC0
AA67
A603
AB28
2A4B
31DF
A061
19AF
ACF1
A8AF
3009
9DC1
2EA2
2C76
1DE2
AF0E
B404
B18B
B503
B5AE
B487
A8D5
AECA
B248
B15F
A931
2A16
ADC7
AE63
1D24
29AD
2CA8
2B78
A784
2A9C
960C
A84A
A211
2C1F
9669
A8AA
B2A0
B2F6
B3AB
B409
B35B
B192
B4D3
B37B
B271
AFC0
8DE6
263A
2921
304D
3144
2258
ACE5
A365
AD28
28BA
26F8
A4A3
A72B
A821
306D
29F5
A8D3
11A8
A447
1D83
2A64
ADA4
AACA
ADB4
2ABC
96BE
B41C
B21A
AEAD
2F84
AC75
B03D
B229
AE2D
29F5
AF31
23FE
2868
A732
A954
30AD
2E40
2741
2C55
2CBA
28BB
25F9
A326
2A12
2819
A517
AA0D
A5E0
AC80
A1FD
2D4F
A1BA
A0AA
ADD1
AD57
2AF6
263B
2D50
A818
AA9B
B27A
B070
B484
B5BE
B3FE
AB71
AF1A
B1D4
B453
AF7C
2848
1ECC
9524
27D6
2AF1
30A8
2F47
2C28
2884
2E4C
30E9
3257
3252
2E51
2F51
ADAE
A822
AC7B
25FE
A1A2
2A74
277E
2EA3
2C5C
30A1
2D5B
A046
2451
2F48
2976
2A84
2B61
2BBA
2E50
2C93
2C2B
1E42
263E
A872
A218
B6ED
B5B7
B5EE
B648
B653
B445
B362
B424
B37B
AFCC
AB12
ACC2
AF42
AB80
AC15
2CB3
A052
A2C3
A99F
AEFB
2AAA
A891
AC44
AA8E
A6F1
2BB0
2AF7
245F
231B
2761
1CF0
22E8
A4CA
2725
2CC4
1CC4
1C17
A765
2991
9E7E
22AD
2627
19B1
28E2
221E
26A4
AD98
9E9F
A787
2625
A67E
2856
9825
27B9
28E2
2A8E
A62C
2032
1AEC
1474
A1DB
20F2
9E86
2A35
2CEB
29E7
28D9
2D66
2D5B
2DCC
2F7C
2D50
2429
1FC6
A2E1
B4E6
B637
B58C
B590
B57F
B284
B2C4
B442
B30B
B13A
A6F8
18AE
AFDC
AE87
279D
26B4
2C9E
2F7B
2EC1
2CDC
2C73
2B14
30BB
311B
2A90
1FC7
1D0D
AC71
B069
B127
2D76
A9F7
9FE8
AD66
B360
2B3D
AA81
2C52
2053
B072
28BE
29F7
2933
3094
A74E
2663
2D23
2C78
2C0E
261D
AC3E
AAFF
AD12
B157
B28A
A8B1
AE1D
AC94
A25F
A4A0
267A
A179
A4C2
A96A
20CF
2ED0
A8E8
AB9D
ABB1
AAD9
288A
A6E2
AD3E
1C49
2DF5
A779
A370
A8A3
AA84
B00B
2653
A9BD
28A7
25E5
AE77
A923
A8E9
2A9A
9E37
ADB5
AF36
ACDB
2D57
2588
A848
AB1E
1D1E
2DE2
A870
AE45
9E61
AE37
9DBA
1ED9
2E28
ADD1
AC56
A130
25F4
2CB1
ADE1
A895
2CC6
2AF7
2FDF
2CAE
A9C3
1E39
23E4
2AC5
2276
9FFB
1E4B
2E49
329B
2744
9978
224A
2184
2B8D
AC5C
ADEF
AB29
A996
AC48
AFCD
ABD8
AE91
269C
A056
ADE6
A7E0
AD24
ACE6
ADED
9056
280B
A30C
A3B0
B05B
ACD8
ACE2
A63C
23E7
2284
2957
9F0B
286B
2D53
3001
271D
2A05
2D59
2BEA
2C5D
2757
ABAF
2917
2F7C
33D4
A7E0
25CF
A82F
2025
3238
AC9A
A1DD
AB60
2845
2A99
B012
B007
AD66
ABFB
ADFA
AC8C
AD82
A98C
AE87
B184
A931
A6C4
A920
26A1
B0D0
2916
21BF
ACBA
A9ED
AE2E
ADB0
AF9E
A866
A85F
1FDB
AE0B
AC88
A4DD
1F43
2EED
AD5C
ADF5
AB12
2698
2EAB
A329
AC0A
A592
2CC9
2DBD
AEFD
AF94
B095
2876
295F
B447
A997
27B7
AD3F
B0FD
B53B
B194
AF2B
B109
B44A
B621
B226
AE3C
B033
AEE9
B517
AD53
AB9B
B003
B25E
B406
AB8C
A48B
A972
AE25
2DA2
261B
2F2F
2DBB
2ED3
28A1
2489
278D
2C1C
2A75
26A8
AC29
A901
A23A
2291
26AE
A9A9
9D13
A480
2DB1
20F3
8D76
A533
A154
1D69
2C4E
B086
B02E
A56F
AA4C
2CAA
2CF3
2C17
A45B
ACC7
2E5F
2D09
2D1B
95B7
B05A
3325
2D73
A16E
288E
AC57
3493
3336
25C2
2997
ABF3
30E4
2E9D
2C60
2F3F
3046
26CB
2997
2D42
2452
267A
2C8F
2C59
A9E3
A72D
AE5C
2F70
2230
AD64
A37A
9A2A
2ADB
AA71
AFE3
A7BE
2400
A83C
209C
AA97
ACFC
B01F
2A0E
29FA
AA69
2B8C
2ACC
A95A
253C
2CC3
2D97
2906
1CFA
2869
22CC
20E8
9D26
1C50
27BD
2E68
2B9B
A7A9
3420
32DE
300D
2D48
30BA
31E5
2919
2B2C
28DD
2BB9
2DFC
2C30
A724
26EC
1F66
2D4B
2C1D
23AA
AAE3
A1B7
2994
A1E6
AFA9
AD0E
ADC8
B26C
B218
B0FB
AA99
AEBA
AA18
A53D
A0BE
A844
260A
A849
2C5B
A472
24E8
2988
AC1E
2AB1
2C7D
A23D
2D0A
9F92
2900
258A
24EC
A17E
A812
20DC
A7CA
AC18
AB04
A3E5
A0FA
AA76
2596
AD0A
A758
ABB1
2E1E
298B
A8C2
298E
28BD
2110
AF78
AAA2
2ADD
2B26
2DD9
142F
ABCD
AC70
AEB0
2017
214A
AF9A
B169
B268
AC15
A83A
AB5B
AFAC
B22B
B03E
B21A
AFB6
B0AB
AAA9
ABFA
B189
A2EC
B14E
A97C
A6D0
B0C9
B0BB
2CEC
27A4
271F
ADF9
ADDD
2B39
2588
A8B6
2D50
2D40
27FF
A4A0
29B7
291C
2E37
2A9C
20C6
A0FD
2C85
2754
2DF2
2D40
2350
2B7C
2E83
A280
AD36
AE36
2D4C
A850
AFC3
B12E
A7CB
2879
A7F6
AF6D
A964
B08C
B063
A975
B06D
A1F7
ABFB
A952
AD63
B20C
A934
A7B5
ACFB
B0B6
3168
288E
AD77
AC88
19AB
2BEA
A106
2462
2477
A3A2
A5F8
A931
AC77
A58B
28A6
AA29
A8D9
2AF4
2DC9
2635
3042
2E45
2BC5
28AB
2844
A70B
AD3C
2497
2A51
30D3
AE62
AFEC
209D
A0DD
2D3A
ABBB
2B30
24A8
259B
2627
A5D9
2889
2C5A
2D22
2592
30A7
2427
25A3
A0A8
2C65
A78A
AF3A
AC47
AE81
B0F3
AD43
ADBE
AC11
A14C
AD67
B299
B3B6
B1C8
B04E
A72E
ADD3
A9E7
A519
AA18
AF04
2DD0
282B
272A
AD2E
A789
2F11
2C14
2668
2899
2DB1
25DD
2F8B
2BF0
2BF0
1887
2A31
2D75
28DD
2A2D
A5A8
27E5
2DFB
28DF
263B
AF39
2B75
2CC0
27D6
1BE3
B213
A573
B1F8
B105
B40B
B433
A928
AF17
B1A6
AEC1
ACB4
A11C
B225
B3E5
B32C
B34F
ACCD
17D0
25C2
A810
AC05
3079
28E4
28BB
9ADB
2D54
1F69
A796
AD64
A3D6
2957
2321
AF3F
B09E
A963
2A42
257E
AE70
B258
ACB5
25E4
9D39
ADE6
ADE5
A568
181F
2DCE
2D1D
3283
2F2B
30BF
315C
2EF7
2ED4
2AE8
30FB
28E4
1D97
288B
2D57
2D29
AD84
B05C
AAD3
ACA7
29C6
ADE6
AB81
204B
28C5
A84B
AFA2
A779
A3C8
AC40
A496
A9BE
A0FC
AD9A
B1D6
B1FC
305E
AC7D
A923
AECD
B026
34B0
2EF2
3127
ABA9
AF89
324A
2572
314A
A8AB
AE86
3162
A1AB
2FDB
2994
B0B7
3068
2104
A806
16B2
2F5D
2934
25EE
A267
21F9
1165
A578
A9C2
28EE
2BA3
2D2C
149A
28CD
2A6A
899D
2B44
3067
252D
295F
80E3
9BE4
A940
B0EF
B08E
A799
AFFB
A99E
1D0F
8CE9
963D
B224
29AE
30A8
2CF9
226D
B0A0
2CCA
309A
2B1C
A590
B000
2F01
ACAF
1E7A
B05E
B170
261D
250B
9E72
20E3
2D69
ADD6
AEE0
AB25
A256
2C67
A688
A9C6
A488
1F90
A4DF
A432
A83B
AEDC
A623
A988
24A5
29C4
27F8
24F7
2CD7
B050
AE0E
A2B3
A68F
A95B
25AA
A071
2906
A838
A6D2
A20D
2A04
A6CD
AD52
A9C7
28BA
2398
A156
AB9F
A3E4
2B60
281F
2105
A9E7
1FB5
ABD6
AFBB
AD38
AFD0
ACB2
ADD5
2432
2066
ACD8
B076
2CF0
30F6
2CC1
ACF3
B1CF
3097
2BEA
2E9D
AB7C
B0A5
3086
2853
AC32
AA88
AF11
174F
AB2A
ADC8
AE68
B3F0
AF97
AEC9
B0B4
AC76
AE22
B05D
AB16
29D6
AC11
AB07
AE1C
2E01
3004
2718
2804
B043
2FA1
2E9B
8395
2F27
B06B
B46C
B492
B004
B25A
AE78
B00B
AFAB
B10F
B1A9
AF37
A661
1C16
AA78
B07F
2878
ABA3
25E5
2413
989D
296C
AC19
B10B
B009
A9F2
2B62
2875
AC8E
9CAC
AAFF
AF2A
AD7E
A5D2
A2B2
AE25
B02A
AB24
2D2E
A504
A746
ADF8
0899
2E23
AC02
291B
AC8C
27AF
3003
AD8A
2952
1459
2BD4
1792
2C24
A1B4
317B
311D
28FC
2EDF
3111
2EF6
296C
A847
2C9A
2C6F
A9EA
ABCD
AE7F
AD0F
A497
A880
AC37
B164
B036
A8E8
2C47
AD29
AFD1
A566
2CA9
A85D
B0E2
ABC4
2CF7
2AD3
AFD5
A9E3
28AC
289C
29C7
AC1A
A612
27FE
2D26
3160
A6C2
1DEA
2467
2F0D
30CB
A603
B182
B303
B1B7
AC02
B081
B4A3
B29C
AEFE
ACA1
B1FB
B38B
B27E
B06E
20F4
B449
B4DC
B4B3
B0E5
B079
B40F
B598
B11E
AC1D
A807
238C
B26E
AD7F
22D6
1E78
A9F4
A7F0
2B84
29AB
2469
AAB6
2DC8
267F
A013
AA48
1C60
2CFF
2523
213C
AB61
2E7D
2AF2
A52D
1C28
A7B3
AC8B
B0D2
B2BC
AC23
2F47
A8C8
B088
B213
9B5B
3422
A8ED
B232
ADE6
2CEA
3052
AA7F
B1D9
B017
AA29
24AB
B1FF
B49E
B463
A59C
24D2
A906
A45F
2CDA
2C27
251B
A435
A428
AC4B
242E
2A6F
2C35
A12D
155B
08BD
2CC0
A5BE
ACF5
AE9A
A3E2
2AAF
9231
AB8F
AE12
AA08
9C5C
AD27
A434
B04B
24D4
23E8
AC18
AE79
B0A1
A7C7
2FDA
AD1D
AEB8
A7C0
008C
2A9C
AE46
AE2A
A619
28DC
2CF4
AE47
ACD6
A8FC
24B2
2DA5
B27E
A7B2
AA12
AEA3
B0E6
B1AF
2A3C
2906
ADD3
B09A
A9EC
2F3D
A18D
AD2B
A6F2
29B7
2AFA
23E7
203C
0A49
2FA3
3193
2F5A
2A42
2D41
2CDB
2E29
28F3
A3D4
ABF3
2E88
21E6
2700
A141
2A15
2A8F
A55A
ACBE
280F
2A27
AC49
AF43
B05F
AE28
A7B5
AC75
AD4C
AE1E
2A27
2820
B0A3
B0F9
1FB8
2E25
31F9
B1F3
A710
31B0
3232
2D67
ABC3
2E0C
2FE7
97D2
B162
2A6D
2CB5
A27E
A324
24B5
28D5
20A4
AAA8
A1FB
A9F5
929A
AEF7
AF5D
A7E9
2D50
AB70
B046
B1A4
A51B
30A3
B00D
B1D5
AFE4
A132
32B6
AD00
B22E
B147
2DB6
3422
B2F5
B222
AB93
3038
343C
2EAC
2C35
222B
AAEF
A506
2B3F
A6FB
A4C6
2810
A978
0EBA
A3C2
A904
A6A6
AB6F
A90B
2242
27B6
284D
A53E
2F71
2CCA
266E
2C69
23F4
AFD4
AE14
2E75
30F1
3117
B0A9
2C78
3229
30E0
1E8E
AC26
2F86
311E
1E06
AB19
2BC3
2FFE
2506
1DC1
AC0E
241A
2D8C
2DC1
268F
2492
28F2
284B
AB2C
A7AB
2A55
2713
2E6C
2E72
AC81
A6AC
2F59
2E74
2CD7
AA5F
15E4
2879
2287
2DCA
A6CE
A6FB
2DD6
A020
A840
2C16
2699
A514
B0E8
B17E
A850
304D
9F9C
AF8B
AB25
2E95
2E3E
AF08
B025
AA5E
ADC6
2746
AE9C
AE54
AD1D
AB77
2BED
AEEA
B113
ADCF
A829
2B56
14A0
AB0B
8EE9
2D5E
141A
A7C3
A839
A1C6
2FA1
28E1
AC25
25D6
2825
3094
2A72
A309
8BEA
2CB8
A40A
2A83
13B1
2936
9F17
2BA1
9D56
3080
2C5B
243C
2EB2
3092
325F
3075
2C97
2CD4
2632
2D06
3025
2AFD
2DB2
30C5
2DA3
2F00
2E82
2F70
2A5E
3147
2A4E
2DE4
2C42
A3BC
AA4B
2A22
A476
2CF2
2547
AD9E
2095
AFD5
ACB3
AE37
AF86
AC52
B0BC
B020
AFA8
B2A1
AFB3
B15E
ABB1
A8AB
B1CB
ACA0
AF82
AC5E
3087
2B90
252E
A5E5
268A
A199
2E66
2D55
2FBA
2C23
2DAF
2E96
2C78
276B
2CF3
30A9
2CEA
29EB
2360
2D1E
2465
30D7
2F26
280D
294E
1DCD
A931
1629
206F
3034
AADF
A835
AE32
AB37
9E30
B033
B394
B185
B3D9
B33A
B24A
B1F5
B451
B4CB
B219
B1A9
A7FF
ACEC
B097
2817
AC4F
22C9
23C9
29D5
2E23
A45B
2D8A
2F65
2E29
2C40
A1D2
2C09
30A2
30B9
2856
2FB5
2CCF
220E
2F12
2DCF
2B6E
2750
2813
2A78
2C3C
2C1F
B078
98C5
24C2
A691
A105
B1A0
AFC7
ABD7
27CA
2680
A2F9
2CCC
2C78
311B
2DCA
A8A8
2313
2D2F
28BB
258E
992F
A330
242A
1CBD
A8AC
29AA
2AFE
2BDE
A52C
2F9E
2CAE
1FC5
2471
A459
A14A
A457
AB72
9E24
AC07
AABF
AAB1
AF0D
B0F6
B155
B07D
A523
B021
B0B0
B17F
AD90
29FB
243A
2C7C
208F
ABB4
A9DE
9C08
A965
B149
AE99
AFD3
B38D
B459
B435
B479
B2C1
B5C8
B551
B4FF
B50E
AF3D
B4BA
B313
B29F
B42E
2D4D
30E4
29D9
2FE1
2F48
2CAC
2591
A615
2C1B
286F
2CF4
2951
28FE
2A19
318D
294D
2C38
2AC8
2BAE
2601
2707
A1C7
2935
A9CD
2A3F
2D3A
2FB8
3061
31CA
254C
2D5B
27D9
26B6
2463
2AC9
2D48
2F4C
293E
2442
28A4
A9C7
A810
AC29
ACEC
2420
AD80
ADDE
AE68
B013
9D5F
A1F8
A45F
2662
295F
2244
A6F8
2617
2D9B
2E5C
24C7
A44B
2B83
2D7F
1820
A7CC
A260
2551
2366
277E
2B65
2C48
2EA6
2E3D
257C
2805
AB37
2328
1CF8
27C0
24CC
A063
9C5E
A849
296A
2C91
26F1
A023
1FC6
2CF3
2D87
9D03
2159
A90E
264E
247D
A88F
9B90
21C6
24BF
A206
3013
27E3
307A
2CDA
14AE
2812
2CD5
A5D6
A75C
AAD9
A1C8
AD25
B09B
B1E8
AE88
B076
AF94
B1B8
ADD3
290B
A8B1
A9BE
AA9F
20C6
2A55
2A6F
3036
2FEE
1248
25D5
A8F4
A47E
A86E
A8FA
AE6E
B257
B35F
B1FB
B1CB
AEC1
B060
B32B
B2A4
B167
B3E0
AC31
B14D
AFE2
ADD3
AED6
2DEC
2C83
A5E6
9CAA
2829
2CB1
26C9
29A4
A803
2EA0
3240
31BB
3066
31B7
3331
2CF3
2A0D
2D0D
2C02
2D2F
2C60
2899
A80C
1D56
A88E
A93E
15F6
A9E3
AE1B
B0EA
AF74
AFA4
AC72
B0BD
AEBD
AF84
AA0D
9F25
1928
AC70
2891
221D
A78F
A585
AFBF
2793
A7A9
2564
9FE0
ACF0
2B23
2997
25E0
98CE
22C6
2FFB
2812
2A74
28FF
20D0
162D
9906
1CBF
1F0A
AA19
2487
28AE
2BF2
242C
AB7A
B1FC
AE58
2902
285F
2D01
AEBC
AD4C
A8F3
A8DD
2C83
AF3A
ADC3
A8CC
AA4A
30D3
B0B5
AF52
AED5
2543
3234
B293
B07F
A525
2EED
3248
B022
AC12
1FE8
2C4B
31E7
2B4C
2BD8
9EB4
29B3
AD74
28BC
28F3
2E42
2C9C
A950
2F56
29A3
A6CD
AC07
2B41
A9C9
AB72
AC89
A10E
AD0A
A95B
2242
A2D4
28BB
2A77
AC34
A8C3
28B9
28B7
3258
A82C
212E
25EF
2E3E
3284
28F8
2574
284F
2CB9
2F6C
AF06
28F6
2AB8
2B42
2CAD
B095
A79C
A14B
2B25
2589
3058
3085
30E7
2D01
2B0A
24D9
2893
1E1B
A8DD
A6E7
A1BD
1C60
2478
A424
A676
2875
2720
297F
ABAF
AC7E
A7D4
24A0
2D90
231C
2CD0
3278
3282
32F0
3204
3294
320D
31AC
31E3
3092
2F16
3108
2EE2
1EDC
2780
A298
2C84
29FD
AE83
B0FF
9E46
AC49
AF10
AF64
B293
ADB7
B05F
B025
211E
A554
2588
AFD9
AD9A
A81C
2CC5
1E00
AA74
AD48
2DC1
2CF8
2A30
B297
AF6E
AA0D
A9E0
2960
B0FE
ACF6
AC04
A9FE
2504
AF08
AD97
B0DA
A9EE
2ED8
B1A8
B23E
B39B
B04A
2CA3
B231
B42E
B4B1
B127
B10A
B3C8
B26F
B544
B420
B373
B4D8
B467
B5EC
B372
ACDD
2744
2818
268A
2A26
1F6D
1FE2
9007
274C
23DB
A435
A7DE
1F33
2A55
2081
297A
28AD
2C15
00B7
2EF3
308B
B06C
9FB2
287C
3309
3191
A955
202A
AA42
A705
24EF
A73B
1D01
A9A4
A99A
2DE1
A916
ACDA
A605
2A28
2C90
ACC4
2509
2937
2DCC
2C25
AE82
A727
AACF
A9CF
ACB7
AAC7
A867
AB0F
9F6A
AC60
A795
2AD6
2D29
2D8E
2070
2B09
2C68
2982
2C03
3056
9A85
A93A
9814
2F7C
31E5
A2B6
1B6B
2981
3220
345F
2C46
14C0
2628
A902
A6B1
A7B3
AEBE
AF92
ADEE
AA40
AC68
B0CC
B22F
B0FD
A97D
AEE0
B17D
B280
AC18
A830
AEAF
B1F6
B08D
AE9C
B03B
2837
29D7
241F
94F8
2DF2
AA6F
2486
AA6B
A1AD
30E7
24EF
A519
A9B1
253A
3181
1FA2
A875
2CA5
2F09
3023
25E1
A522
2232
A3CB
2CC8
A8EB
B0F6
B13B
AA2A
2684
AB90
ADBC
B230
AD39
197A
2258
ACDF
AF80
B04B
B056
AD53
B3AC
B1A8
B10C
AC4A
B05C
B4F6
B37B
AA43
2679
AE51
9CEF
A490
29A7
A60C
216B
A51F
AC12
A99A
24E4
2BD7
2EC8
2F49
2A41
1574
2FDD
30B6
2FA0
2ADB
2C11
2E19
2777
2C30
1D8C
21E0
A7F2
ACFE
B318
B2D3
AF4C
2920
A0CC
B302
B4B9
ACAD
AAAA
B03E
B432
B401
AF09
9ECA
B472
B2ED
B2F9
A978
A809
AE9F
AED4
2900
30A1
A5B7
2D9B
2126
A9FD
A97B
2463
2C05
2784
2DA6
27B2
3018
320B
2F03
2C8E
A6F9
3038
2AA8
2689
A129
A875
32C9
2F06
9B0A
290B
2D40
AA69
B092
2904
2A42
2BFF
AD1A
271C
20E8
28BB
AA4D
AC82
9DD8
2C23
B019
AE04
2E92
2E28
A58D
AF4E
A23F
3163
3018
2180
AA57
28E2
AB71
A040
A8A2
AD97
B1CB
B166
B2CA
B005
AED2
B03F
ACE7
A699
AE16
B261
B4C4
AB18
B122
B4C9
B31B
B407
ACE8
AB39
B21B
B417
B5B9
A84E
906E
A5A6
26C5
AC15
AD20
AC75
AC88
ABDD
B114
27D7
A2CE
AFA0
B295
B361
2CB2
A700
B495
B555
B386
2CB8
2AFC
A83E
B298
B500
289D
297D
252A
ADDA
B064
A48A
ADCD
A6C4
A587
2394
29C1
2EB6
2FC4
2B34
A761
A934
A29D
ACBB
ACA3
A769
24B9
ABB4
A4D6
28D7
A344
2E9D
3121
2C9E
2D13
2B9C
31FC
3155
2FA6
2CEB
3119
2C96
3096
2EB6
3071
2D66
2ABE
A6A8
AA1F
9D22
A63B
AF8C
AC4D
A1D7
240D
AD3E
2B2D
22D9
24E9
A9C7
2402
A0D4
AEE9
265C
A62A
209B
2ACE
A2C4
2901
9048
A91D
9FBF
A4EF
252F
A63F
24B6
2C83
2608
2097
2B9A
2CB7
AC4A
2FD9
2C55
2CAD
B04C
AD8A
2B8E
B327
B58B
B3C4
AD6D
B17D
B577
B49C
B138
B326
B5EE
B40A
B242
B2D1
B2CD
B2E0
B1CF
B57B
B5B0
2D67
2D08
2C3C
AD11
AE56
3035
267D
A0E7
ACB0
25A7
304F
2919
2E48
2F87
A1F3
2E5C
2E42
280D
A906
AB76
3224
3041
281C
AC81
0EF7
30F0
2CB6
303D
335F
3035
2DBF
32AC
32A8
3035
AA0F
318E
31F9
2F5F
2011
06B5
333B
2FB7
23F9
A313
2037
2F66
A8F1
251B
A85D
A1C9
1CEF
26D4
1FBD
2B4E
A899
2C21
97C1
2A52
A65A
A8A5
9D0E
2889
A61E
292F
A41C
2B5F
2C63
2BD6
2116
9D42
2ED5
3246
301D
2198
A575
317B
2EC2
2699
1BAB
2C61
28FD
2C14
2700
21B4
AA86
2D10
2C1D
1804
A94A
AB1B
A41F
AC01
AFDB
AEF0
AE1B
1C19
AEF2
ADAD
AD53
AC1F
28DC
2F47
3210
32F5
2C3C
2C1E
300B
3399
2D72
227A
3206
3355
3025
A2DB
2E6B
32AF
3111
2D8E
2B5D
29AD
28A8
27A4
236B
1852
ABBE
281A
207D
2EBA
301C
AA5C
9DC1
A9A4
A4AB
2DC4
B095
2661
AE88
27EC
2B9D
AF82
ABF3
9C4D
2B7E
2456
B40E
2992
3065
2D0F
AA72
B024
9EE0
1C95
A244
9878
A228
A8F0
2C2B
2D55
A595
B20A
239F
2E0E
A64D
AEA1
B40F
3077
27CB
AD6E
AD2E
ACB2
2BDC
AD5E
AC4D
A6D3
21B6
2A9E
2828
AF8F
8BAC
AD83
2DC8
AE62
AA32
2BA7
A9BF
2582
2442
2BF6
2E3D
AE89
1CEF
2765
2D3F
26D7
AD0B
336A
28F8
2C58
21E6
2C09
B0F0
AAD8
AAD8
B003
B089
2B6A
250D
A9F0
AD56
9DA4
A141
26AB
B22F
A83E
1E1A
ADA1
ABCF
AE2C
A83C
A804
B02D
B1B3
AF96
A836
A40D
3043
2FF6
B06D
AA7A
9581
2618
ADE5
AE61
AB6D
AF47
2AF9
ADBE
28AA
AB0C
2075
1CD5
A85A
16E9
24D2
2892
A89F
A885
98F6
22E4
2AD1
1DFA
AFE3
AAB7
AE4F
ADFD
AB54
AD33
B1E8
B282
B233
1BF0
AF9A
B2FC
B3FA
B3BC
AD3C
AA88
AFE7
ADB0
AAAF
B5A8
B3C7
B2FB
B116
B117
343B
AAA6
A9F8
2DBC
AC1C
2EB0
B182
A6E4
25BA
AC73
ADAF
B0D1
2E64
AA80
AAE7
B2FA
A99E
28B7
AB69
A539
B348
1D02
AA0E
B24A
AFD1
ADF0
AA21
AD19
A15E
2BFE
28AB
2AD8
ABDC
AADE
2834
2860
A68D
A8C0
AA39
A7D5
3066
2DF6
AD58
A798
AB60
ACAF
AE9F
2AFE
AA5D
A931
AC36
B00B
AA3F
9A3E
2E2C
ABF5
AA9C
ACC1
21BC
9A77
2131
A59C
A654
29A2
2C29
29A0
8F89
25E8
2EF9
2760
2C3F
2A8C
2B23
2AB7
2CAB
B04A
9AE2
28EA
AC21
A8DC
AD1C
2940
20A8
2477
2A11
2608
A4F6
283F
2893
2C31
29E7
2803
2D6E
2E00
2E72
2DC3
2AB9
2F53
302F
2E61
34D5
2ECD
3465
318A
31EA
309E
2923
2FC9
AC09
3002
A8D0
2459
2E7F
A7F5
29A7
AC53
285B
A9E0
A238
279F
B113
A92D
B1DD
A40B
A397
A426
9B48
ABAE
B083
B197
AA8C
1DDF
A777
AD51
AD7C
AC6D
AC5C
29D9
A926
ACCC
AA04
A362
AC10
AC1D
1150
AA7F
2826
AB21
A5FE
AC24
3135
2935
A0B6
31F5
2F7C
9784
A9C7
3020
2E3C
9221
A600
2173
3117
9D9E
2EBE
AA30
AC16
30ED
2474
2DC5
A600
2F00
9F2D
16DC
2C7F
176C
A172
29EF
2D30
A77F
A290
2734
2DB5
16B7
2AB8
A541
28B0
183E
2B1D
2AC2
A07B
2234
2C43
A4F0
243A
A42F
AA66
A8F7
ADB5
AB5A
2743
A51C
2252
AFAD
AA4F
23C9
AC31
ACA5
244F
AC75
2BEB
AADE
9CF8
A1B4
9DF2
A876
A84C
A60F
A013
A7E9
2AFB
20ED
A65B
20D9
2477
3200
28D1
32B6
3124
2B7A
2DF5
A38C
30AF
2C86
2D9B
1E33
22A5
30AF
2106
31F4
AFE7
2DB2
2C41
2BBA
3087
B20F
A051
AEEB
A7EE
A46E
ADB7
2EC7
2B3A
AE29
2C4B
AF1E
3087
A8BC
ABFA
2957
2AE4
27E1
B2FB
2A31
2896
23BB
AF60
9946
2F3D
A816
296B
B0DB
A777
2C4B
102C
2F3A
26EC
A89E
2DC0
2918
28D1
2802
221B
2985
15CF
2E22
2F6D
2B70
2E24
9EAC
2D17
2C93
2B31
2B39
2CF3
30E6
2405
291F
2948
2C48
B2E4
B25C
ADE2
B1BF
AFFA
B32A
B0E5
AE07
AC7E
B082
B12B
B0CC
AAB8
ACD4
AC1E
A8BD
ABBE
A403
2329
A8A6
AE41
973F
859F
A82A
A960
A49E
2828
AAE9
AE9B
ACDC
2C80
30D3
282F
ADCE
270D
1F98
AE04
A51B
1CCF
2A2C
2F4C
AA04
A8F3
2CE3
2BD2
A625
A8EC
A680
1D68
A463
2704
28DA
2967
2FF7
2EDF
A92E
ABEB
2B68
A03E
242A
A946
AB92
A93A
AE12
AEBE
1EF1
A808
AFFE
B1D4
B046
30D1
2D69
9CF7
AE3E
ABEC
AC8C
A5DE
ACCA
2450
A75C
AC18
1D6B
1D33
26D1
2DD7
2997
2364
23FA
1C6D
2B6F
AD2A
AEFF
ACB4
19AD
A5DA
B0A2
B0BF
AE47
9B5C
31AA
A326
A90A
A421
2CD3
2C49
A74E
A871
2B3A
238C
96F1
974E
2808
2129
A9C8
8444
30B4
2D7F
A96A
2664
2702
2E8D
2F2B
2F7A
2DF3
2E77
AD65
2B23
3030
29BC
2D25
31E3
2EE4
AC41
A84C
9C7D
A377
247E
A3DC
AC21
AD46
2F13
2C46
28DE
2D6F
2DE9
2DA1
2501
2A8D
2F6C
2DDC
B0A9
B2FB
B12D
B075
A064
2A98
A598
A9C0
2281
3139
319D
2C84
323D
3330
329B
A6C7
2D8E
30AB
2F51
1DC9
AE30
AC94
2835
3081
2A58
AE76
ADE3
AC03
2879
2987
A865
A86A
951B
275F
2B5B
AB43
AD67
A797
83D6
2CE1
A650
28D0
ABED
2171
1A08
B247
B065
B03E
B013
A791
AC43
AC93
A625
2C7E
2286
B007
1CAD
AB6A
AF27
B09D
AECC
A9A6
AE52
AC62
AA78
21AA
A981
3034
2EEE
2294
2B42
2C72
3104
3065
2DB3
2969
2D03
A8F5
A768
206A
2714
A7BC
AC81
A5FA
2B20
AD13
AC10
AA3D
A685
255E
A27A
9D17
0490
A236
AD40
240C
2D86
253E
B09B
B04C
22F0
A6C5
292E
2CC9
2D84
2852
2C13
307A
31A4
2DCA
AC33
2980
2984
9911
AA43
A9C4
AA14
B13B
2BED
A869
A593
AE87
B066
9AFD
2591
3138
3301
2E2C
2D44
2D8D
30D9
3224
274A
2C5A
A97F
323B
2B6B
A945
AE49
AFE1
3337
2CC1
A7A3
B132
B1F0
3430
2B55
1975
B01D
B4A6
B409
B48F
B2CE
908F
2F18
B1EF
B174
AC3E
2975
2F34
B26C
B19B
A710
2AF1
3168
B274
AD76
1D0A
2F11
318C
B430
AD87
A747
2E86
3079
A447
A9D7
240E
2E3B
AB52
A0F4
216E
27A5
A408
B1D4
2A83
A5D9
AFA7
B1DE
AE86
26C5
AA77
A21E
A82A
1EF6
25C9
1D98
2989
252B
AC16
2982
A972
AC6B
B000
AAA4
A41D
AE6D
ACBE
B016
A065
AD93
AD3B
ACC4
A835
2DAE
27C9
3019
2BC0
2ECB
31D9
2C2A
309E
304A
A2E2
2F22
2F04
2163
A56F
2C2E
2ECE
2CD1
2FBA
2C28
2B11
AA36
AA06
2E8E
282E
AADF
B198
AEA3
B096
AD4D
B10F
AD62
AED0
B011
B1F3
AC8D
9E23
2DBF
2788
2107
AD4C
A8F2
2D1F
ACAF
B22A
B0BC
B025
A5B8
A84B
AE93
AAD7
AF57
AC82
A367
1D24
B03C
B05F
30C1
2B2F
26E5
AB97
B1B7
1A6B
A50A
A3BB
2103
2B61
2C83
125B
25B5
28AB
30B7
23F6
AC46
9F4F
2F90
2FC4
1D61
2CB0
2FFB
3263
2B84
305F
32E8
309E
2C10
B1D0
A7A1
300C
2FD0
251C
2887
2959
29C2
2B00
298D
A8B7
30E8
2EFD
2F36
AD33
AD99
2FFE
28F5
A7EB
ACD7
19D5
ABBA
AE7D
200F
9B03
2CDF
2C2B
2BCF
A1FA
A6ED
A383
2CD4
206B
26FD
24F7
2023
2638
AAE4
2224
3080
A425
2DC2
2A65
2A9A
ACA0
B0AC
319D
20D3
1A71
A764
AC28
AD38
22C0
A807
B0E9
B179
2997
A054
AD96
B098
AE87
2CFB
970F
AE73
B223
2AAE
28D4
217F
B10A
A9D1
2F7E
1889
AEE9
AE3E
29A0
3064
301D
2EBC
2FF9
2EA4
2583
2E08
2D49
2CBE
2989
289E
ABC0
ACAA
23B1
2602
2A7E
A50E
2533
2FEB
3084
2D72
2872
32C6
3036
A742
AED6
2426
2C60
2E3D
2EF0
3128
2A3E
2E3F
2FCB
3013
2CFB
A46B
2978
2E52
29E8
B06A
2C6C
157D
2903
AFEC
B301
2952
2411
AA8A
0F8C
AC91
AA4A
A017
1B03
ACD9
2015
A908
2C9A
28BD
A9F6
A8DB
1F1B
2B2F
AEBF
B018
AE14
AD4F
AF37
B076
B159
B05E
AEB7
AD9C
ADD0
A2F6
A870
B090
AF02
ABA4
ADC8
B35B
1DE4
A3C4
A782
B220
AFD8
2EAF
2EB6
A737
AA03
2F05
2B2F
2D59
27A4
30DB
322B
2196
A897
2243
2B5E
2DDD
AAEA
A12E
A925
2A70
250F
A8E1
253F
AC4B
28EF
2FAF
ADF0
AC67
A621
2CA3
2B40
AF31
AAEE
2E12
2C51
ACB7
AD7E
2578
2622
AE5D
B1DA
B0BF
AC8D
A7F8
2408
24C4
224A
A881
A90B
22B6
2D3B
A4CD
2873
A8C7
26BD
2E30
AB7C
9CBB
A76D
2CFB
3506
ABFC
1DFE
32F3
344E
3353
9B05
2220
2C0F
2E9A
2CD5
AAE1
2C42
2C14
2FBE
2EB3
AEF6
25E5
2CC9
2266
1E06
B1FB
A268
A895
A519
A5E6
AF97
2399
292A
A8FF
A8C2
282C
2B36
2E1B
26A7
1814
2DC7
2C29
293F
2D55
1E84
2054
9601
2B5F
2CB5
AC87
2937
2A83
A947
B134
B10B
24B0
AE3A
AFD9
B17C
B08B
A8CE
A8CF
A3DB
9D08
A739
2C26
2E83
A003
215C
262E
2B01
2317
AB53
31AC
3179
A87D
9DD9
2FE2
32E8
3485
24CE
2693
3162
2F33
31A4
AAF7
ACCD
ACA7
AE45
2C04
AA3D
ADEF
AC78
1CF9
2A44
A614
AD4C
28A6
A6C6
3199
2231
1F60
26E0
A67C
2402
A59B
1C84
A823
AF00
B1D3
26D5
224F
12E9
2550
27B1
A6ED
AC11
A328
AD37
B188
AEAF
AED5
AFDE
B33D
B105
B296
B3AA
B3F8
B23F
9E21
2865
A43E
2EC6
2CEB
AA2B
30A4
2EB0
2E39
1704
AECC
2F42
2F7C
19F4
ABCB
A6BA
2850
299E
288D
22C0
A508
21A3
2DD4
2626
26E3
2727
2929
285A
A81D
2F24
314E
2808
A829
A759
2C5B
266D
A932
AC73
AC9B
ADA0
243D
AEA2
AF22
A346
A2C9
1409
B05B
AC8D
A90F
A87D
AD1C
A736
A7C0
B077
B204
9B32
97DB
2DF1
AA47
AA87
AC57
A957
2F59
AD48
A4FB
ACEE
AD42
2F96
AF25
2A87
AA2F
ABA6
2986
B1C0
AE47
B124
AF3F
B0AD
B2D7
B060
B324
29DA
28FC
28B3
A2B4
A8C1
2AC2
25B0
2C6C
A472
A521
AA51
28B3
14E8
25F9
2D2A
31B0
329F
2D47
A644
2881
2D1B
2FD1
246E
2DDD
307F
AAC6
AA70
22D3
1DD3
1C76
ACF4
AA3E
A580
245C
222D
2693
AC17
AE5F
AA5D
2684
ADCE
A82B
B365
B0F5
ABCC
B06C
AF35
AD7F
B15D
B1D3
A6E6
AB60
A469
A13B
2B10
2993
A73E
A988
ACB3
1DEC
B00B
ACB0
B037
A8E6
2AE7
B142
B11A
B079
B17C
B20E
B2C5
B3F5
B3D8
B4B8
B16C
19CF
247A
1FF9
24E7
9CB5
ACCE
A77E
AE7E
AA19
2B93
B0B4
B253
B055
ADE9
AEB4
B1BE
B001
B1D8
B16C
A8EB
B223
B24D
AF7F
B070
A78F
B202
AD6D
A10A
A6EF
2C03
ACB1
B1C2
B017
A88F
A85F
B009
B0AF
B1D5
B365
AC4C
AB7D
B206
B171
B1BD
AE73
AD47
B047
AFA3
B15B
B0C7
9FFF
2D45
A960
2BE6
AB12
2CA3
2A71
2CA6
29D2
25C3
2FD9
2E00
2DFE
301E
2DF7
3065
307C
3025
2ADF
31DA
2E30
3193
3133
2D71
333E
24A0
2345
2C15
2936
2AB3
2753
18E3
2DB3
2E56
2D8A
29BB
28AA
2A21
2DC7
2940
A52E
29EE
2D13
2D03
2C25
A041
1F56
A8BB
A187
30A8
25CB
282A
AA48
29C6
2AF5
AAD3
1E13
9CED
2C69
2301
2F54
2C79
A109
9E89
2AF8
9438
9DF6
2B7E
26BA
23E6
2B2D
A4FA
2FEB
30A2
2AD3
AC59
2D4D
2DB5
2C72
30CA
2503
A72A
2C75
313E
30BB
AB9B
294E
28AF
2E27
3018
A540
A9C7
1F61
AAE3
1962
AFA7
B096
B075
AE80
AD54
2CFB
2134
2ABA
26EC
A9AC
2997
283E
29C1
2B8D
A5C5
2ED6
2C78
2ABD
24E0
20CE
3211
318A
300B
2E6E
2E41
31A9
2FBF
2CE2
30AA
304C
A06C
2D75
2C57
2ECC
2D74
A4D2
2E08
2D76
2D1C
A5CB
2AC7
2750
2834
2C80
2D72
953E
2B3F
2853
2F4E
2581
17C0
242D
2C02
2C9A
2E93
A97A
2474
ABD4
AA70
9A53
AA42
2143
A48E
29A2
A953
B0F9
ADFF
A8F5
ACD4
1D6E
B149
A840
211E
AA0C
A089
B27A
A427
AEFA
A867
A450
282F
26A6
2A24
275D
2AFC
B068
ACD3
21EB
2172
2A96
AD4F
A6B0
A139
2869
2DD7
AA98
AC67
263D
2084
2F47
AD1F
A873
A983
A8BE
29C5
B06C
AC75
2DBF
2E64
29D9
AD1C
247F
2C8C
2CBF
2242
B0C4
9B5E
2CCC
2D54
A4EE
B2A8
2AA8
ADD3
A9BD
2B58
B05D
A0FC
AEC4
A6F0
AA8D
2A05
27CC
2271
A5DA
A9D0
A7B5
250D
A71A
9854
20FA
A31C
A5D2
ABF9
AB53
A90C
A715
A15E
238F
230B
223E
AB60
289A
A762
9EB3
A912
A3E5
AC5E
AC7C
A9A4
AC77
A502
A84C
A955
25C7
237D
2577
AB2E
A70B
A6B8
289D
277E
A85F
A8D4
22EE
2842
A68A
A26C
9918
A809
2824
AAEF
A791
9DD8
A84B
ABC6
ACCA
A497
A946
AA70
AA74
2B49
2540
26C5
9F3A
213F
A95B
A745
AA77
ABE9
2804
A301
28A9
22DD
A3D9
A6AA
9B00
A7DB
AA75
219F
A436
A449
A871
A93C
A852
22AB
AC40
9920
1D85
A80A
A58B
1C0D
1850
27FC
29B1
A386
A4BC
96EB
222C
25B6
20C1
A852
A10A
2881
264F
A144
21C7
AB34
AB66
AAA8
2569
A8B3
270A
8AAF
25F3
2599
A906
A9E6
A9DD
26DB
25B5
A91A
A85C
A881
ABD0
290C
A5E4
2931
25FA
24D5
A474
2665
2471
26C6
A1B9
ACB1
21BB
9BAE
A890
9595
A91B
AB20
AB71
A8F3
26D0
A68C
2662
2099
293C
A864
AC2E
A87C
AA2E
2853
A556
AB66
1B42
A847
A89A
ABF2
1E07
28B2
AA4B
280A
258E
2463
251F
A80F
22DF
9F12
A9D9
1D21
AA2B
9F8C
A4C0
A412
AB10
A4A4
AC89
AC7D
2573
A11F
A8B4
1BC4
ABC7
984D
A048
ABE3
257A
A9E7
AAF2
AAEE
A931
1F1C
2032
9BBA
AB08
A3B1
A9D5
A53A
AAD8
9CDC
A458
A73B
25FD
A5BF
287A
AA4F
2684
2019
AAAD
24AE
A98F
A877
A0D3
232D
2848
A4F8
A0D5
A65D
A80A
A6C6
AAE3
A8EF
25F5
1FE8
A175
A9AC
ADC0
AB8B
A861
2014
27D0
A0A5
AA8E
2470
AC98
A719
259C
2830
A9A0
1F3F
A919
AAB3
A065
AC76
A599
A41C
A4CD
A933
AC76
A549
AC1E
A899
A16B
AC1F
9B0B
24AB
2720
2779
AB92
AA72
88B9
A601
2583
A946
24F3
28DB
AA5F
26DC
225E
ABB5
A8FE
2543
2497
AAC6
A96F
AC7A
A511
AD6C
A60C
A005
AA10
AD02
AC38
A776
A40D
225F
AC08
A869
1212
2603
A8C9
9A43
9DE0
A9DF
24DF
A5F7
AC25
9C30
A560
A189
AA0F
1F7A
A61A
9AAB
A927
9FF8
A486
AB7D
A65B
A133
A9BC
AA81
2713
2749
15D2
A322
A94D
AAC0
A856
AC7E
ACA6
A66B
1EB7
ACE0
246F
97F7
A8F5
2858
240A
A701
2703
A83D
A920
AB8D
AA26
9316
216C
ADCE
AC23
AC47
1944
2356
AB04
2472
AD74
A4DC
A7E6
AB56
AC10
AC9B
AD71
ADD7
AB3D
AC04
2512
2154
A795
A847
A912
1EA8
23FA
A889
A951
A5C5
A876
1DD6
28AE
A2D0
27C4
1BF6
249A
2709
AC96
1939
A948
244C
A8DF
A83B
A55C
A9A8
22B8
AC31
AC90
25B7
A8BF
2586
262B
194C
AC3E
A95C
9E5D
1E21
A1EE
2151
A903
AABC
0EC6
AA1D
A907
8FD4
ABB9
AEBC
AB2F
2497
A06B
AB6A
B127
2465
2C6A
AEF4
AAAD
AA4A
AD61
AAC0
B2E8
9ECE
2C83
ACB4
B1F2
A18D
A31B
3131
3031
9EB4
3277
A33C
9A0D
2D0D
AB92
2C6B
2F1D
2E46
2E5A
AC80
AD4F
AA59
305F
2B44
2920
B0E9
AA97
ACA2
AB15
AA2E
B29B
B265
B295
B1AA
AD63
1EF6
B059
AF67
27DA
250E
2DF3
2955
ADF1
A66E
288B
A9CB
326F
3161
A826
AD54
AB44
2A4C
319B
2E9A
AEF0
9EE3
AEEB
AA06
288C
AC50
30D5
AF1D
ABB3
A8B2
18A9
3566
2CD7
AE06
ACB2
291A
3262
33AB
2D56
A5C7
1822
AE25
30AB
3308
2DE2
2A04
B03E
B48B
2710
2CAA
A582
A0DB
AF9E
AA22
A98E
2E28
AAA9
A1C4
ACAC
1C3D
30C9
A521
1D3A
20AA
AF23
24CA
2D4D
289A
2D0E
A87C
AEDA
A7A9
2D1B
2A06
2FF6
2EDC
2CB6
29D0
240C
A292
AE2B
B528
B05F
AD97
B0A9
B47C
B5F0
B455
AFE0
B1AE
B504
B20F
B022
B05B
AD46
AEBA
AB31
A877
A431
A9DF
A9FA
2DD4
9569
AC19
A441
28BF
28D3
2607
AE90
ABC9
ABD5
AB79
2834
AD01
ADB2
B033
2D7F
A8E2
26ED
A8C4
AEC8
2C4B
2720
A0E0
2DDB
A5EF
2C7D
A6D2
29CB
2A4E
3151
3215
295A
30F7
2D88
3034
319B
2442
2D67
309B
3003
ACE2
AD81
AD09
AF4E
A538
B6E3
B821
B725
B789
B70E
99FA
ACDD
A9A4
AB48
2B3B
2979
0A45
ACA8
A8BC
2685
A901
AA1F
A8D8
A7E5
AC78
B1D0
9D27
3031
A52B
B256
A8B9
A5F9
2552
A9C3
B0A2
AF64
ADC5
AB07
AD01
A5A0
ADF9
AB79
A712
24FF
91AF
2072
AEB8
A95E
2969
2DE7
2550
AAD2
2059
2D81
2F25
2088
2F0E
29D3
2B04
2D13
1DF0
2B64
2BAB
2F2D
288F
2A98
2A21
2D42
2D28
18B9
A4D8
A5E1
21A7
2905
22F8
AB05
9E7B
1FBB
A666
AF9D
2A2F
24D7
2969
A59C
AF1D
ACED
A8FB
2953
9E80
AD32
284D
1F64
282E
A63A
AFAA
2C0D
A093
A8D7
A64F
ADE4
A4E5
1DF3
AC89
B079
297C
B1AC
B061
AF73
B20A
ACFC
2AF8
2C99
2A66
292D
2BF7
2AA2
2F0E
31BC
2C67
2D04
A5FA
AB51
2F39
3274
2BC7
AD6D
AE76
AA30
307C
A391
AC6D
A9FA
AE94
AF15
25B1
AC03
A57D
225F
A8F1
A63B
A7BA
1C52
2CF3
2AD0
A8F9
2D4C
17DB
3105
3038
A018
339C
2759
2AD1
2DC4
2702
303A
278F
AB68
B01F
B35B
B2BB
AFE1
9BEF
AD2E
B3C0
B07F
B17E
A9E3
B10E
AE9F
2E68
B001
AD8B
A916
A7C6
2ADC
2D17
A2DC
A93E
A6C2
241F
323D
30A7
2DE3
223C
A694
AA05
A2B7
A926
9FA3
ADAC
AF08
2312
A81B
A834
2573
B012
A8A6
A574
2AFB
2E4A
9EA0
AD28
2045
22FF
22B0
B0E3
AEE1
AE93
AADF
3037
2CC8
18EF
AB66
A7AB
9D26
ACE4
AEEC
AC40
AB41
2213
22A0
A7EA
2B22
2763
A87E
1FE0
2BA5
2B2E
2235
221F
85D7
29C2
2421
A609
2E0A
296C
2D18
2EFA
26D0
2D2B
AADE
29B0
30AE
2C92
A784
ACC6
A5AA
A907
A77D
AD97
A28A
AAC0
A563
A85B
2AA2
2D0D
1C90
2C22
ABE5
2CE5
28D3
2904
A9DD
2E41
B027
ABA1
AFAE
B31A
ABDC
AC71
ABEB
ACDF
AE6D
A155
B2F7
B0CE
AAC2
1D40
AE2F
2CD0
267A
1567
30B9
243F
3176
3019
2D7D
3000
30B8
252F
2C72
2E88
2C77
308E
A767
2986
25F1
A674
318D
1E53
28AD
A8F5
ACA5
305A
AA3A
A50D
AA3F
AAEB
A808
2F34
30A9
2884
2CFD
3200
29B0
2C05
A8DC
B0DB
B027
A7BC
B0B4
B1BA
B2EE
B1BC
B13B
B328
AD15
AE19
AF07
A513
2362
2079
26F6
2B88
31DE
31D1
33E3
339F
33AD
2E8D
3036
2851
2FD1
3213
ABBB
2A69
213F
2B66
3125
AB1B
AAF4
A4EC
AAD2
271D
210E
9DE1
212E
2005
2AA0
AE0C
2281
2911
1967
2E9E
ACFE
2CCD
2CBA
2BAD
3062
2972
28D9
A02D
2C1A
1CAD
28C8
1E34
272D
00EB
AAEE
A97C
A840
A6C2
2692
A676
2EAD
A948
A5AD
A579
AE64
2AEA
2846
A830
2D74
AD6C
AB63
2D39
1E60
2A1E
2B7A
2A6D
1944
A3E6
2C2C
280D
2CC6
2DC2
24D3
AA62
3087
253E
A548
A8BF
2629
AC2C
ACD8
AAC4
AC96
A9E1
AD9C
AE75
AD90
AD52
9D46
A827
B02C
AA7A
AE5E
AC34
AE8B
B04E
AC6B
AFBA
AE2C
B07F
3112
2E5C
21A8
B0F3
AB2D
3024
239A
2619
AFB8
B08C
216B
AA1C
AA8A
25FB
AFE0
A889
A053
ADA6
9F6B
A4F3
A397
2B77
A7B1
2E54
2C14
2CC3
2CA4
23EC
2A25
2892
A252
A1F7
20EC
24F6
2C07
B10E
AFEF
AFE8
AC7D
2C2C
AEE4
AC96
B123
AB9B
A419
AC45
B11B
B014
B133
B1B4
2A6A
A02C
23DE
210D
9861
A609
ACBB
A870
27C0
A9E2
2223
ABD6
ADF8
1E09
27EC
A516
AA6E
AA97
ACD8
A239
280D
A90F
A4BB
AC72
28F7
2EDE
21D5
2BAD
AA12
AC7D
280E
A735
2580
AC2B
ABF0
2032
A1F4
AB44
9CC4
AF49
23F2
2D13
AB87
206F
AD87
23CF
1329
AC78
2B2A
B0B8
A742
2518
2CF9
2500
2886
2751
A95E
2C45
2B8C
AC2D
A3BE
AB63
2E82
9242
AE3A
25DC
AC2A
2C21
2D27
A229
A45C
A8CC
2BDA
A3CE
2742
2EE2
2B4B
29B5
A0DE
AAB9
31D1
2C39
23B1
B0C9
AD65
270F
272E
A89A
A504
204D
ACCA
A4CC
AC5F
274D
A738
2C38
2E10
97A6
2D13
285B
263F
1D2C
2775
A99C
2B19
1AC1
B0AB
ACC9
2552
AF19
2D40
AD2D
9E96
A674
B048
A923
ABDF
1C56
9FB0
23DB
2926
1F8E
ACEB
ADA9
2C58
3291
2D26
2CF4
2FA0
2EA3
2AA8
277C
23D2
A5E0
2712
2CBA
2D20
2D6F
2770
2998
2D51
2D2B
2A14
AAA9
B00E
28B7
32C6
330F
2B05
297C
A355
9E44
1466
2C85
2FDE
9D42
AC61
9D86
AC54
2E65
9CAF
AE9B
AA53
9E3C
300D
290D
AC91
23DE
9FA8
3285
9C40
B0F7
A9C6
AC6A
2CEB
2F96
99C9
242C
A823
298E
3099
2C8F
286E
21AE
2FF6
2892
A53A
ADBF
B08C
B159
342A
3565
340C
2DD5
2855
2F7E
308F
3134
260B
A5CC
ACE6
A3AA
278E
2965
2D74
A1D5
A430
AE85
AA6C
17ED
A57D
2448
A9D4
2D36
1904
ABE5
2866
AFB7
2A24
1D17
A5CB
2CB2
AD9F
2F82
28F8
2CC8
24BA
A0C7
A99F
2547
31CF
3127
2E98
2F4E
2D89
287A
29C9
282F
AE31
B271
A955
ACFB
26D3
B03A
B288
ACAA
2D33
2F59
9336
B025
2F5C
30AB
2F48
2D34
2FA9
29D1
3131
2FA0
3064
3000
ADBF
25C7
2094
2E1B
2EF5
B114
AF91
A9EE
2195
20CB
AEA8
B100
B212
AFA3
AC6D
30DD
2500
2F6D
287A
2CC1
A5C1
2500
2C64
1E4B
A6BA
ACDF
AD5A
A895
A693
B012
B0FC
B0E6
B107
AD96
B1D8
B17B
B28A
B54A
B376
B4A1
A927
AAB5
2783
2E1F
2C04
AACC
28B7
AE60
2CF9
2442
2DA0
300B
0617
3302
2DEB
2CD4
3310
2252
340B
2F47
2E4A
2C7B
AADE
344A
2B4D
2CF2
2CE3
9D2A
2E3E
2C1E
25FA
2933
257D
9879
202D
22C3
A85B
AC4D
AD66
A983
A063
A55F
20ED
AEF3
B00C
A017
27AA
1BCC
A6C5
AA86
AA75
A4E8
2130
14C6
A9B9
A552
AC2E
ACEE
AEF5
290D
A09E
B303
AF24
B2D1
A81B
ADE9
B06A
ADB0
B407
B13B
9407
2BD8
A812
AE07
B35D
26FB
2AF3
2CEE
2F6D
2FF6
AA43
281D
1D0D
AB98
2D1F
A8A7
AC26
A878
A9D9
29F3
AAB0
2AFD
28AC
A923
A376
AC1E
AA48
22AA
A61B
A578
AF77
AB8D
A7E1
1B57
AD27
A647
A4BF
9F3F
2AAB
294D
AC95
A5AD
9D55
A971
9DA1
A2BE
A06E
AEF4
A9B8
AF6A
AF0E
AAAF
B206
B033
B2E1
2223
AE2A
A942
A95F
9270
25D4
AB5E
AEFA
2277
2D56
ABF7
A9E1
AF62
9CB4
2AC3
9F11
ACF9
A995
AA5D
A6E7
AC59
A99F
AEFC
A54D
A73D
ACE4
AC0A
A881
2B48
241F
A78B
A7C3
AA59
2DA3
29A3
9DFB
ACB7
A1A7
2B0C
2D8F
24EF
AE43
AABB
2C18
30F3
3011
A922
A6D9
A8D7
2AFC
29DE
28EC
2E31
22CB
2C15
A3E6
294E
2646
AE06
AB40
1E22
A834
AD0A
B41A
B464
2559
0CFC
2180
B3AE
B60A
31F4
2FD2
2E09
A98B
B2BE
26A4
A081
AB4E
2F2D
3068
203F
A72B
AC0D
2A7A
2F8B
A85C
AC70
AF1D
A493
2EFB
2037
ADD1
AE7B
283F
301F
1EA3
A879
B06B
A97C
2882
18A6
275F
A1BA
A803
A670
2752
A8AA
25B8
2821
AC8B
A856
2351
24EB
A94F
A94A
27F9
AAE8
A698
0DA6
AB39
23A3
1AA5
A8B8
9A3D
16DC
A84F
A396
A8E9
1B7C
2090
AC19
AA8B
9DF5
230F
AADD
1A12
1DB8
A921
A7BB
A962
A9C5
28B1
A2AB
270C
9D81
A052
2835
AA6C
AB88
AAAA
A374
ABA6
2478
1D58
1E44
AB17
26F3
AA84
A6AB
A316
240E
AC53
A391
1F8D
20CA
2833
AAA9
A827
A0F7
A80D
1BAA
A835
A45E
1E34
AA7D
296A
A20A
A96B
9A04
A61D
2468
A6B7
A70F
ABA7
9A8A
AA87
AA29
27E8
AAE1
1C90
2060
A73D
2619
9FEB
AB64
24E5
A87F
1977
2404
1D4B
A8DE
AB6F
255F
A48A
AAAF
A77C
A380
A769
A72E
A852
292B
A68E
9F93
A0C5
A9D7
A415
A637
2078
2469
2195
A9F3
22E6
226F
A7E3
298F
248D
1FE3
AA8E
28BA
9933
9A60
A792
1D12
2786
2665
27D9
1E5D
24F4
A5D8
AA48
A5EF
2762
1CD7
1F1A
A9E0
AA5C
976E
A7BF
A68B
AB36
A884
AAEC
A978
A828
A1BD
A411
A93F
A4B4
A8AE
1837
A8DF
2410
9903
A812
2709
A4A8
162E
2611
A4FC
9C2F
A85B
2774
28D5
A9E8
2904
AA5D
A873
A07D
AA85
A6B5
273D
2278
AA49
AB6C
AC00
A82D
25BF
A49F
AC50
AC0C
A8F6
A522
AA93
A5A0
A8D2
28A9
A9E9
2395
AA1A
A578
252B
0D2F
25E4
264C
AC5C
A256
990A
ABF7
AB3E
A809
AAEF
A5BD
A81D
ABA0
AB14
23F1
A972
252E
2807
26C7
2599
ABCE
A5E4
200D
9F2F
1C6E
A778
A990
2A87
A9C1
A825
A855
A87D
A5D3
A241
24AA
A126
A556
A8CF
A870
2834
A800
AC30
AC77
AC0E
A952
AA2F
AA5A
AA93
28BF
A94C
1E2A
A43F
AC82
AAE3
238C
9D42
A4EF
A7FD
AC65
AB16
A9CA
15B6
9AB5
A33F
A838
A665
1129
961A
9CEF
2122
980E
A50A
A7F8
A0DC
AA32
A434
AAAE
A68E
AD0C
A065
A8D2
2424
A818
A160
AA17
1EE9
A988
A54D
A335
A765
1F10
AA15
AC12
0FF3
2320
A9AE
A96D
A72C
A2E3
A7A0
A809
A8B8
A6C8
A917
AB12
03A9
2437
AA60
9CEF
9F01
2690
9FAC
2455
1E06
21C9
1FAE
A5A3
1EDE
215A
27DA
23CA
AAA9
AC17
AB86
2019
25D1
A89F
1B4B
9CF6
A4FC
ABB9
9ED6
1E7F
A9B2
20C3
A548
15F4
A6A5
A56E
2800
A270
A7F4
23FA
AC06
12DD
AA7A
8087
AAE2
A91E
257E
A35F
AA1D
2718
A4E0
25F9
A49C
A98A
9DEE
25DF
188B
2831
A586
A4F5
A4DE
AB3E
A8FD
9AEB
253F
A0F7
A688
A6A2
A602
A937
A531
A5FC
976F
A4DD
2968
A496
A91A
249D
A8C0
A6A7
ABB7
95D9
9AAC
941E
A869
A49C
A68B
A9C7
281C
2A01
29D0
A675
A6FF
A4E2
A7A4
A7B3
B003
AA49
9F7A
A686
2432
A4B9
AD70
A7CA
27EF
20F5
2559
1C6E
A8A9
99EB
28D7
A791
9E51
29B0
2BCA
306E
24E8
203E
AD18
290E
2E34
939B
ADEA
A820
AD18
9F7C
9F7C
A9D7
AC6A
998B
AA6F
23A1
A438
206F
AB6E
2865
A91F
AEA7
AD27
AA3A
A133
ACA5
AF98
ACEF
2D2B
A0E1
B4E4
B039
B028
AA6A
B1D6
B611
B692
B4B3
B2FF
B339
B21F
B358
B396
B306
AF2A
ACF7
B16F
B180
AF76
ACAB
2D88
29CE
2D2D
2A8A
2C94
B067
A1AD
AC98
B2A1
AAD5
ACE7
AE3D
AF2F
AA84
AC20
AE57
B176
B2B2
B074
A8C3
2B0C
B008
B059
AD54
2394
2D2E
AA67
276B
A62C
24C0
B105
B0B2
A8AB
A475
2B93
A7BF
AA49
AD7C
A173
A960
AB1F
2876
A480
AE99
2209
9C3F
19BA
AE95
AAD8
2E4E
2E28
22EA
148A
28BE
3036
ACB0
261C
2336
AB2E
AC35
A3CF
2606
2A83
2672
29D5
2D58
2BE8
2856
2A8C
2A86
2BED
29E9
A73D
2D4C
28FC
2C1F
2AF9
29C7
2ED5
2E42
A8FD
A880
A64D
2845
219F
A962
ABBB
A5AB
AC64
204A
A0DC
A74E
A409
A591
A59D
28B6
A89A
9DFE
AA6F
1EEB
2A41
2DB7
2E97
2145
24CC
B160
B063
B24A
AEAD
2CB0
B3FD
B2D1
B4A6
A8F8
2ADD
B1CE
B49C
B4B9
A820
A5D6
9FD3
ACFE
A39D
2215
AB68
2D6A
2D24
2C80
301D
2DDC
242C
2B4C
2CE1
24E4
2BC3
ACD1
AC99
ACBD
281D
A488
1EDB
AE9B
279C
A793
9E4C
A6ED
A89D
A3ED
A9EE
3152
2B93
A5CB
A2F3
3024
2E9B
B2A9
B151
B30A
AB52
A6B8
B646
B60C
B357
AD0D
29BB
B0FE
AE88
AD86
AC6C
2D5E
2AE9
9C6E
208C
2D0B
293C
A15A
A830
309F
305A
2F8D
2C1B
2960
246E
298F
2C62
2A08
12CA
2A15
287D
2C1A
2D9A
28BB
2B34
22C2
268B
2749
2ED7
2C4A
2A77
2A2A
299B
2A57
21FF
2C7B
9895
A69F
AA70
25A5
2A71
A08D
A84E
A834
A5F3
21E7
2BB5
A978
A895
1AB3
2995
2CD2
264D
269D
2C3D
2816
2DA5
2A2A
2A2B
2B81
2D88
2579
A8E0
B133
B0BB
22AF
1E24
B089
AE74
AA3D
AD5F
3075
ACAF
A9F5
AF4E
2C6E
3328
AA22
2AC5
283A
3256
3150
A4A2
24E1
33B7
343E
32E3
AFC2
B310
B127
B161
2CFE
B149
B392
B416
B0AA
25E7
AE69
B1E8
B06B
AC88
20CE
AB2B
A603
ACAD
9EDB
3068
2EA4
2BD8
2A60
3178
30A3
AB6C
A9C0
A4B4
AA29
AC37
AE17
A99C
AA68
261F
A8C5
2E69
2F06
290D
0F08
2AE6
2DB2
3026
2E40
2CB3
2557
2FF8
3061
2CB5
3120
2DCE
AF33
A88D
A98A
ABFB
28DB
AC9B
A863
AC11
2070
AAC0
AC4B
AA09
AB13
A8A6
ABE0
AAC9
A775
9F78
ACF8
29AE
ADB9
AE7D
A469
29C9
2E11
2746
A0EC
B0A6
AD7F
AE25
ADE1
B275
B024
AD8A
A6C4
A9C6
B0EA
B39D
B1DD
AC66
B08D
B3C1
B50B
B1D6
B065
B00F
B448
B2C0
B478
B07C
0E3D
2092
2B72
A45A
A6EF
238D
22A8
2C9D
A83B
A4C3
A766
2918
2CBB
21FB
9709
9F48
2A6C
281F
293C
A1F9
2932
2EC8
30D6
2B17
2430
B06E
AF82
AC9E
AAE6
2341
A8A6
AEF3
B3DB
AFB3
A88A
B198
B550
B5DD
B19A
AD51
B6F7
B794
B653
B2D2
AD01
B448
B585
B22E
AEC1
AA8E
3058
3088
2CED
2882
2412
2D76
2D8F
2A7C
2898
2A4E
2E50
2E67
2407
A581
2426
2CC8
2BFB
302E
29B1
9C5A
3018
2E3B
312C
2E58
286C
2816
A806
9460
A854
20B4
2E90
2D79
A5F6
A86B
A45A
2D74
AC92
B1E1
B0A5
A961
AB1A
B36F
B28A
B04D
2546
3139
A543
AFF1
19E1
2873
AFB8
B029
B06D
A27B
2D0E
AD92
AFBF
AFD4
2813
3003
18CC
ADDE
937D
21C8
2ADD
2C8D
213C
ACC2
A2C3
27AC
2944
9CC0
AD92
ADA7
AD33
2AB8
2B19
285C
2C48
15AD
2B69
2CB9
A1E8
A5E4
A8FA
25D7
291A
28B0
A562
A897
292A
A872
29F8
28A6
26DC
1FFE
2164
2CB6
2D5C
2B5F
2B38
2CC8
2AE0
2ABE
1876
ABA7
2D3C
2464
2C9B
9C5D
AB98
2F75
293F
29D1
21DB
A168
2D00
2AF5
2E0E
2C60
AB04
2B7C
2B70
2E90
2B1C
25F1
286A
A871
A69A
A795
A0C3
AD7C
A96D
AD5A
A391
2692
ACDE
A9D5
ABA3
AC6F
2AC9
AC10
ACA0
AD93
AE96
2413
A79C
A5EA
A939
A00C
AD9B
ABC5
9F94
AB4B
A8C3
AAA0
AF66
B0E8
AF36
B152
AFDB
AFD8
B152
B1A4
B17D
A7F6
AF91
AF4D
AFDA
B213
A9E3
ABCC
AFE8
AA78
AD69
2D3F
2E46
2ED4
21C2
235D
2B65
25F5
2966
A9D6
AD82
2ED9
26FB
1AE2
AACF
A918
2EBC
280A
2557
2013
9EBB
3100
2DFA
263C
2916
2768
A92B
1A43
A0FA
2BA6
2A56
A965
ACC7
27B4
2A33
2C0F
A91B
AAA7
2178
8EA0
2CCB
ACB0
9D52
9799
2C4F
2808
AD1C
2798
2907
1E11
286A
273B
1F6F
A0DB
B013
AD7A
A113
A8E8
B019
AD81
B121
A769
1996
AE4F
AFBC
ABC5
256B
2992
A5AD
AB5F
AA8C
2C05
2A62
A15E
9DC4
ACF3
28FE
3045
2D51
321D
31F7
220F
2D06
30D4
30CF
2DB4
AD86
2D4E
2C48
307E
313A
AFF9
2B28
2FAC
30B8
2DD9
ACF3
2AAE
31AA
3111
3021
A997
24C3
9C41
A6F7
262B
28BB
A407
AF12
A6CD
A8B6
AA69
B041
B06A
AD62
A0F0
B023
AECA
B096
AF03
A358
1C32
ABC2
AED3
8E87
2D33
2C88
2D7B
AD4E
AD10
A814
23CC
2DD3
A6FD
A5C9
AA1F
28D1
2ABD
A8E4
1D5F
9CFC
A0AF
2C74
28D8
2478
2161
29A1
2E06
2D13
2D32
2B97
30E6
2DE6
2E75
A70C
A83E
AA26
A565
2F4B
2477
9B27
A87B
2E9B
300E
27FD
2C71
B0C8
A803
25B1
26A8
A6B8
ADD8
AD40
AA64
A438
2594
298C
B47F
B247
B040
AD06
2CFC
B271
B44C
B311
B240
9DD0
AE7B
B080
B110
AF17
A63A
A825
AC67
AFE5
A83D
2908
A81D
8EBF
2E2F
A3A6
A69D
AB41
2A77
2F09
2B6D
2445
297F
2007
2CB1
2C50
2A02
3068
3121
2E03
2FB6
2AC2
18F0
317E
2B50
2BFB
B1D3
9D22
A565
2C2C
2CC6
2C07
2679
265B
28DE
ADB3
2CA1
1408
2340
2D2C
1F12
2D2C
2581
1DFD
2A28
23EE
2D84
2DAF
300E
264B
307B
2A31
A4A0
2AB2
2DE3
2DF7
2BF4
2DBF
2C35
2E20
2B83
2EF4
2F74
2DD8
1FA9
AAE2
A823
A84D
2DA9
2B63
A8B1
A1C6
B028
AF49
A9B3
ACA7
B0D6
B0F3
B0A2
AF70
ADD4
32CE
368C
371D
3580
3404
2C44
3245
3195
32EA
3429
A985
2CDF
2C73
2DDB
2A88
A957
A936
ACB3
A1F4
ABC8
A8AE
ACEA
B12B
B056
B1A9
ADA6
AEE1
AED1
A332
A8C1
2CEE
A953
A901
2825
A767
233D
22B4
2BE9
2AA7
2839
2667
A1F2
254E
2893
ACF4
24C2
213A
A26A
B01B
AECA
A526
AEAD
B121
A853
B022
29A8
B3A1
B4A5
AC62
B0D3
2F08
ACDF
B010
AF78
AF78
24C4
AB33
2C35
A01B
2C3A
2BEA
A5DA
2CA4
3210
2D1C
2A28
A509
A932
A744
AE69
27AC
A655
AB72
A63D
AD71
ABA3
29BF
2465
A83B
B03C
2275
23DC
A8A6
26DA
A59B
9F61
A836
A36E
225D
2AE6
2924
A489
AD06
AC15
B0B1
A58F
200F
AF17
AFDB
A93E
2CAF
2419
1D72
AA61
B0B0
2BD7
2D08
ABC5
AEDF
B056
A86A
26A2
AC8C
9733
A4E6
2E74
AB30
ABBF
AFCD
B072
3010
2DCF
A81F
AF9D
B0C4
312B
2C46
25A2
AA61
AE14
32D8
2F9E
29D4
A621
AC8A
31E9
30CC
2D95
24E8
A040
2B5B
2C9C
2E8F
301C
2D0C
1EDB
A923
A577
9ED2
2B30
ACE0
AE2A
AAB4
AA09
205A
AF36
AE44
AC01
A6FA
A588
B0A9
B1EC
AA0B
B050
A472
AB6B
9DEA
B0FD
AFE3
AEC3
2C16
2CD7
2459
A9CC
B015
3016
2DD5
2CE1
1380
AE44
2F70
3091
2841
205A
A406
2BA0
313F
2F19
2BBC
AB07
2E2A
2928
2AFC
2ADB
3226
2E20
AE8E
AC96
2E9F
30C5
3035
A489
ACAC
2C17
302B
2AF6
2E5D
27B2
A5C5
A3D7
2B61
2A96
285B
2051
A0D3
AE88
AEBC
23CD
2D34
2CA6
AFEF
AED3
ABD9
A968
A213
1E8D
298F
27E0
A524
B111
2A5C
9ECE
9CD7
297A
A9AD
AE3C
ABDA
1CAB
298F
29DA
29EC
AD37
B38D
B027
A9EC
2DE3
AE8B
B336
B0DD
21CF
3105
1D97
B03D
B01C
AD31
2CBB
A550
AC75
AA63
B0E1
30B1
A6DA
29EB
A6F0
A6AA
2B48
2811
ACE3
AE26
9ED4
2B8D
AB52
AFF5
AAEE
2C33
25B9
24A3
A8A7
2C5D
308B
2B91
971F
A987
A0D8
A6A6
2F9A
2A0B
285A
2ACA
29D4
26F0
ADE1
ADEB
A942
29E1
9AC7
AF11
B08E
A7B5
A408
2602
1D77
A7E7
AF47
ADC6
A310
2342
A9E9
A8C5
A8AA
A90F
A3A4
A88D
ABBA
28E1
317E
A7B3
2722
2BA6
3085
3288
3147
29FF
306F
30C5
2F8F
33BE
321D
3071
2C83
ACE0
A83C
2F6F
2EC1
282D
A7EC
AD30
AA4F
A4E1
2DE9
A7B3
2A31
2D09
2CAD
258E
A81C
ADD9
A613
1ED3
29AE
A744
AFF3
B023
212E
2886
25E0
2792
A9A8
A070
B1B0
2FC5
2C40
211D
2B68
25C1
2FBA
2FBC
2712
2D63
3244
2EA6
2FB8
A278
2705
3048
2EF5
3214
3300
323F
2EB8
258E
A20A
2C57
3068
2B0F
2C32
B019
B020
AC08
2AA0
B747
B695
B5B8
B48A
B613
AEF4
ACE3
B1D1
B225
B09C
2D1B
2F2B
2F8C
2CEA
2E27
2D33
318B
33E1
33B5
32E8
289E
2FB7
2F1D
2E49
2C9E
2C5B
AE14
AF3C
A612
2C92
2BA2
AC2F
B16A
AEC2
9F16
A37D
251A
A6C2
A99C
AE00
2A36
2C66
2F05
2E36
28C2
2552
2C4E
221A
2FF2
2DBA
B0FB
ADF1
B054
AE0A
A110
AC35
AD94
AEC8
AD5A
1DA7
205D
AA29
ACA0
B16B
ACC0
A63D
B17C
B156
B037
AACF
2C2D
9B29
AEE4
A4DE
AF2C
2972
28BC
2B60
2D05
2D6C
2066
AC7F
AB65
27D4
2A9B
AC38
AEA6
AF87
A6A2
A643
A134
AEC4
AC70
ADDA
ACE0
27DB
2634
1450
A7DE
2603
A50C
AF0D
B36B
AEFD
ACE5
205C
29A9
AD48
A920
1413
28D7
2D96
2B0D
2A05
2813
2D6D
2856
182E
2702
2EF8
A658
B257
B370
B092
A92F
A493
A50E
A57D
2937
A82B
AA1E
178A
A6F3
2A0B
26AF
2465
2767
2B9A
29DB
2C0B
AADD
2875
2E72
2E9F
2DC0
A9E4
ACDB
A958
20BD
A85B
A51D
AB43
B023
A867
28BD
A1B1
AED3
AA2A
ABB8
AC48
9D39
21CC
28C5
28C3
12D3
2CBB
28A9
29E4
1909
2C65
2664
24E0
A14F
2AAB
26E0
ACB8
B086
B04D
AD23
A869
ABB2
A421
AF2C
AC2D
A93A
290D
AA46
AD78
ADC3
A97C
10A5
AEDD
AD5C
B15F
254E
A877
ADCA
B077
B07A
AC8C
2ECB
2A54
9FF3
ABF7
2A1C
AA9C
2846
AC61
A8FD
AB5E
ACE7
A8A2
A9DA
A899
234E
B07B
A978
28EF
A204
1C64
A1F3
AB10
A800
AA55
2B76
2A0B
A169
AEBB
B03A
AE0D
2E6C
2C17
2D5B
A8B4
AC9B
301F
2FBC
2E2B
3167
3110
0C2D
9C3E
2B79
2D5A
3098
AD4C
B302
B16B
AD39
2B6F
2FAF
3105
A7BA
AC57
2640
2B51
2ED4
23A8
AF3F
AC8B
23F8
286E
2BA0
265F
A71D
A995
A103
2E46
2E9B
27F8
123D
2857
9CA0
AC10
ADA8
2DD0
A295
9B97
AA32
A474
ABE4
A087
ABA1
9C23
A8AC
A450
9E18
2139
A7CF
A294
301E
3401
3015
2D2A
252A
2CF7
3100
30F1
2EA6
9DF7
A6E2
A3C1
2D90
ACB6
A691
A95C
2821
AE90
ACA7
2B79
A842
AA97
AFAF
2994
2CC0
9D2B
AEB4
B3DD
AEA9
AC6C
2A5C
A2EB
B43C
B208
B0B1
2D5D
2D20
2831
A5AA
2A8F
AD33
AC6A
ADD6
AA1F
AA20
A86B
A8F6
AD56
A8EF
A91D
B254
29ED
A111
A86D
B0E2
31B2
30DE
31E9
2CD2
A4ED
2BD6
2749
AE4B
ABAE
9D26
2963
A74B
B269
B197
AA1D
2C29
A8DD
B1B0
B00F
9C4C
9C04
B07F
B06B
AC94
2E31
A403
B0B4
B1E3
ACE0
A8CA
2F01
2DD3
2BA9
209A
2987
ACD6
A8E9
9D6E
AC11
9973
B31E
B06A
B152
A55F
AA4F
A939
2E82
2FE8
AC24
B1A6
2DE0
3108
31F4
305E
AA70
2B41
29AF
2D2A
2952
A5BE
226D
A68A
28D1
A94C
AF8C
AF6C
ABAF
25E4
A889
B0A9
B291
AF7A
A6F0
AA6D
B06B
AAE1
AAB8
230B
A991
A69C
2AF5
2A69
2C2C
AC15
A9C1
AD9C
171E
A0BA
AD3C
AB37
AF4F
AD5C
AEDE
AD74
B18A
B200
AEBF
B0B4
AD21
AB34
AC39
AD64
A55F
2291
A857
2E8A
1DF8
29D4
2ADE
2BA1
30F4
AD50
1A03
ADFD
2D50
2E31
B370
AF6C
AF31
302D
3102
B157
B073
AC45
3099
327D
AFB1
B2B3
AB55
317E
2C3E
2E05
2B74
2047
2DDF
1EF2
208B
A9B6
2460
A540
28FB
2C5F
A92A
2735
2126
AC96
2304
AD61
AFD7
AA8D
AFCC
AE93
AF13
B03E
B180
281A
2DE8
1FD0
29EC
2B2B
AF59
AB07
B1AF
AF82
AF65
B238
B52C
B5B5
B3C4
AECE
2CBC
2D19
2D16
2D68
2C3A
31AF
2F57
2CA6
A4EF
A957
232A
3045
2F36
2914
2C5C
A833
24CA
A626
A709
2920
B01D
2976
A892
A048
2A45
B106
AA5D
9D55
AA0A
28B9
2BA0
2D62
2AFA
AC05
A93B
AA30
26C9
25D7
213A
1499
2BCD
2D5D
2991
2A46
A07E
99D0
1969
A740
AE33
AF43
A97D
A7AE
AD80
A647
AD81
AEB2
A24E
2AF1
A4E4
188C
2934
A36B
A4B1
2962
290E
ACE2
ACC1
AEEE
AB05
2D38
1C15
B0B2
B08A
9574
3024
300A
2A72
A9BB
2A19
2D3A
2F68
A555
AD2C
AAE1
2585
A27C
AA70
2584
AC16
2AB0
ABB6
AA5C
A833
983B
273E
2408
AF80
AE2C
253E
29B9
29BB
B0F2
A7C3
24AC
30DE
AA78
B2CC
A8E5
2CEB
3088
2FCC
30A8
2D1C
25E8
2C1E
B352
B127
AD37
A6DD
AAB1
B4AE
B544
B577
B45F
B1E4
2F5B
316E
3017
30EB
30CB
2F9A
3021
3212
2F53
2CF1
26A0
2C8D
3240
2DAD
A99A
A293
AE90
25F9
A83E
A651
2624
B102
9CD0
B1FB
AACE
2920
B567
B525
B589
B0D2
289E
B1DA
B1E1
AC8E
26DE
21DD
2CAA
23C2
AE36
ADAC
A458
253C
2D07
A8C9
AE87
AF35
A925
2AC0
2BCE
A4A6
ABA5
ADE2
B0B3
2751
2694
ABDD
A3EA
2AA3
2271
A82C
9ACD
ADBD
AEA0
B24B
AEAA
AD99
AD01
B3B0
B2AF
AE00
AEE0
B29B
B48F
B073
AA9C
AF23
B432
B272
B09E
AAE5
28A5
B2BC
B11A
A584
1DA7
AC9D
2948
A36F
A930
AE6A
B1FB
AB4A
2D51
AD61
B0BA
AE6A
B365
2035
3054
A278
AD64
2E99
9AC7
A414
2FA7
AC96
2775
2BE6
202B
AA1D
AA4E
1997
2160
ACFC
AC7D
2839
2F1E
3062
2CA7
2265
2B24
A0E3
305E
2D38
2C86
2C76
2992
A94C
26D2
2F38
2C82
2ED2
283F
229B
2FB4
AAA8
A78A
AF8F
B01E
AEA9
B155
B430
B017
AEE2
B35A
AC86
B3A5
B418
B309
AD3E
ABDB
AF02
B507
B483
235C
A676
1E89
A8FC
AD81
AD3F
2E1C
A7CC
1DA7
A6D8
A4C5
26BA
A893
A88A
A9C8
A95C
ACDF
AD1A
AD9A
AC30
AB9B
AB22
AE58
B075
B019
ABFB
AF17
B02C
AED0
AFF4
AB89
ACBE
A476
9C5F
AC49
1CB5
A82D
ACB7
AA31
17D2
ACAF
2C09
A9AF
B116
AC5B
9B27
2F84
A0B2
ADF8
ABF3
28F1
2FDF
2B82
A921
A3BE
26C2
AD1B
AD2A
B0F1
B17A
B07A
A98D
B014
ADCC
B07D
B074
AB8F
B08D
217E
AEF3
AF4C
24BA
A8D0
ADF4
ADD0
B119
A6DC
A81A
A756
AC1D
AA83
2AF7
298D
273E
AAF6
AACE
2C7C
29CF
300C
25B9
143B
1F84
AD6A
2614
2C21
2860
291A
A60F
2050
A860
246F
295F
2CC2
2C61
AEAE
A62D
2914
2C07
2F89
291B
A396
3159
321D
2858
295C
2B17
2F0B
2C72
2F3B
2A31
2569
2DBE
30D2
3010
2D43
29FE
2FF9
2B01
2E5E
2D08
2512
2646
AA11
A730
ADE8
2101
3123
A402
AE14
AFEA
A796
2DF1
AECA
B3DC
B3BD
A690
319B
AD44
B143
B204
2674
348D
2BF4
AF75
ABFE
A512
2916
A715
A700
2A3F
24D4
226C
2BF8
1BBF
A417
2852
AC77
2B2E
2C94
201D
1EE1
A6BE
28C5
2D10
29F3
A9CC
A789
2592
A783
2A50
287E
2852
2B9C
2CD6
29E7
A100
29FB
2722
1D6F
2C5F
2650
A928
A613
A929
2845
2CD3
A34B
2B4B
2D27
286C
28BB
2EE3
9BC9
2D07
2927
2C0B
A5C7
AA2D
A5A8
27BC
9E14
2F9F
2AE7
2270
2C34
A6B8
2DA0
2FBC
2967
1B4E
26E6
2D89
2EE3
2AA7
2E90
A92A
29BA
286A
2E8F
2FF9
2831
2EC5
2C09
2D21
1D08
AC78
2DC5
283E
AA40
258B
A96D
97B5
280B
2815
1B5E
2716
AD46
98E3
2F39
2640
AC0F
2057
2469
9BD7
2825
9608
AFDE
AF97
AEB6
A84A
A934
B1BE
B17D
AC92
27C5
2D04
B015
B0A3
AFDB
25A9
28A2
ACAD
B1FB
B05D
AD56
A5AD
291F
AEF3
AF1D
AF48
A86A
ACFF
ACA4
AD42
AC5E
AD01
A661
A9F3
AB29
AA7D
AA30
A012
AA35
9E44
1FF9
ADD3
9FF5
A6D3
A4F7
AC6F
A7C6
AC80
9F05
1542
A789
A054
2658
AFAA
164D
A0B0
9C49
26CC
AD41
9FD9
AB03
A841
29D2
AB53
A866
200B
A2B5
AA7D
AA2F
A596
A92C
AD67
A842
AC08
A9D2
AC75
ADDC
2630
A767
A2A6
AE23
264B
A691
A1F1
A3D1
2174
92E6
94D7
AE82
A3B6
A412
AB6E
A99E
AB97
2128
AA18
A4CF
A8F4
A847
AC44
1F41
AD2C
2B9E
AF36
ACB5
A991
AA91
249A
AE3D
A867
A8E3
A45B
2B72
AD22
AADE
A820
92A4
28FF
AA98
A5A1
ACD9
A8B2
2410
A9D5
AC77
A3A9
AC9C
A4E3
A1C8
9CD4
A1CE
24BD
A593
0A27
11E9
A444
274B
9530
ACAD
AD2C
A939
AB8F
AA10
A840
18FF
A81F
ADFC
AA76
AB98
AB94
AA77
1DA9
AA8F
AC27
AC63
ACA2
AE4E
AA75
A365
AC65
ABBA
A930
A4EA
AA65
AD81
AD6E
AC19
9B13
ABCF
ADB1
AA27
A820
A531
A89F
AB49
AD9A
AD8C
AC7B
A8AA
2082
ACD9
AB6B
AADC
A96D
2490
AA8F
ACA3
AE35
20CC
A89E
AB39
A4DE
9DB4
A7F6
2548
ABCC
1BCF
AC81
13C2
A503
AC1D
AADB
A838
AAA2
A461
A8B9
AACA
ACE8
9BF6
2513
A92C
AA2A
AE57
2786
250B
A9B7
A059
AC1F
A2E4
24B7
AD2D
AC09
AC57
9D5E
AD36
1573
A5E4
8E84
24DA
AABB
1684
1C76
AC6A
A359
A481
AA4F
AAB7
ACF7
AC97
AA40
A6DA
A8E7
AC8D
A632
AC02
AC18
AC17
ACE4
AD09
A849
A4F2
AC30
AD61
AD01
AC2D
A4A5
9879
A8A3
AE23
A817
AD45
B022
AD82
A5F9
A413
ABF9
A649
1FFA
263F
A9E2
AA61
AF08
A0CF
AC09
AE28
A03B
A6A5
ADD1
AC47
A603
AD18
A34D
AC18
9AE2
AB21
AC09
19D4
A942
9F5D
A956
AD2A
202B
1EBF
A329
A600
1F5C
ACA5
AABA
A3B3
A4FC
AC56
A742
A67F
9BBE
AA23
A517
ABD6
A413
23D0
9D00
225D
A410
A2DF
252B
A95F
A4DE
9DA9
AD36
1DE1
17DE
A7F8
245C
ACF7
A8CB
A261
9841
A8CF
A9A7
AD86
AD4B
AB17
1F72
1E27
AF6F
A6C7
AA8B
ACCF
27E0
A784
9AD3
9EA6
AC4B
22A0
A9C3
9A41
AE0C
ABD7
2144
AC97
AC87
A0BB
1C4D
A2AE
A8E2
1C17
A434
2671
AA41
AC37
AB7D
AC28
A4CE
A10A
AF87
A93F
1E84
245A
AE21
AC25
AAE8
A632
AAB5
A865
ABC4
2A79
2180
AAD8
AD86
AAC2
A10E
A0D9
ACBA
ADA5
AC9A
AB3F
A98E
A474
A70A
95BB
A969
AC83
AEFA
A7BC
A6D1
9EE2
225A
1672
9ADD
9DF3
AC9E
AC2B
A77D
9817
A8D5
2897
20ED
A3AE
AB1C
ACFC
2844
2892
216D
A452
9FCD
27A2
A712
A53E
ADBC
A6FB
A672
A1D5
ACC8
AA06
1DB7
A2DD
A4CF
AA33
A2D9
2E3A
2AB2
28AD
2568
B216
B429
B2CB
B444
B2BA
A8BD
AABD
ACA4
A446
B1A5
2FDF
2E8B
3222
30B6
2FAB
233B
A52F
2AA4
28D3
AA84
2FD7
2AB8
AD1A
A402
B007
2FCE
2ED1
250A
290D
25FD
3116
2E20
A8CE
2CCB
1B7F
3213
27C8
B0FD
28E5
2126
A40A
AE73
B349
AE4F
B2F2
323A
2F94
2EDB
2D65
B066
AE53
AF1E
A6CF
B14F
B559
277C
2E21
2F09
2872
2429
2A18
2B3E
304F
2EAA
1C32
B026
B12A
AC7B
AD44
B218
2EFA
1E10
B048
AB96
2A82
2E1D
A90B
B13B
AF23
2C9E
9F06
B030
B115
AFC5
2DF8
27AA
B1F7
B205
ADCE
2366
9EEA
AFAD
B391
B325
AD88
23D7
2FE9
32D5
32F7
2F4D
A99F
A40F
2B85
AA7A
B136
290E
2E71
3183
25B5
AF23
2DBC
3308
34EA
3247
2515
B0C0
A53C
9E7D
A9B4
A63D
A6F9
9F36
AC80
A491
2431
A9E0
ACA7
A3C7
0956
AD02
AC61
A480
28C6
2824
ADF6
A0CF
ADAE
A687
1EB0
23AE
2B92
AF68
AC73
AE7B
AC25
B2A2
B232
B016
AC71
B120
AF59
AE30
AB98
23E0
B082
AF18
AC1F
AA0B
2A20
AAC0
A36C
AB8F
A872
27A3
A940
A11F
1F7F
AD79
2532
A60A
311D
2CA1
2EC8
29E5
31E6
336F
2B50
2E14
2700
3448
3431
A413
AA7F
AE5F
3284
3316
22A4
AD83
B0D0
2F3E
2FBC
AD34
B16E
B275
28DB
B07A
A37A
A89E
B009
B06B
B1EA
B27E
B425
B485
B547
9E39
234B
257C
ADCF
ADE9
2D25
2A27
2F49
25BB
2C5B
AC24
AB0B
AE49
AEA5
B26A
30F7
3112
2C78
2CED
ABD0
2923
2C05
AAA8
B003
B057
23DE
AC42
B025
B410
B169
2CDC
A553
B054
AB16
B032
2767
AD44
915A
1ECC
ADCD
3232
3039
2E78
A331
AB8B
3108
306E
2D79
AB6B
ADFC
30C0
28EB
AE33
AFA6
ADE0
2ED4
2CDC
AD70
AC21
B2BC
AB3D
2BF3
AC6E
AE54
B362
2445
2BC3
A1B5
9C6E
A91F
2F0F
2D7B
2A3F
2E08
2AFE
3077
2D84
2B85
2440
2ADD
247C
2864
2BB7
2AF1
1ADC
2CC3
252A
2E47
A03D
1C3F
3172
2D58
287D
24F0
292D
2CE5
1DAF
AB1B
B170
AB0F
29E5
AD1C
AF76
AFB0
9BBC
289F
A771
B022
AC50
9C18
AB11
AB15
AD3E
ACDD
AACE
AC6C
B208
A9D5
27B4
242A
3028
AFB9
AFC1
27C9
2C84
2467
B3B3
B49F
2302
2C58
A81F
B18B
B4A0
AC9D
26B1
B01C
B3B2
B4AA
B240
2A3C
2B8F
2859
3075
2B68
A0A3
A281
2656
2523
2C61
A8F9
AE43
A50C
AE30
AE03
B01C
9950
2D03
2D5A
260A
ACDC
2C92
2B82
2E7B
2E67
29D8
AD98
AEDF
B262
A97E
ACBF
313F
1DD1
AC2C
A1C6
A80A
300D
2544
B1BA
ADBE
ACF7
2B41
2F23
B049
B02F
AF85
9AFB
2C9C
AF3F
AC6F
AFD2
318B
2E7E
2FE6
3066
317E
A86B
A412
257E
A6A7
A874
2423
2DF8
A03C
218B
AAE2
2C9B
9DD8
A41C
B03F
B029
A473
2F4C
3050
A469
B026
2A87
2D52
287C
AD5B
AABC
2BFD
9FBA
B0FB
B065
B218
A82A
B44E
B102
B0C7
AC94
B2CD
971E
ACF0
2BA3
A4F1
B045
2CB1
A58F
30D9
2EAC
2BE6
AC18
AEC3
9B78
28AD
ABF2
A4A8
29A1
2BA6
2ECE
26FC
20E1
AE1E
AFD5
1F55
B1F8
B086
AEAA
B024
28B3
AB9D
AA49
80A7
1B17
B098
98BA
AC61
AB91
AB21
9B2A
AEB4
B257
B05E
A307
A6DD
B2A6
B10B
282F
2498
9C5E
B233
1A22
2CC2
AC56
2ADE
B008
A624
AA61
A7CE
22FE
2E69
16EA
297C
24EF
A4E3
1E59
311E
32BE
323F
3144
A074
2A08
ABF6
AF2A
20F8
A90C
B133
B2CA
B08E
AC5A
B429
B0B4
29EE
2948
A69D
A98C
AD0D
AD93
2BC4
3012
AE62
AB96
A833
2D9E
2B07
A2DF
A66C
994D
2805
9D7E
296D
A21D
26F6
1EBA
AE91
2EED
25DA
2AB2
25BE
A8A9
2A2B
2FF9
2C53
A571
A423
2E35
2F03
2ED6
2B55
A411
284B
300B
2B9E
25BA
ABB8
2B18
A357
A40D
AEE4
A532
214A
AA78
A876
AB17
06C0
2CD5
2AA3
AEFD
AC57
ACE2
ACB1
AEB2
2651
2B33
B100
B263
291A
29BD
28E1
AAFC
282B
2CCC
2482
2AF0
2AED
A7A5
A9C0
1EB9
AB45
2489
2E73
310E
3224
3193
3129
2B24
2D9A
2CF8
1BBC
230B
2E68
2B10
A6F8
AF97
B0B8
2B82
1E03
B044
AF60
AF8F
A998
27EF
23F6
AA07
AACE
3088
314C
2BCB
AF51
AC68
3452
313A
2653
ADC8
2EE2
2DDD
A223
2A3D
2AC3
22A6
ABFB
3287
2ECE
2488
24D0
1AC1
3126
A730
A9C2
A43D
27F5
2DD6
2C20
31A2
32CF
AAC1
25D0
9560
9C55
2D0E
B2F9
ADA1
AAE5
AB07
26E2
B081
A9F2
AD5B
9C06
2568
B35E
AC7B
AC37
A816
2A0A
2A5B
2D15
2E94
2B6A
A638
2AFE
2C06
1426
2C57
939F
2F2C
1DC9
A811
2554
AA6A
ACA7
AE4A
A5F6
AC0A
AB8D
AC51
ACEE
ACC3
AB42
AE2D
3147
30C3
2553
A807
2F4C
349C
2C8A
A80A
2F86
2E43
26C8
2D57
2C78
2809
A149
2954
30A7
A0D6
1C77
2A8C
16F3
1010
AC6F
279E
3089
AEFB
A8AB
A8FD
1F24
317C
AD33
A648
2FCD
2BC3
2F9C
1DE9
29E6
2DF7
2C80
31B6
2C90
2DF7
2D21
28E4
2AD3
2BAC
AB5A
ABF5
A42D
A66F
298E
2C46
A92B
A8B2
A9D4
2D39
A22E
AE8A
AC29
A8BD
AA76
B478
B32A
AAD5
AD4D
A8EB
2A39
2F39
A042
2816
2257
2D13
A2A5
1468
29FB
30C0
31DB
2EE3
256D
2FE3
A53E
ACE2
23D1
AC36
25D8
2002
A6E2
A9C2
2224
2C87
25EC
A78C
2842
2919
2AF6
292F
AA19
2E1B
1C29
2ED3
226C
A1AE
AC40
25AA
AACD
A806
AB94
2572
A85C
AC78
2476
AD65
A90B
A9CC
AC61
1E35
2A22
2545
1CF5
26B4
2217
2699
2A85
2AAB
25EC
A9BB
A947
2078
ACC0
A3CC
A0F5
A461
AC2F
A7D9
1FB1
A649
9769
227D
9C94
25C4
A94C
A920
A9E8
A927
A892
A889
A9B8
AA4C
A92C
2555
1CAC
A82A
1CAD
ABC4
AB6A
A82F
9E98
A4F6
AB0C
A82C
A58C
AE0D
A984
9D55
2574
A8D7
9DC8
9E5E
A56C
A577
1D02
A757
AAD5
2236
A8A9
A9FA
A459
A71B
A964
9F2E
2A20
A88A
ABDF
AD09
AB83
83ED
AA54
9D9A
A2A7
AAF2
29C3
24C5
AC22
A915
AB46
A5D7
1640
A482
AB6C
9E8E
9B16
A6AF
AC79
9A67
A688
A840
24E6
9A27
9C32
A8B6
AA13
A1F0
ACD6
AAAB
ACB0
A984
AC4A
AC1C
A832
2873
25E3
AA50
A90F
A0F1
23BD
A5F3
2948
2BD0
A878
AA62
84CD
2C3A
A0A7
1C69
AA02
1018
A5BF
A6DB
20B1
AC8F
A7AC
A13C
AA2D
A703
A8FF
9F37
2032
A9A3
A71F
A82B
AD2A
2526
1CF2
1F1A
20AD
A521
A42F
A574
9958
AC8B
A962
A2F6
AC00
AACC
ABF9
A3D9
A6AF
A2B3
AAA2
A8E0
24CC
A330
A972
26CA
243A
28A2
AAB8
2849
A80E
A4F7
2489
24BB
27E3
25A8
A937
A5C9
182B
A6CC
A65D
9717
AA82
A58E
24CD
AD45
1876
AC99
A15E
207F
A008
ACFD
9D93
ACA7
A9E3
A5F0
AA60
1913
ACBE
AB08
A0A4
9FAD
A9BF
A9CF
AB80
A700
ACCF
21B2
A452
9B40
27E4
20DD
2547
A54B
9E53
9F61
25C1
A95E
996A
AC81
A27E
A31B
AC3A
1FBF
224E
28C2
278B
AC07
9EE1
A490
24CE
A6AF
1ED7
22D8
299D
AB6F
A17D
A3C2
A8D1
AA18
AC70
A8D7
A9B3
A8CD
257B
A460
24D2
AB3F
A9DB
A752
96A5
13BD
A807
9CDD
ABE2
22DE
2657
9D26
A332
A4F0
232A
212C
25A4
28CB
A631
A9F3
259F
A9F1
A911
A928
27B2
1A61
9D82
2145
A49B
2361
AD09
A4B2
2509
A7A5
26D6
A77B
AAB1
AC80
A304
A48C
A128
A926
A75C
A8A7
2008
149A
AA4A
A66B
AB47
AB80
26CF
9FD7
AC9A
A999
A73F
1F50
A570
24D4
AC47
A6EA
2529
8CEC
A830
1EE9
2436
1F36
A834
AA8E
AB55
236C
ABDD
A538
218F
18FB
A5A4
288D
2201
2793
A9C6
A6E2
98C4
A7F9
AC0D
A849
A8A1
A9BC
A93C
AB53
9189
A552
A34F
AB1B
26F4
AC22
AACD
227B
1D70
95BE
A413
A873
AA4C
A5EC
A9B9
A886
A757
A4C4
A3AD
A723
2415
184B
2720
AA05
A33B
A5D6
1ACE
A395
AABD
A84B
1FEC
A53D
A616
AD58
206C
9A34
9AA6
AC1C
AB43
1EB9
A31E
213A
AABF
AD18
9FE2
AB6B
A73B
1DE3
2540
2832
AB40
A8E5
AB17
2294
2314
A873
2731
A726
AE36
AAF3
2E65
2E96
2A32
9C68
A950
238C
B087
A48A
B07B
AE79
ACBA
2420
24D9
ABDE
ABD9
A8BE
9F71
2825
24E4
A9B0
AD7E
9C08
A55D
ADEB
939F
A545
ADF1
30A3
B119
B11B
227C
A954
28FF
B29A
ACAF
A6A9
27B9
A619
AE9F
AD78
B082
AAC1
24DE
B122
B076
B31A
A841
2E33
302C
2DD5
2A32
2C0C
2B3A
2E21
2F02
2EA9
289A
226F
B07A
A877
313E
30B3
25FE
2C28
AC2B
B01F
2DB3
30A3
2E29
A4AC
A5E8
AA8C
AA7C
30D5
2E69
A873
2EB7
2F36
302D
31AF
2D4B
AC9D
2CD6
A17A
2EAB
3036
AB33
ACB9
B0F2
AB9F
2F6E
2FAF
2C17
ADC2
A890
AAC4
2E60
29F9
AA82
AC4D
26F0
2683
A933
29EA
15B8
237E
2D2F
2BE9
28A1
1F0E
25FC
2D5D
30E3
9802
A483
AF73
B1F3
24B9
2978
9D75
A56C
B075
A793
3462
310B
2D12
A8BC
27F3
3049
340C
3008
A903
25FE
29D8
3024
3181
2B2C
AADC
B114
1FE2
2C8B
2D50
B011
B317
B139
A99A
2383
AF1D
2C78
1EEC
9BAE
2448
2FA3
21D2
30C4
2D81
2773
28D2
A106
27A9
2EFF
2C19
2B4E
2F02
24AC
A4A8
2DF8
2B80
2D52
2DF7
A646
AC66
2938
AF82
B084
B155
AD18
AF2C
B0FF
A7CE
B023
B20C
B2CD
B1E4
B35C
B3D7
B65C
B22E
B15A
B31B
B288
B359
B2D6
B074
B11E
AD0E
9D92
A828
229E
2C9A
2C27
2DF2
2C40
9145
278A
AA60
B02B
29D7
B02E
AC05
2472
A96F
2DA4
B137
B04B
AC6A
2DE7
283F
A389
A2E3
A2B7
A7A7
9933
A189
9607
AC29
8F7D
2F86
B038
AB93
2C85
30AD
2EB6
AA04
2024
1F4B
AC6A
AED5
1F6D
A9AB
B29D
B312
A0D0
B3A1
B0A7
B1E8
B09B
AD8E
2804
2EFC
3151
309B
32F3
ADFD
A63B
2C79
2EBD
318C
AFBD
AC70
ABB9
27E2
30F2
B0BB
B028
AC63
A15C
2FD7
B175
AE6E
AFA6
9CA8
2D88
30AF
99AA
AC62
B0F5
B1F4
30DA
2D1B
AAAE
ABD1
ACF3
2F00
2F2F
28ED
AC53
AC1C
2BB3
2655
26DC
ACD1
ACEA
2F74
2AA4
2D0D
2E32
AD00
AD3D
28E5
A8DA
998B
303F
B1CE
A8B2
2822
2B30
25EB
2334
ACDC
B068
A1EB
2DF9
AEB3
B093
B3D0
AE39
23BE
B27A
B0B8
AF98
ADAE
A219
29F3
24A2
2C46
AC33
B315
2D43
2CEA
2FCA
2D05
AD60
298A
A99F
AC1A
9216
2D7D
26B4
AC1A
B0A0
AC5E
101A
1D66
AB74
9A4E
AF27
AC59
2F0F
2CF3
2C70
246E
AD02
B07E
A7BC
2AA7
3147
2F0B
AC70
1DE6
2989
2842
28A7
25F0
2832
2BBC
AD88
9AF1
A83A
AC43
22C8
2121
AA6C
2E27
2C2D
22D6
2DA3
9E74
2B39
A59A
AC0B
2470
2A0F
AD58
AD1E
AF9F
2DA9
32F9
AD7F
A390
2CE5
2CFB
294D
A6DF
252D
307E
2D8B
2FEB

