A97E
327F
325D
287B
AEE1
AC21
31A3
2833
AF47
2918
319D
AA18
A23F
AC7D
35DF
334D
AA01
3142
334F
A711
AF32
A4E4
2C6C
29A5
1D88
3767
2FAE
B322
337F
32F2
286A
B034
A4CA
AFB5
2D0B
AD3F
2E9E
B0D1
2ED7
AD79
9E74
2967
B051
23FD
31E3
2259
B13D
2CF2
3292
28CA
31DC
33AD
A905
A905
34BF
A139
3183
34B9
2E89
3426
318F
2CEA
3487
B228
AB4F
AA3F
AD6D
2D2F
1881
9AF7
A4EA
2E09
B193
2CDD
30E2
35AF
31D6
3589
A89C
37A1
AC03
AF45
AC93
2CEC

